{
  "version": "1.0",
  "truncation": {
    "direction": "Right",
    "max_length": 94,
    "strategy": "LongestFirst",
    "stride": 0
  },
  "padding": null,
  "added_tokens": [
    {
      "id": 0,
      "content": "[PAD]",
      "single_word": false,
      "lstrip": false,
      "rstrip": false,
      "normalized": false,
      "special": true
    },
    {
      "id": 1,
      "content": "[UNK]",
      "single_word": false,
      "lstrip": false,
      "rstrip": false,
      "normalized": false,
      "special": true
    },
    {
      "id": 2,
      "content": "[CLS]",
      "single_word": false,
      "lstrip": false,
      "rstrip": false,
      "normalized": false,
      "special": true
    },
    {
      "id": 3,
      "content": "[SEP]",
      "single_word": false,
      "lstrip": false,
      "rstrip": false,
      "normalized": false,
      "special": true
    },
    {
      "id": 4,
      "content": "[MASK]",
      "single_word": false,
      "lstrip": false,
      "rstrip": false,
      "normalized": false,
      "special": true
    }
  ],
  "normalizer": {
    "type": "BertNormalizer",
    "clean_text": true,
    "handle_chinese_chars": true,
    "strip_accents": null,
    "lowercase": false
  },
  "pre_tokenizer": {
    "type": "BertPreTokenizer"
  },
  "post_processor": {
    "type": "TemplateProcessing",
    "single": [
      {
        "SpecialToken": {
          "id": "[CLS]",
          "type_id": 0
        }
      },
      {
        "Sequence": {
          "id": "A",
          "type_id": 0
        }
      },
      {
        "SpecialToken": {
          "id": "[SEP]",
          "type_id": 0
        }
      }
    ],
    "pair": [
      {
        "SpecialToken": {
          "id": "[CLS]",
          "type_id": 0
        }
      },
      {
        "Sequence": {
          "id": "A",
          "type_id": 0
        }
      },
      {
        "SpecialToken": {
          "id": "[SEP]",
          "type_id": 0
        }
      },
      {
        "Sequence": {
          "id": "B",
          "type_id": 1
        }
      },
      {
        "SpecialToken": {
          "id": "[SEP]",
          "type_id": 1
        }
      }
    ],
    "special_tokens": {
      "[CLS]": {
        "id": "[CLS]",
        "ids": [
          2
        ],
        "tokens": [
          "[CLS]"
        ]
      },
      "[SEP]": {
        "id": "[SEP]",
        "ids": [
          3
        ],
        "tokens": [
          "[SEP]"
        ]
      }
    }
  },
  "decoder": {
    "type": "WordPiece",
    "prefix": "##",
    "cleanup": true
  },
  "model": {
    "type": "WordPiece",
    "unk_token": "[UNK]",
    "continuing_subword_prefix": "##",
    "max_input_chars_per_word": 100,
    "vocab": {
      "[PAD]": 0,
      "[UNK]": 1,
      "[CLS]": 2,
      "[SEP]": 3,
      "[MASK]": 4,
      "!": 5,
      "\"": 6,
      "#": 7,
      "$": 8,
      "%": 9,
      "&": 10,
      "'": 11,
      "(": 12,
      ")": 13,
      "*": 14,
      "+": 15,
      ",": 16,
      "-": 17,
      ".": 18,
      "/": 19,
      "0": 20,
      "1": 21,
      "2": 22,
      "3": 23,
      "4": 24,
      "5": 25,
      "6": 26,
      "7": 27,
      "8": 28,
      "9": 29,
      ":": 30,
      ";": 31,
      "<": 32,
      "=": 33,
      ">": 34,
      "?": 35,
      "@": 36,
      "A": 37,
      "B": 38,
      "C": 39,
      "D": 40,
      "E": 41,
      "F": 42,
      "G": 43,
      "H": 44,
      "I": 45,
      "J": 46,
      "K": 47,
      "L": 48,
      "M": 49,
      "N": 50,
      "O": 51,
      "P": 52,
      "Q": 53,
      "R": 54,
      "S": 55,
      "T": 56,
      "U": 57,
      "V": 58,
      "W": 59,
      "X": 60,
      "Y": 61,
      "Z": 62,
      "[": 63,
      "\\": 64,
      "]": 65,
      "^": 66,
      "_": 67,
      "`": 68,
      "a": 69,
      "b": 70,
      "c": 71,
      "d": 72,
      "e": 73,
      "f": 74,
      "g": 75,
      "h": 76,
      "i": 77,
      "j": 78,
      "k": 79,
      "l": 80,
      "m": 81,
      "n": 82,
      "o": 83,
      "p": 84,
      "q": 85,
      "r": 86,
      "s": 87,
      "t": 88,
      "u": 89,
      "v": 90,
      "w": 91,
      "x": 92,
      "y": 93,
      "z": 94,
      "{": 95,
      "}": 96,
      "~": 97,
      "¡": 98,
      "¢": 99,
      "£": 100,
      "¤": 101,
      "¥": 102,
      "¦": 103,
      "§": 104,
      "¨": 105,
      "©": 106,
      "ª": 107,
      "«": 108,
      "¬": 109,
      "®": 110,
      "¯": 111,
      "°": 112,
      "±": 113,
      "²": 114,
      "³": 115,
      "´": 116,
      "µ": 117,
      "¶": 118,
      "·": 119,
      "¸": 120,
      "¹": 121,
      "º": 122,
      "»": 123,
      "¼": 124,
      "½": 125,
      "¾": 126,
      "¿": 127,
      "À": 128,
      "Á": 129,
      "Â": 130,
      "Ã": 131,
      "Ä": 132,
      "Å": 133,
      "Ç": 134,
      "É": 135,
      "Ì": 136,
      "Í": 137,
      "Î": 138,
      "Ï": 139,
      "Ñ": 140,
      "Ò": 141,
      "Ó": 142,
      "Õ": 143,
      "Ö": 144,
      "×": 145,
      "Ø": 146,
      "Ú": 147,
      "Ü": 148,
      "à": 149,
      "á": 150,
      "â": 151,
      "ã": 152,
      "ä": 153,
      "å": 154,
      "æ": 155,
      "ç": 156,
      "è": 157,
      "é": 158,
      "ê": 159,
      "ë": 160,
      "ì": 161,
      "í": 162,
      "î": 163,
      "ï": 164,
      "ð": 165,
      "ñ": 166,
      "ò": 167,
      "ó": 168,
      "ô": 169,
      "õ": 170,
      "ö": 171,
      "÷": 172,
      "ø": 173,
      "ù": 174,
      "ú": 175,
      "û": 176,
      "ü": 177,
      "ý": 178,
      "þ": 179,
      "ÿ": 180,
      "Ā": 181,
      "ā": 182,
      "ă": 183,
      "ą": 184,
      "Ć": 185,
      "ć": 186,
      "Č": 187,
      "č": 188,
      "ď": 189,
      "Đ": 190,
      "đ": 191,
      "Ē": 192,
      "ē": 193,
      "ė": 194,
      "ě": 195,
      "Ĝ": 196,
      "ğ": 197,
      "Ġ": 198,
      "ģ": 199,
      "ī": 200,
      "İ": 201,
      "ı": 202,
      "Ĳ": 203,
      "Ĵ": 204,
      "ĵ": 205,
      "ĺ": 206,
      "ļ": 207,
      "ľ": 208,
      "Ŀ": 209,
      "ł": 210,
      "ń": 211,
      "ň": 212,
      "ō": 213,
      "ŏ": 214,
      "ő": 215,
      "œ": 216,
      "ś": 217,
      "Ş": 218,
      "ş": 219,
      "Š": 220,
      "š": 221,
      "ţ": 222,
      "Ť": 223,
      "ū": 224,
      "ű": 225,
      "ų": 226,
      "ŵ": 227,
      "Ÿ": 228,
      "ź": 229,
      "ż": 230,
      "Ž": 231,
      "ž": 232,
      "ƒ": 233,
      "ư": 234,
      "ƴ": 235,
      "Ʒ": 236,
      "Ƽ": 237,
      "ǎ": 238,
      "ǐ": 239,
      "ǒ": 240,
      "ǖ": 241,
      "ǘ": 242,
      "ǜ": 243,
      "ǣ": 244,
      "ǰ": 245,
      "ǳ": 246,
      "ǿ": 247,
      "ȧ": 248,
      "ȫ": 249,
      "Ȼ": 250,
      "ȼ": 251,
      "Ƚ": 252,
      "Ʉ": 253,
      "Ɋ": 254,
      "ɑ": 255,
      "ɒ": 256,
      "ʇ": 257,
      "ʖ": 258,
      "ʜ": 259,
      "ʠ": 260,
      "ʣ": 261,
      "ʱ": 262,
      "ʶ": 263,
      "ʹ": 264,
      "ʼ": 265,
      "ʽ": 266,
      "ˆ": 267,
      "ˊ": 268,
      "ˋ": 269,
      "ː": 270,
      "˙": 271,
      "˵": 272,
      "̎": 273,
      "̐": 274,
      "̡": 275,
      "̳": 276,
      "̽": 277,
      "͠": 278,
      "͢": 279,
      "ͳ": 280,
      "ͷ": 281,
      ";": 282,
      "Ϳ": 283,
      "΄": 284,
      "Α": 285,
      "Β": 286,
      "Γ": 287,
      "Ε": 288,
      "Η": 289,
      "Θ": 290,
      "Ι": 291,
      "Κ": 292,
      "Λ": 293,
      "Μ": 294,
      "Ν": 295,
      "Ξ": 296,
      "Ο": 297,
      "Ρ": 298,
      "Σ": 299,
      "Τ": 300,
      "Υ": 301,
      "Ψ": 302,
      "Ω": 303,
      "Ϊ": 304,
      "α": 305,
      "β": 306,
      "γ": 307,
      "δ": 308,
      "ε": 309,
      "ι": 310,
      "κ": 311,
      "μ": 312,
      "ο": 313,
      "π": 314,
      "ρ": 315,
      "σ": 316,
      "τ": 317,
      "φ": 318,
      "ψ": 319,
      "ό": 320,
      "ϔ": 321,
      "Ϟ": 322,
      "Ϣ": 323,
      "Ϭ": 324,
      "ϵ": 325,
      "Ϻ": 326,
      "ϻ": 327,
      "Ͽ": 328,
      "Ё": 329,
      "Ђ": 330,
      "Ў": 331,
      "А": 332,
      "Б": 333,
      "В": 334,
      "Г": 335,
      "Ж": 336,
      "З": 337,
      "И": 338,
      "М": 339,
      "Н": 340,
      "Р": 341,
      "Т": 342,
      "Ф": 343,
      "Х": 344,
      "Ч": 345,
      "Ш": 346,
      "Щ": 347,
      "Ы": 348,
      "Ь": 349,
      "Э": 350,
      "Я": 351,
      "а": 352,
      "б": 353,
      "в": 354,
      "г": 355,
      "д": 356,
      "е": 357,
      "з": 358,
      "и": 359,
      "й": 360,
      "к": 361,
      "л": 362,
      "м": 363,
      "н": 364,
      "о": 365,
      "п": 366,
      "р": 367,
      "с": 368,
      "т": 369,
      "у": 370,
      "ф": 371,
      "ц": 372,
      "ч": 373,
      "ш": 374,
      "щ": 375,
      "ъ": 376,
      "ь": 377,
      "э": 378,
      "ю": 379,
      "є": 380,
      "ї": 381,
      "ѹ": 382,
      "Ҁ": 383,
      "ґ": 384,
      "Ҕ": 385,
      "ҥ": 386,
      "Ҫ": 387,
      "ҫ": 388,
      "ҳ": 389,
      "һ": 390,
      "Ӄ": 391,
      "ӄ": 392,
      "ӈ": 393,
      "Ӊ": 394,
      "Ӑ": 395,
      "Ӛ": 396,
      "Ӡ": 397,
      "ӡ": 398,
      "ӫ": 399,
      "ӯ": 400,
      "ӷ": 401,
      "Ԃ": 402,
      "Ԋ": 403,
      "ԋ": 404,
      "ԏ": 405,
      "Ԛ": 406,
      "Ԡ": 407,
      "Ԥ": 408,
      "Դ": 409,
      "Ե": 410,
      "Լ": 411,
      "Ղ": 412,
      "բ": 413,
      "չ": 414,
      "ց": 415,
      "փ": 416,
      "ֆ": 417,
      "֐": 418,
      "֘": 419,
      "֡": 420,
      "֣": 421,
      "֧": 422,
      "֪": 423,
      "֮": 424,
      "ֱ": 425,
      "ּ": 426,
      "ד": 427,
      "ו": 428,
      "ע": 429,
      "ש": 430,
      "ת": 431,
      "װ": 432,
      "׷": 433,
      "؊": 434,
      "،": 435,
      "ؓ": 436,
      "؟": 437,
      "ـ": 438,
      "ً": 439,
      "َ": 440,
      "ُ": 441,
      "ِ": 442,
      "ّ": 443,
      "ْ": 444,
      "ڤ": 445,
      "ڱ": 446,
      "ܷ": 447,
      "ݣ": 448,
      "ݿ": 449,
      "ߣ": 450,
      "ँ": 451,
      "ं": 452,
      "अ": 453,
      "आ": 454,
      "इ": 455,
      "ई": 456,
      "उ": 457,
      "ऊ": 458,
      "ऋ": 459,
      "ए": 460,
      "ऐ": 461,
      "ओ": 462,
      "औ": 463,
      "क": 464,
      "ख": 465,
      "ग": 466,
      "घ": 467,
      "च": 468,
      "छ": 469,
      "ज": 470,
      "झ": 471,
      "ञ": 472,
      "ट": 473,
      "ठ": 474,
      "ड": 475,
      "ढ": 476,
      "ण": 477,
      "त": 478,
      "थ": 479,
      "द": 480,
      "ध": 481,
      "न": 482,
      "प": 483,
      "फ": 484,
      "ब": 485,
      "भ": 486,
      "म": 487,
      "य": 488,
      "र": 489,
      "ल": 490,
      "व": 491,
      "श": 492,
      "ष": 493,
      "स": 494,
      "ह": 495,
      "़": 496,
      "ा": 497,
      "ि": 498,
      "ी": 499,
      "ु": 500,
      "ू": 501,
      "ृ": 502,
      "े": 503,
      "ै": 504,
      "ॉ": 505,
      "ो": 506,
      "ौ": 507,
      "्": 508,
      "।": 509,
      "๘": 510,
      "ဪ": 511,
      "ါ": 512,
      "Ⴗ": 513,
      "Ⴞ": 514,
      "ᆼ": 515,
      "ኸ": 516,
      "ኾ": 517,
      "Ἧ": 518,
      "‐": 519,
      "‒": 520,
      "–": 521,
      "—": 522,
      "―": 523,
      "‘": 524,
      "’": 525,
      "“": 526,
      "”": 527,
      "„": 528,
      "†": 529,
      "•": 530,
      "․": 531,
      "…": 532,
      "‧": 533,
      "‰": 534,
      "′": 535,
      "″": 536,
      "‵": 537,
      "※": 538,
      "⁄": 539,
      "₤": 540,
      "€": 541,
      "℃": 542,
      "№": 543,
      "™": 544,
      "Ⅱ": 545,
      "ⅳ": 546,
      "↖": 547,
      "∑": 548,
      "−": 549,
      "∕": 550,
      "∗": 551,
      "∘": 552,
      "∙": 553,
      "∮": 554,
      "∵": 555,
      "∶": 556,
      "∼": 557,
      "≤": 558,
      "≥": 559,
      "⊳": 560,
      "⊿": 561,
      "⋯": 562,
      "⋹": 563,
      "⌒": 564,
      "⎄": 565,
      "④": 566,
      "⑴": 567,
      "⑵": 568,
      "⑶": 569,
      "⑷": 570,
      "⑸": 571,
      "⑹": 572,
      "⑺": 573,
      "⑻": 574,
      "⑼": 575,
      "⑽": 576,
      "⑾": 577,
      "⑿": 578,
      "⒀": 579,
      "⒁": 580,
      "⒂": 581,
      "⒃": 582,
      "⒄": 583,
      "⒅": 584,
      "⒆": 585,
      "⒇": 586,
      "─": 587,
      "━": 588,
      "│": 589,
      "┄": 590,
      "┅": 591,
      "┈": 592,
      "┋": 593,
      "┍": 594,
      "┎": 595,
      "┏": 596,
      "┕": 597,
      "┘": 598,
      "├": 599,
      "┣": 600,
      "┤": 601,
      "┥": 602,
      "┦": 603,
      "┪": 604,
      "┬": 605,
      "┮": 606,
      "┯": 607,
      "┰": 608,
      "┵": 609,
      "┶": 610,
      "┾": 611,
      "┿": 612,
      "╀": 613,
      "╃": 614,
      "╆": 615,
      "╈": 616,
      "╊": 617,
      "╖": 618,
      "╡": 619,
      "╢": 620,
      "╣": 621,
      "╧": 622,
      "╬": 623,
      "╭": 624,
      "╯": 625,
      "╰": 626,
      "╲": 627,
      "▄": 628,
      "▅": 629,
      "▆": 630,
      "■": 631,
      "□": 632,
      "▪": 633,
      "►": 634,
      "◆": 635,
      "○": 636,
      "◎": 637,
      "●": 638,
      "◦": 639,
      "◯": 640,
      "♦": 641,
      "♪": 642,
      "♫": 643,
      "♬": 644,
      "➢": 645,
      "ⰲ": 646,
      "⼯": 647,
      "、": 648,
      "。": 649,
      "〃": 650,
      "〇": 651,
      "〈": 652,
      "〉": 653,
      "《": 654,
      "》": 655,
      "「": 656,
      "」": 657,
      "『": 658,
      "』": 659,
      "【": 660,
      "】": 661,
      "〔": 662,
      "〕": 663,
      "〝": 664,
      "〞": 665,
      "〡": 666,
      "ぃ": 667,
      "い": 668,
      "う": 669,
      "ぇ": 670,
      "ぉ": 671,
      "か": 672,
      "が": 673,
      "き": 674,
      "ぐ": 675,
      "こ": 676,
      "ご": 677,
      "さ": 678,
      "ざ": 679,
      "じ": 680,
      "す": 681,
      "ず": 682,
      "せ": 683,
      "そ": 684,
      "だ": 685,
      "ち": 686,
      "っ": 687,
      "て": 688,
      "ど": 689,
      "な": 690,
      "に": 691,
      "ね": 692,
      "の": 693,
      "は": 694,
      "ぱ": 695,
      "ひ": 696,
      "び": 697,
      "ぶ": 698,
      "ぺ": 699,
      "ほ": 700,
      "ま": 701,
      "み": 702,
      "め": 703,
      "も": 704,
      "ゃ": 705,
      "や": 706,
      "ゅ": 707,
      "ゆ": 708,
      "よ": 709,
      "ら": 710,
      "る": 711,
      "れ": 712,
      "ろ": 713,
      "ゎ": 714,
      "わ": 715,
      "ゑ": 716,
      "を": 717,
      "ん": 718,
      "゜": 719,
      "ゞ": 720,
      "ァ": 721,
      "ア": 722,
      "イ": 723,
      "ウ": 724,
      "ェ": 725,
      "カ": 726,
      "ガ": 727,
      "キ": 728,
      "ケ": 729,
      "ゲ": 730,
      "ゴ": 731,
      "サ": 732,
      "ザ": 733,
      "セ": 734,
      "ゼ": 735,
      "ソ": 736,
      "タ": 737,
      "ダ": 738,
      "チ": 739,
      "ッ": 740,
      "ヅ": 741,
      "デ": 742,
      "ド": 743,
      "ナ": 744,
      "ニ": 745,
      "ネ": 746,
      "ノ": 747,
      "ハ": 748,
      "バ": 749,
      "パ": 750,
      "ヒ": 751,
      "フ": 752,
      "ブ": 753,
      "ヘ": 754,
      "ボ": 755,
      "ミ": 756,
      "メ": 757,
      "ユ": 758,
      "ョ": 759,
      "ル": 760,
      "ワ": 761,
      "ヰ": 762,
      "ン": 763,
      "ヴ": 764,
      "ヶ": 765,
      "・": 766,
      "ー": 767,
      "ヾ": 768,
      "ㄆ": 769,
      "ㄇ": 770,
      "ㄈ": 771,
      "ㄉ": 772,
      "ㄏ": 773,
      "ㄐ": 774,
      "ㄑ": 775,
      "ㄓ": 776,
      "ㄗ": 777,
      "ㄘ": 778,
      "ㄛ": 779,
      "ㄟ": 780,
      "ㄠ": 781,
      "ㄢ": 782,
      "ㄣ": 783,
      "ㄤ": 784,
      "ㄥ": 785,
      "ㄧ": 786,
      "ㄨ": 787,
      "ㄩ": 788,
      "㈠": 789,
      "㈡": 790,
      "㈢": 791,
      "㈣": 792,
      "㈤": 793,
      "㈥": 794,
      "㈦": 795,
      "㈧": 796,
      "㈨": 797,
      "㈩": 798,
      "㈱": 799,
      "㊣": 800,
      "㊽": 801,
      "㎝": 802,
      "㎡": 803,
      "㏄": 804,
      "㏑": 805,
      "㗎": 806,
      "㧐": 807,
      "㷻": 808,
      "䁿": 809,
      "一": 810,
      "丁": 811,
      "七": 812,
      "万": 813,
      "丈": 814,
      "三": 815,
      "上": 816,
      "下": 817,
      "不": 818,
      "与": 819,
      "丐": 820,
      "丑": 821,
      "专": 822,
      "且": 823,
      "世": 824,
      "丘": 825,
      "丙": 826,
      "业": 827,
      "丛": 828,
      "东": 829,
      "丝": 830,
      "丞": 831,
      "丟": 832,
      "丢": 833,
      "两": 834,
      "严": 835,
      "並": 836,
      "丧": 837,
      "个": 838,
      "丫": 839,
      "中": 840,
      "丰": 841,
      "串": 842,
      "临": 843,
      "丸": 844,
      "丹": 845,
      "为": 846,
      "主": 847,
      "丽": 848,
      "举": 849,
      "乃": 850,
      "久": 851,
      "么": 852,
      "义": 853,
      "之": 854,
      "乌": 855,
      "乍": 856,
      "乎": 857,
      "乏": 858,
      "乐": 859,
      "乒": 860,
      "乓": 861,
      "乔": 862,
      "乖": 863,
      "乘": 864,
      "乙": 865,
      "乜": 866,
      "九": 867,
      "乞": 868,
      "也": 869,
      "习": 870,
      "乡": 871,
      "书": 872,
      "买": 873,
      "乱": 874,
      "乳": 875,
      "乾": 876,
      "亂": 877,
      "了": 878,
      "予": 879,
      "争": 880,
      "事": 881,
      "二": 882,
      "于": 883,
      "亏": 884,
      "云": 885,
      "互": 886,
      "五": 887,
      "井": 888,
      "亘": 889,
      "亚": 890,
      "些": 891,
      "亞": 892,
      "亟": 893,
      "亡": 894,
      "亢": 895,
      "交": 896,
      "亥": 897,
      "亦": 898,
      "产": 899,
      "亨": 900,
      "亩": 901,
      "享": 902,
      "京": 903,
      "亭": 904,
      "亮": 905,
      "亲": 906,
      "亵": 907,
      "人": 908,
      "亿": 909,
      "什": 910,
      "仁": 911,
      "仃": 912,
      "仅": 913,
      "仆": 914,
      "仇": 915,
      "今": 916,
      "介": 917,
      "仍": 918,
      "从": 919,
      "仑": 920,
      "仓": 921,
      "仔": 922,
      "仕": 923,
      "他": 924,
      "仗": 925,
      "付": 926,
      "仙": 927,
      "仟": 928,
      "代": 929,
      "令": 930,
      "以": 931,
      "仨": 932,
      "仪": 933,
      "们": 934,
      "仰": 935,
      "仲": 936,
      "件": 937,
      "价": 938,
      "任": 939,
      "份": 940,
      "仿": 941,
      "企": 942,
      "伊": 943,
      "伍": 944,
      "伎": 945,
      "伏": 946,
      "伐": 947,
      "休": 948,
      "众": 949,
      "优": 950,
      "伙": 951,
      "会": 952,
      "伝": 953,
      "伞": 954,
      "伟": 955,
      "传": 956,
      "伢": 957,
      "伤": 958,
      "伦": 959,
      "伪": 960,
      "伫": 961,
      "伯": 962,
      "估": 963,
      "伴": 964,
      "伶": 965,
      "伸": 966,
      "伺": 967,
      "似": 968,
      "伽": 969,
      "佃": 970,
      "但": 971,
      "佈": 972,
      "位": 973,
      "低": 974,
      "住": 975,
      "佐": 976,
      "佑": 977,
      "体": 978,
      "佔": 979,
      "何": 980,
      "余": 981,
      "佛": 982,
      "作": 983,
      "你": 984,
      "佢": 985,
      "佣": 986,
      "佤": 987,
      "佩": 988,
      "佪": 989,
      "佬": 990,
      "佯": 991,
      "佰": 992,
      "佳": 993,
      "佴": 994,
      "併": 995,
      "佷": 996,
      "佻": 997,
      "佼": 998,
      "佽": 999,
      "使": 1000,
      "侂": 1001,
      "侃": 1002,
      "侄": 1003,
      "來": 1004,
      "侈": 1005,
      "例": 1006,
      "侍": 1007,
      "侏": 1008,
      "侑": 1009,
      "侖": 1010,
      "侗": 1011,
      "侚": 1012,
      "供": 1013,
      "侜": 1014,
      "依": 1015,
      "侠": 1016,
      "侣": 1017,
      "侥": 1018,
      "侦": 1019,
      "侧": 1020,
      "侨": 1021,
      "侪": 1022,
      "侬": 1023,
      "侮": 1024,
      "侯": 1025,
      "侳": 1026,
      "侵": 1027,
      "侶": 1028,
      "便": 1029,
      "俀": 1030,
      "係": 1031,
      "促": 1032,
      "俄": 1033,
      "俅": 1034,
      "俇": 1035,
      "俊": 1036,
      "俎": 1037,
      "俏": 1038,
      "俐": 1039,
      "俑": 1040,
      "俗": 1041,
      "俘": 1042,
      "俚": 1043,
      "保": 1044,
      "俟": 1045,
      "俠": 1046,
      "信": 1047,
      "俨": 1048,
      "俩": 1049,
      "俭": 1050,
      "修": 1051,
      "俯": 1052,
      "俱": 1053,
      "俴": 1054,
      "俸": 1055,
      "俺": 1056,
      "俾": 1057,
      "倆": 1058,
      "倉": 1059,
      "個": 1060,
      "倌": 1061,
      "倍": 1062,
      "們": 1063,
      "倒": 1064,
      "倔": 1065,
      "倖": 1066,
      "倘": 1067,
      "候": 1068,
      "倚": 1069,
      "倜": 1070,
      "借": 1071,
      "倡": 1072,
      "倦": 1073,
      "倨": 1074,
      "倩": 1075,
      "倪": 1076,
      "倫": 1077,
      "倭": 1078,
      "倮": 1079,
      "倰": 1080,
      "倳": 1081,
      "债": 1082,
      "值": 1083,
      "倾": 1084,
      "假": 1085,
      "偈": 1086,
      "偉": 1087,
      "偌": 1088,
      "偎": 1089,
      "偏": 1090,
      "偕": 1091,
      "做": 1092,
      "停": 1093,
      "健": 1094,
      "側": 1095,
      "偵": 1096,
      "偶": 1097,
      "偷": 1098,
      "偽": 1099,
      "偿": 1100,
      "傀": 1101,
      "傅": 1102,
      "傍": 1103,
      "傑": 1104,
      "傖": 1105,
      "傘": 1106,
      "備": 1107,
      "傢": 1108,
      "傣": 1109,
      "傥": 1110,
      "储": 1111,
      "催": 1112,
      "傭": 1113,
      "傲": 1114,
      "傳": 1115,
      "債": 1116,
      "傷": 1117,
      "傻": 1118,
      "傾": 1119,
      "僅": 1120,
      "僊": 1121,
      "像": 1122,
      "僕": 1123,
      "僚": 1124,
      "僞": 1125,
      "僧": 1126,
      "僭": 1127,
      "僮": 1128,
      "僱": 1129,
      "僳": 1130,
      "僵": 1131,
      "價": 1132,
      "僻": 1133,
      "儀": 1134,
      "儂": 1135,
      "億": 1136,
      "儆": 1137,
      "儉": 1138,
      "儒": 1139,
      "儘": 1140,
      "償": 1141,
      "儡": 1142,
      "優": 1143,
      "儲": 1144,
      "儿": 1145,
      "兀": 1146,
      "允": 1147,
      "元": 1148,
      "兄": 1149,
      "充": 1150,
      "兆": 1151,
      "兇": 1152,
      "先": 1153,
      "光": 1154,
      "克": 1155,
      "兌": 1156,
      "免": 1157,
      "兑": 1158,
      "兒": 1159,
      "兔": 1160,
      "党": 1161,
      "兜": 1162,
      "兢": 1163,
      "入": 1164,
      "內": 1165,
      "全": 1166,
      "兩": 1167,
      "八": 1168,
      "公": 1169,
      "六": 1170,
      "兮": 1171,
      "兰": 1172,
      "共": 1173,
      "关": 1174,
      "兴": 1175,
      "兵": 1176,
      "其": 1177,
      "具": 1178,
      "典": 1179,
      "兹": 1180,
      "养": 1181,
      "兼": 1182,
      "兽": 1183,
      "冀": 1184,
      "内": 1185,
      "冇": 1186,
      "冈": 1187,
      "冉": 1188,
      "冊": 1189,
      "册": 1190,
      "再": 1191,
      "冒": 1192,
      "冕": 1193,
      "冗": 1194,
      "写": 1195,
      "冚": 1196,
      "军": 1197,
      "农": 1198,
      "冠": 1199,
      "冢": 1200,
      "冤": 1201,
      "冥": 1202,
      "冬": 1203,
      "冯": 1204,
      "冰": 1205,
      "冲": 1206,
      "决": 1207,
      "况": 1208,
      "冶": 1209,
      "冷": 1210,
      "冻": 1211,
      "净": 1212,
      "凄": 1213,
      "凅": 1214,
      "准": 1215,
      "凉": 1216,
      "凋": 1217,
      "凌": 1218,
      "凍": 1219,
      "减": 1220,
      "凑": 1221,
      "凛": 1222,
      "凜": 1223,
      "凝": 1224,
      "几": 1225,
      "凡": 1226,
      "凤": 1227,
      "凭": 1228,
      "凯": 1229,
      "凰": 1230,
      "凱": 1231,
      "凳": 1232,
      "凶": 1233,
      "凸": 1234,
      "凹": 1235,
      "出": 1236,
      "击": 1237,
      "函": 1238,
      "凿": 1239,
      "刀": 1240,
      "刁": 1241,
      "刃": 1242,
      "分": 1243,
      "切": 1244,
      "刉": 1245,
      "刊": 1246,
      "刑": 1247,
      "划": 1248,
      "列": 1249,
      "刘": 1250,
      "则": 1251,
      "刚": 1252,
      "创": 1253,
      "初": 1254,
      "删": 1255,
      "判": 1256,
      "別": 1257,
      "刨": 1258,
      "利": 1259,
      "刪": 1260,
      "别": 1261,
      "刮": 1262,
      "到": 1263,
      "制": 1264,
      "刷": 1265,
      "券": 1266,
      "刹": 1267,
      "刺": 1268,
      "刻": 1269,
      "刽": 1270,
      "剁": 1271,
      "剂": 1272,
      "剃": 1273,
      "則": 1274,
      "剉": 1275,
      "削": 1276,
      "剋": 1277,
      "剌": 1278,
      "前": 1279,
      "剎": 1280,
      "剐": 1281,
      "剑": 1282,
      "剒": 1283,
      "剔": 1284,
      "剖": 1285,
      "剛": 1286,
      "剝": 1287,
      "剥": 1288,
      "剧": 1289,
      "剩": 1290,
      "剪": 1291,
      "副": 1292,
      "割": 1293,
      "創": 1294,
      "剷": 1295,
      "剽": 1296,
      "剿": 1297,
      "劃": 1298,
      "劇": 1299,
      "劈": 1300,
      "劉": 1301,
      "劍": 1302,
      "劑": 1303,
      "力": 1304,
      "劝": 1305,
      "办": 1306,
      "功": 1307,
      "加": 1308,
      "务": 1309,
      "劣": 1310,
      "动": 1311,
      "助": 1312,
      "努": 1313,
      "劫": 1314,
      "励": 1315,
      "劲": 1316,
      "劳": 1317,
      "劵": 1318,
      "劾": 1319,
      "势": 1320,
      "勀": 1321,
      "勁": 1322,
      "勃": 1323,
      "勇": 1324,
      "勉": 1325,
      "勋": 1326,
      "勍": 1327,
      "勒": 1328,
      "動": 1329,
      "勘": 1330,
      "務": 1331,
      "勛": 1332,
      "勝": 1333,
      "勞": 1334,
      "募": 1335,
      "勢": 1336,
      "勤": 1337,
      "勵": 1338,
      "勸": 1339,
      "勺": 1340,
      "勻": 1341,
      "勾": 1342,
      "勿": 1343,
      "匀": 1344,
      "包": 1345,
      "匆": 1346,
      "匈": 1347,
      "匍": 1348,
      "匐": 1349,
      "匕": 1350,
      "化": 1351,
      "北": 1352,
      "匙": 1353,
      "匠": 1354,
      "匡": 1355,
      "匣": 1356,
      "匪": 1357,
      "匮": 1358,
      "匯": 1359,
      "匹": 1360,
      "区": 1361,
      "医": 1362,
      "匾": 1363,
      "匿": 1364,
      "區": 1365,
      "十": 1366,
      "千": 1367,
      "升": 1368,
      "午": 1369,
      "卉": 1370,
      "半": 1371,
      "卍": 1372,
      "华": 1373,
      "协": 1374,
      "卑": 1375,
      "卒": 1376,
      "卓": 1377,
      "協": 1378,
      "单": 1379,
      "卖": 1380,
      "南": 1381,
      "博": 1382,
      "卜": 1383,
      "占": 1384,
      "卡": 1385,
      "卢": 1386,
      "卤": 1387,
      "卦": 1388,
      "卧": 1389,
      "卫": 1390,
      "卯": 1391,
      "印": 1392,
      "危": 1393,
      "即": 1394,
      "却": 1395,
      "卵": 1396,
      "卷": 1397,
      "卸": 1398,
      "卻": 1399,
      "卿": 1400,
      "厂": 1401,
      "厄": 1402,
      "厅": 1403,
      "历": 1404,
      "厉": 1405,
      "压": 1406,
      "厌": 1407,
      "厕": 1408,
      "厘": 1409,
      "厚": 1410,
      "厝": 1411,
      "原": 1412,
      "厢": 1413,
      "厥": 1414,
      "厦": 1415,
      "厨": 1416,
      "厩": 1417,
      "厭": 1418,
      "厮": 1419,
      "厲": 1420,
      "去": 1421,
      "县": 1422,
      "叁": 1423,
      "参": 1424,
      "參": 1425,
      "又": 1426,
      "叉": 1427,
      "及": 1428,
      "友": 1429,
      "双": 1430,
      "反": 1431,
      "发": 1432,
      "叔": 1433,
      "取": 1434,
      "受": 1435,
      "变": 1436,
      "叙": 1437,
      "叛": 1438,
      "叟": 1439,
      "叠": 1440,
      "叢": 1441,
      "口": 1442,
      "古": 1443,
      "句": 1444,
      "另": 1445,
      "叨": 1446,
      "叩": 1447,
      "只": 1448,
      "叫": 1449,
      "召": 1450,
      "叭": 1451,
      "叮": 1452,
      "可": 1453,
      "台": 1454,
      "史": 1455,
      "右": 1456,
      "叵": 1457,
      "叶": 1458,
      "号": 1459,
      "司": 1460,
      "叹": 1461,
      "叼": 1462,
      "叽": 1463,
      "吁": 1464,
      "吃": 1465,
      "各": 1466,
      "吆": 1467,
      "合": 1468,
      "吉": 1469,
      "吊": 1470,
      "吋": 1471,
      "同": 1472,
      "名": 1473,
      "后": 1474,
      "吏": 1475,
      "吐": 1476,
      "向": 1477,
      "吓": 1478,
      "吔": 1479,
      "吕": 1480,
      "吖": 1481,
      "吗": 1482,
      "君": 1483,
      "吝": 1484,
      "吞": 1485,
      "吟": 1486,
      "吠": 1487,
      "吡": 1488,
      "否": 1489,
      "吧": 1490,
      "吨": 1491,
      "吩": 1492,
      "含": 1493,
      "听": 1494,
      "吭": 1495,
      "吮": 1496,
      "启": 1497,
      "吱": 1498,
      "吳": 1499,
      "吴": 1500,
      "吵": 1501,
      "吶": 1502,
      "吸": 1503,
      "吹": 1504,
      "吻": 1505,
      "吼": 1506,
      "吽": 1507,
      "吾": 1508,
      "呀": 1509,
      "呂": 1510,
      "呃": 1511,
      "呆": 1512,
      "呈": 1513,
      "告": 1514,
      "呋": 1515,
      "呎": 1516,
      "呐": 1517,
      "呑": 1518,
      "呒": 1519,
      "呕": 1520,
      "呗": 1521,
      "员": 1522,
      "呛": 1523,
      "呜": 1524,
      "呡": 1525,
      "呢": 1526,
      "呣": 1527,
      "呤": 1528,
      "呦": 1529,
      "呧": 1530,
      "周": 1531,
      "呱": 1532,
      "味": 1533,
      "呵": 1534,
      "呶": 1535,
      "呸": 1536,
      "呻": 1537,
      "呼": 1538,
      "命": 1539,
      "咀": 1540,
      "咁": 1541,
      "咄": 1542,
      "咆": 1543,
      "咋": 1544,
      "和": 1545,
      "咍": 1546,
      "咎": 1547,
      "咏": 1548,
      "咐": 1549,
      "咒": 1550,
      "咔": 1551,
      "咕": 1552,
      "咖": 1553,
      "咗": 1554,
      "咙": 1555,
      "咚": 1556,
      "咦": 1557,
      "咧": 1558,
      "咨": 1559,
      "咩": 1560,
      "咪": 1561,
      "咫": 1562,
      "咬": 1563,
      "咭": 1564,
      "咯": 1565,
      "咱": 1566,
      "咳": 1567,
      "咸": 1568,
      "咻": 1569,
      "咽": 1570,
      "咿": 1571,
      "哀": 1572,
      "品": 1573,
      "哂": 1574,
      "哄": 1575,
      "哆": 1576,
      "哇": 1577,
      "哈": 1578,
      "哉": 1579,
      "哋": 1580,
      "响": 1581,
      "哎": 1582,
      "哑": 1583,
      "哒": 1584,
      "哔": 1585,
      "哗": 1586,
      "哝": 1587,
      "哞": 1588,
      "哟": 1589,
      "員": 1590,
      "哥": 1591,
      "哦": 1592,
      "哧": 1593,
      "哨": 1594,
      "哩": 1595,
      "哪": 1596,
      "哭": 1597,
      "哮": 1598,
      "哲": 1599,
      "哺": 1600,
      "哼": 1601,
      "哽": 1602,
      "唁": 1603,
      "唄": 1604,
      "唆": 1605,
      "唇": 1606,
      "唉": 1607,
      "唏": 1608,
      "唐": 1609,
      "唑": 1610,
      "唔": 1611,
      "唗": 1612,
      "唛": 1613,
      "唠": 1614,
      "唤": 1615,
      "唧": 1616,
      "唬": 1617,
      "售": 1618,
      "唯": 1619,
      "唱": 1620,
      "唳": 1621,
      "唵": 1622,
      "唷": 1623,
      "唸": 1624,
      "唾": 1625,
      "啁": 1626,
      "啃": 1627,
      "啄": 1628,
      "商": 1629,
      "啊": 1630,
      "問": 1631,
      "啕": 1632,
      "啖": 1633,
      "啜": 1634,
      "啞": 1635,
      "啟": 1636,
      "啡": 1637,
      "啣": 1638,
      "啤": 1639,
      "啥": 1640,
      "啦": 1641,
      "啧": 1642,
      "啪": 1643,
      "啫": 1644,
      "啬": 1645,
      "啮": 1646,
      "啰": 1647,
      "啱": 1648,
      "啲": 1649,
      "啸": 1650,
      "啻": 1651,
      "啼": 1652,
      "啾": 1653,
      "喀": 1654,
      "喂": 1655,
      "喃": 1656,
      "善": 1657,
      "喇": 1658,
      "喉": 1659,
      "喊": 1660,
      "喋": 1661,
      "喎": 1662,
      "喏": 1663,
      "喑": 1664,
      "喔": 1665,
      "喘": 1666,
      "喙": 1667,
      "喚": 1668,
      "喜": 1669,
      "喝": 1670,
      "喧": 1671,
      "喪": 1672,
      "喬": 1673,
      "單": 1674,
      "喱": 1675,
      "喲": 1676,
      "喳": 1677,
      "喵": 1678,
      "喷": 1679,
      "喹": 1680,
      "喺": 1681,
      "喻": 1682,
      "喽": 1683,
      "嗅": 1684,
      "嗇": 1685,
      "嗌": 1686,
      "嗎": 1687,
      "嗑": 1688,
      "嗒": 1689,
      "嗓": 1690,
      "嗖": 1691,
      "嗚": 1692,
      "嗜": 1693,
      "嗝": 1694,
      "嗡": 1695,
      "嗣": 1696,
      "嗤": 1697,
      "嗦": 1698,
      "嗨": 1699,
      "嗪": 1700,
      "嗬": 1701,
      "嗯": 1702,
      "嗰": 1703,
      "嗲": 1704,
      "嗳": 1705,
      "嗶": 1706,
      "嗷": 1707,
      "嗽": 1708,
      "嘀": 1709,
      "嘅": 1710,
      "嘆": 1711,
      "嘈": 1712,
      "嘉": 1713,
      "嘍": 1714,
      "嘎": 1715,
      "嘔": 1716,
      "嘗": 1717,
      "嘘": 1718,
      "嘛": 1719,
      "嘞": 1720,
      "嘟": 1721,
      "嘠": 1722,
      "嘢": 1723,
      "嘣": 1724,
      "嘩": 1725,
      "嘭": 1726,
      "嘯": 1727,
      "嘱": 1728,
      "嘲": 1729,
      "嘴": 1730,
      "嘶": 1731,
      "嘹": 1732,
      "嘻": 1733,
      "嘿": 1734,
      "噁": 1735,
      "噎": 1736,
      "噓": 1737,
      "噗": 1738,
      "噜": 1739,
      "噠": 1740,
      "噢": 1741,
      "器": 1742,
      "噩": 1743,
      "噪": 1744,
      "噫": 1745,
      "噬": 1746,
      "噱": 1747,
      "噴": 1748,
      "噶": 1749,
      "噸": 1750,
      "噹": 1751,
      "噿": 1752,
      "嚀": 1753,
      "嚇": 1754,
      "嚎": 1755,
      "嚏": 1756,
      "嚐": 1757,
      "嚒": 1758,
      "嚓": 1759,
      "嚟": 1760,
      "嚣": 1761,
      "嚥": 1762,
      "嚮": 1763,
      "嚯": 1764,
      "嚴": 1765,
      "嚷": 1766,
      "嚼": 1767,
      "囂": 1768,
      "囉": 1769,
      "囊": 1770,
      "囑": 1771,
      "囔": 1772,
      "囚": 1773,
      "四": 1774,
      "回": 1775,
      "因": 1776,
      "囡": 1777,
      "团": 1778,
      "囤": 1779,
      "囧": 1780,
      "囪": 1781,
      "园": 1782,
      "困": 1783,
      "囱": 1784,
      "围": 1785,
      "囹": 1786,
      "固": 1787,
      "国": 1788,
      "图": 1789,
      "囿": 1790,
      "圃": 1791,
      "圄": 1792,
      "圆": 1793,
      "圈": 1794,
      "國": 1795,
      "圍": 1796,
      "園": 1797,
      "圓": 1798,
      "圖": 1799,
      "團": 1800,
      "土": 1801,
      "圣": 1802,
      "在": 1803,
      "圭": 1804,
      "地": 1805,
      "圳": 1806,
      "场": 1807,
      "圾": 1808,
      "址": 1809,
      "坂": 1810,
      "均": 1811,
      "坊": 1812,
      "坍": 1813,
      "坎": 1814,
      "坏": 1815,
      "坐": 1816,
      "坑": 1817,
      "块": 1818,
      "坚": 1819,
      "坛": 1820,
      "坝": 1821,
      "坞": 1822,
      "坟": 1823,
      "坠": 1824,
      "坡": 1825,
      "坤": 1826,
      "坦": 1827,
      "坨": 1828,
      "坩": 1829,
      "坪": 1830,
      "坫": 1831,
      "坯": 1832,
      "坳": 1833,
      "坴": 1834,
      "坷": 1835,
      "坻": 1836,
      "垀": 1837,
      "垂": 1838,
      "垃": 1839,
      "垄": 1840,
      "型": 1841,
      "垒": 1842,
      "垛": 1843,
      "垠": 1844,
      "垢": 1845,
      "垣": 1846,
      "垦": 1847,
      "垩": 1848,
      "垫": 1849,
      "垮": 1850,
      "垸": 1851,
      "埃": 1852,
      "埋": 1853,
      "城": 1854,
      "埔": 1855,
      "埚": 1856,
      "埜": 1857,
      "域": 1858,
      "埠": 1859,
      "埣": 1860,
      "埲": 1861,
      "執": 1862,
      "培": 1863,
      "基": 1864,
      "埻": 1865,
      "堂": 1866,
      "堅": 1867,
      "堆": 1868,
      "堈": 1869,
      "堋": 1870,
      "堎": 1871,
      "堑": 1872,
      "堕": 1873,
      "堡": 1874,
      "堤": 1875,
      "堪": 1876,
      "報": 1877,
      "場": 1878,
      "堵": 1879,
      "塊": 1880,
      "塋": 1881,
      "塌": 1882,
      "塑": 1883,
      "塔": 1884,
      "塗": 1885,
      "塘": 1886,
      "塞": 1887,
      "塢": 1888,
      "填": 1889,
      "塵": 1890,
      "塾": 1891,
      "境": 1892,
      "墅": 1893,
      "墉": 1894,
      "墊": 1895,
      "墓": 1896,
      "墙": 1897,
      "墜": 1898,
      "增": 1899,
      "墟": 1900,
      "墨": 1901,
      "墩": 1902,
      "墮": 1903,
      "墳": 1904,
      "墾": 1905,
      "壁": 1906,
      "壅": 1907,
      "壇": 1908,
      "壑": 1909,
      "壓": 1910,
      "壕": 1911,
      "壘": 1912,
      "壚": 1913,
      "壞": 1914,
      "壤": 1915,
      "壩": 1916,
      "士": 1917,
      "壮": 1918,
      "壯": 1919,
      "声": 1920,
      "壳": 1921,
      "壶": 1922,
      "壹": 1923,
      "壺": 1924,
      "壽": 1925,
      "处": 1926,
      "备": 1927,
      "复": 1928,
      "夏": 1929,
      "夔": 1930,
      "夕": 1931,
      "外": 1932,
      "夙": 1933,
      "多": 1934,
      "夜": 1935,
      "够": 1936,
      "夠": 1937,
      "夢": 1938,
      "夥": 1939,
      "大": 1940,
      "天": 1941,
      "太": 1942,
      "夫": 1943,
      "夭": 1944,
      "央": 1945,
      "夯": 1946,
      "失": 1947,
      "头": 1948,
      "夷": 1949,
      "夸": 1950,
      "夹": 1951,
      "夺": 1952,
      "夾": 1953,
      "奀": 1954,
      "奁": 1955,
      "奂": 1956,
      "奄": 1957,
      "奇": 1958,
      "奈": 1959,
      "奉": 1960,
      "奋": 1961,
      "奌": 1962,
      "奎": 1963,
      "奏": 1964,
      "契": 1965,
      "奔": 1966,
      "奕": 1967,
      "奖": 1968,
      "套": 1969,
      "奚": 1970,
      "奠": 1971,
      "奢": 1972,
      "奥": 1973,
      "奧": 1974,
      "奪": 1975,
      "奮": 1976,
      "女": 1977,
      "奴": 1978,
      "奶": 1979,
      "奸": 1980,
      "她": 1981,
      "奻": 1982,
      "好": 1983,
      "奾": 1984,
      "如": 1985,
      "妃": 1986,
      "妄": 1987,
      "妆": 1988,
      "妇": 1989,
      "妈": 1990,
      "妊": 1991,
      "妍": 1992,
      "妏": 1993,
      "妒": 1994,
      "妓": 1995,
      "妖": 1996,
      "妗": 1997,
      "妙": 1998,
      "妝": 1999,
      "妞": 2000,
      "妥": 2001,
      "妦": 2002,
      "妨": 2003,
      "妩": 2004,
      "妪": 2005,
      "妮": 2006,
      "妲": 2007,
      "妳": 2008,
      "妹": 2009,
      "妻": 2010,
      "妾": 2011,
      "姆": 2012,
      "姊": 2013,
      "始": 2014,
      "姍": 2015,
      "姐": 2016,
      "姑": 2017,
      "姓": 2018,
      "委": 2019,
      "姗": 2020,
      "姘": 2021,
      "姚": 2022,
      "姜": 2023,
      "姥": 2024,
      "姦": 2025,
      "姨": 2026,
      "姪": 2027,
      "姬": 2028,
      "姻": 2029,
      "姿": 2030,
      "威": 2031,
      "娃": 2032,
      "娄": 2033,
      "娅": 2034,
      "娆": 2035,
      "娇": 2036,
      "娈": 2037,
      "娒": 2038,
      "娘": 2039,
      "娛": 2040,
      "娜": 2041,
      "娟": 2042,
      "娠": 2043,
      "娣": 2044,
      "娥": 2045,
      "娩": 2046,
      "娱": 2047,
      "娴": 2048,
      "娶": 2049,
      "娼": 2050,
      "婄": 2051,
      "婆": 2052,
      "婉": 2053,
      "婊": 2054,
      "婌": 2055,
      "婓": 2056,
      "婕": 2057,
      "婚": 2058,
      "婢": 2059,
      "婦": 2060,
      "婪": 2061,
      "婬": 2062,
      "婭": 2063,
      "婴": 2064,
      "婵": 2065,
      "婶": 2066,
      "婷": 2067,
      "婿": 2068,
      "媎": 2069,
      "媒": 2070,
      "媚": 2071,
      "媛": 2072,
      "媞": 2073,
      "媲": 2074,
      "媳": 2075,
      "媼": 2076,
      "媽": 2077,
      "媾": 2078,
      "嫁": 2079,
      "嫂": 2080,
      "嫉": 2081,
      "嫌": 2082,
      "嫔": 2083,
      "嫖": 2084,
      "嫡": 2085,
      "嫣": 2086,
      "嫩": 2087,
      "嬉": 2088,
      "嬤": 2089,
      "嬰": 2090,
      "嬴": 2091,
      "嬷": 2092,
      "嬸": 2093,
      "孀": 2094,
      "子": 2095,
      "孑": 2096,
      "孔": 2097,
      "孕": 2098,
      "孖": 2099,
      "字": 2100,
      "存": 2101,
      "孙": 2102,
      "孚": 2103,
      "孜": 2104,
      "孝": 2105,
      "孟": 2106,
      "孢": 2107,
      "季": 2108,
      "孤": 2109,
      "学": 2110,
      "孩": 2111,
      "孪": 2112,
      "孫": 2113,
      "孬": 2114,
      "孰": 2115,
      "孱": 2116,
      "孳": 2117,
      "孵": 2118,
      "學": 2119,
      "孺": 2120,
      "孽": 2121,
      "孿": 2122,
      "宁": 2123,
      "它": 2124,
      "宅": 2125,
      "宇": 2126,
      "守": 2127,
      "安": 2128,
      "宋": 2129,
      "完": 2130,
      "宎": 2131,
      "宏": 2132,
      "宒": 2133,
      "宓": 2134,
      "宕": 2135,
      "宗": 2136,
      "官": 2137,
      "宙": 2138,
      "定": 2139,
      "宛": 2140,
      "宜": 2141,
      "宝": 2142,
      "实": 2143,
      "実": 2144,
      "宠": 2145,
      "审": 2146,
      "客": 2147,
      "宣": 2148,
      "室": 2149,
      "宥": 2150,
      "宪": 2151,
      "宫": 2152,
      "宮": 2153,
      "宰": 2154,
      "害": 2155,
      "宴": 2156,
      "宵": 2157,
      "家": 2158,
      "宸": 2159,
      "容": 2160,
      "宽": 2161,
      "宾": 2162,
      "宿": 2163,
      "寀": 2164,
      "寁": 2165,
      "寂": 2166,
      "寄": 2167,
      "寅": 2168,
      "密": 2169,
      "寇": 2170,
      "富": 2171,
      "寐": 2172,
      "寒": 2173,
      "寓": 2174,
      "寝": 2175,
      "寞": 2176,
      "察": 2177,
      "寡": 2178,
      "寢": 2179,
      "寤": 2180,
      "寥": 2181,
      "實": 2182,
      "寧": 2183,
      "寨": 2184,
      "審": 2185,
      "寫": 2186,
      "寬": 2187,
      "寮": 2188,
      "寰": 2189,
      "寵": 2190,
      "寶": 2191,
      "寸": 2192,
      "对": 2193,
      "寺": 2194,
      "寻": 2195,
      "导": 2196,
      "寿": 2197,
      "封": 2198,
      "射": 2199,
      "尅": 2200,
      "将": 2201,
      "將": 2202,
      "專": 2203,
      "尉": 2204,
      "尊": 2205,
      "尋": 2206,
      "對": 2207,
      "導": 2208,
      "小": 2209,
      "少": 2210,
      "尓": 2211,
      "尔": 2212,
      "尖": 2213,
      "尘": 2214,
      "尚": 2215,
      "尝": 2216,
      "尤": 2217,
      "尧": 2218,
      "尨": 2219,
      "尪": 2220,
      "尬": 2221,
      "就": 2222,
      "尴": 2223,
      "尷": 2224,
      "尸": 2225,
      "尹": 2226,
      "尺": 2227,
      "尼": 2228,
      "尽": 2229,
      "尾": 2230,
      "尿": 2231,
      "局": 2232,
      "屁": 2233,
      "层": 2234,
      "屄": 2235,
      "居": 2236,
      "屆": 2237,
      "屈": 2238,
      "屉": 2239,
      "届": 2240,
      "屋": 2241,
      "屌": 2242,
      "屍": 2243,
      "屎": 2244,
      "屏": 2245,
      "屐": 2246,
      "屑": 2247,
      "展": 2248,
      "屙": 2249,
      "属": 2250,
      "屠": 2251,
      "屡": 2252,
      "層": 2253,
      "履": 2254,
      "屬": 2255,
      "屯": 2256,
      "山": 2257,
      "屹": 2258,
      "屿": 2259,
      "岁": 2260,
      "岂": 2261,
      "岆": 2262,
      "岈": 2263,
      "岌": 2264,
      "岍": 2265,
      "岐": 2266,
      "岑": 2267,
      "岔": 2268,
      "岖": 2269,
      "岗": 2270,
      "岘": 2271,
      "岛": 2272,
      "岩": 2273,
      "岭": 2274,
      "岱": 2275,
      "岳": 2276,
      "岸": 2277,
      "岿": 2278,
      "峈": 2279,
      "峋": 2280,
      "峙": 2281,
      "峡": 2282,
      "峥": 2283,
      "峦": 2284,
      "峨": 2285,
      "峪": 2286,
      "峭": 2287,
      "峯": 2288,
      "峰": 2289,
      "島": 2290,
      "峻": 2291,
      "峽": 2292,
      "崂": 2293,
      "崇": 2294,
      "崎": 2295,
      "崔": 2296,
      "崖": 2297,
      "崛": 2298,
      "崩": 2299,
      "崭": 2300,
      "崴": 2301,
      "崽": 2302,
      "嵋": 2303,
      "嵌": 2304,
      "嵘": 2305,
      "嵴": 2306,
      "嶂": 2307,
      "嶄": 2308,
      "嶙": 2309,
      "嶺": 2310,
      "嶼": 2311,
      "巅": 2312,
      "巒": 2313,
      "巖": 2314,
      "川": 2315,
      "州": 2316,
      "巡": 2317,
      "巢": 2318,
      "工": 2319,
      "左": 2320,
      "巧": 2321,
      "巨": 2322,
      "巩": 2323,
      "巫": 2324,
      "差": 2325,
      "己": 2326,
      "已": 2327,
      "巳": 2328,
      "巴": 2329,
      "巷": 2330,
      "巻": 2331,
      "巾": 2332,
      "巿": 2333,
      "币": 2334,
      "市": 2335,
      "布": 2336,
      "帅": 2337,
      "帆": 2338,
      "师": 2339,
      "希": 2340,
      "帐": 2341,
      "帑": 2342,
      "帕": 2343,
      "帖": 2344,
      "帘": 2345,
      "帚": 2346,
      "帛": 2347,
      "帜": 2348,
      "帝": 2349,
      "帥": 2350,
      "带": 2351,
      "帧": 2352,
      "師": 2353,
      "席": 2354,
      "帮": 2355,
      "帳": 2356,
      "帶": 2357,
      "帷": 2358,
      "常": 2359,
      "帽": 2360,
      "幅": 2361,
      "幌": 2362,
      "幔": 2363,
      "幕": 2364,
      "幗": 2365,
      "幡": 2366,
      "幢": 2367,
      "幣": 2368,
      "幫": 2369,
      "干": 2370,
      "平": 2371,
      "年": 2372,
      "并": 2373,
      "幸": 2374,
      "幹": 2375,
      "幺": 2376,
      "幻": 2377,
      "幼": 2378,
      "幽": 2379,
      "幾": 2380,
      "广": 2381,
      "庄": 2382,
      "庆": 2383,
      "庇": 2384,
      "庈": 2385,
      "床": 2386,
      "序": 2387,
      "库": 2388,
      "应": 2389,
      "底": 2390,
      "庖": 2391,
      "店": 2392,
      "庙": 2393,
      "庚": 2394,
      "府": 2395,
      "庞": 2396,
      "废": 2397,
      "度": 2398,
      "座": 2399,
      "庫": 2400,
      "庭": 2401,
      "庶": 2402,
      "康": 2403,
      "庸": 2404,
      "廁": 2405,
      "廂": 2406,
      "廈": 2407,
      "廉": 2408,
      "廊": 2409,
      "廓": 2410,
      "廖": 2411,
      "廚": 2412,
      "廝": 2413,
      "廟": 2414,
      "廠": 2415,
      "廢": 2416,
      "廣": 2417,
      "廳": 2418,
      "延": 2419,
      "廷": 2420,
      "廸": 2421,
      "建": 2422,
      "廻": 2423,
      "廿": 2424,
      "开": 2425,
      "弁": 2426,
      "异": 2427,
      "弃": 2428,
      "弄": 2429,
      "弅": 2430,
      "弈": 2431,
      "弊": 2432,
      "弋": 2433,
      "式": 2434,
      "弑": 2435,
      "弓": 2436,
      "引": 2437,
      "弗": 2438,
      "弘": 2439,
      "弛": 2440,
      "弝": 2441,
      "弟": 2442,
      "张": 2443,
      "弥": 2444,
      "弦": 2445,
      "弧": 2446,
      "弩": 2447,
      "弭": 2448,
      "弯": 2449,
      "弱": 2450,
      "張": 2451,
      "強": 2452,
      "弹": 2453,
      "强": 2454,
      "弼": 2455,
      "彆": 2456,
      "彈": 2457,
      "彌": 2458,
      "彎": 2459,
      "归": 2460,
      "当": 2461,
      "录": 2462,
      "彗": 2463,
      "彙": 2464,
      "形": 2465,
      "彤": 2466,
      "彥": 2467,
      "彦": 2468,
      "彩": 2469,
      "彪": 2470,
      "彬": 2471,
      "彭": 2472,
      "彰": 2473,
      "影": 2474,
      "彴": 2475,
      "彷": 2476,
      "彸": 2477,
      "役": 2478,
      "彻": 2479,
      "彼": 2480,
      "彿": 2481,
      "往": 2482,
      "征": 2483,
      "径": 2484,
      "待": 2485,
      "徇": 2486,
      "很": 2487,
      "徉": 2488,
      "徊": 2489,
      "律": 2490,
      "後": 2491,
      "徏": 2492,
      "徐": 2493,
      "徑": 2494,
      "徒": 2495,
      "徕": 2496,
      "得": 2497,
      "徘": 2498,
      "徙": 2499,
      "徜": 2500,
      "從": 2501,
      "御": 2502,
      "徨": 2503,
      "復": 2504,
      "循": 2505,
      "徬": 2506,
      "微": 2507,
      "徳": 2508,
      "徵": 2509,
      "德": 2510,
      "徹": 2511,
      "徼": 2512,
      "徽": 2513,
      "心": 2514,
      "必": 2515,
      "忆": 2516,
      "忌": 2517,
      "忍": 2518,
      "忏": 2519,
      "忒": 2520,
      "忖": 2521,
      "志": 2522,
      "忘": 2523,
      "忙": 2524,
      "忠": 2525,
      "忡": 2526,
      "忤": 2527,
      "忧": 2528,
      "快": 2529,
      "忭": 2530,
      "忱": 2531,
      "念": 2532,
      "忽": 2533,
      "忾": 2534,
      "忿": 2535,
      "怀": 2536,
      "态": 2537,
      "怂": 2538,
      "怅": 2539,
      "怍": 2540,
      "怎": 2541,
      "怏": 2542,
      "怒": 2543,
      "怓": 2544,
      "怕": 2545,
      "怖": 2546,
      "怜": 2547,
      "思": 2548,
      "怠": 2549,
      "怡": 2550,
      "急": 2551,
      "性": 2552,
      "怨": 2553,
      "怪": 2554,
      "怮": 2555,
      "怯": 2556,
      "总": 2557,
      "恀": 2558,
      "恁": 2559,
      "恃": 2560,
      "恅": 2561,
      "恆": 2562,
      "恋": 2563,
      "恍": 2564,
      "恐": 2565,
      "恒": 2566,
      "恕": 2567,
      "恙": 2568,
      "恢": 2569,
      "恣": 2570,
      "恤": 2571,
      "恥": 2572,
      "恨": 2573,
      "恩": 2574,
      "恪": 2575,
      "恫": 2576,
      "恬": 2577,
      "恭": 2578,
      "息": 2579,
      "恰": 2580,
      "恳": 2581,
      "恶": 2582,
      "恸": 2583,
      "恺": 2584,
      "恻": 2585,
      "恼": 2586,
      "恿": 2587,
      "悄": 2588,
      "悅": 2589,
      "悉": 2590,
      "悍": 2591,
      "悔": 2592,
      "悖": 2593,
      "悗": 2594,
      "悚": 2595,
      "悛": 2596,
      "悝": 2597,
      "悟": 2598,
      "悠": 2599,
      "患": 2600,
      "悦": 2601,
      "您": 2602,
      "悬": 2603,
      "悯": 2604,
      "悲": 2605,
      "悴": 2606,
      "悵": 2607,
      "悶": 2608,
      "悸": 2609,
      "悼": 2610,
      "情": 2611,
      "惊": 2612,
      "惋": 2613,
      "惑": 2614,
      "惕": 2615,
      "惘": 2616,
      "惚": 2617,
      "惛": 2618,
      "惜": 2619,
      "惟": 2620,
      "惠": 2621,
      "惡": 2622,
      "惦": 2623,
      "惧": 2624,
      "惨": 2625,
      "惩": 2626,
      "惫": 2627,
      "惬": 2628,
      "惭": 2629,
      "惮": 2630,
      "惯": 2631,
      "惰": 2632,
      "惱": 2633,
      "想": 2634,
      "惶": 2635,
      "惹": 2636,
      "惺": 2637,
      "愁": 2638,
      "愆": 2639,
      "愈": 2640,
      "愉": 2641,
      "愍": 2642,
      "意": 2643,
      "愕": 2644,
      "愚": 2645,
      "愛": 2646,
      "感": 2647,
      "愣": 2648,
      "愤": 2649,
      "愦": 2650,
      "愧": 2651,
      "愿": 2652,
      "慄": 2653,
      "慇": 2654,
      "慈": 2655,
      "態": 2656,
      "慌": 2657,
      "慎": 2658,
      "慑": 2659,
      "慕": 2660,
      "慘": 2661,
      "慢": 2662,
      "慣": 2663,
      "慧": 2664,
      "慨": 2665,
      "慫": 2666,
      "慮": 2667,
      "慰": 2668,
      "慶": 2669,
      "慷": 2670,
      "慾": 2671,
      "憂": 2672,
      "憊": 2673,
      "憋": 2674,
      "憎": 2675,
      "憐": 2676,
      "憑": 2677,
      "憒": 2678,
      "憔": 2679,
      "憤": 2680,
      "憧": 2681,
      "憨": 2682,
      "憩": 2683,
      "憫": 2684,
      "憬": 2685,
      "憲": 2686,
      "憶": 2687,
      "憾": 2688,
      "懂": 2689,
      "懇": 2690,
      "懈": 2691,
      "應": 2692,
      "懊": 2693,
      "懑": 2694,
      "懒": 2695,
      "懦": 2696,
      "懧": 2697,
      "懨": 2698,
      "懲": 2699,
      "懵": 2700,
      "懶": 2701,
      "懷": 2702,
      "懸": 2703,
      "懺": 2704,
      "懼": 2705,
      "懿": 2706,
      "戀": 2707,
      "戈": 2708,
      "戊": 2709,
      "戌": 2710,
      "戍": 2711,
      "戎": 2712,
      "戏": 2713,
      "成": 2714,
      "我": 2715,
      "戒": 2716,
      "戕": 2717,
      "或": 2718,
      "战": 2719,
      "戚": 2720,
      "戛": 2721,
      "戟": 2722,
      "截": 2723,
      "戮": 2724,
      "戰": 2725,
      "戲": 2726,
      "戳": 2727,
      "戴": 2728,
      "戶": 2729,
      "户": 2730,
      "房": 2731,
      "所": 2732,
      "扁": 2733,
      "扂": 2734,
      "扇": 2735,
      "扈": 2736,
      "扉": 2737,
      "手": 2738,
      "才": 2739,
      "扎": 2740,
      "扑": 2741,
      "扒": 2742,
      "打": 2743,
      "扔": 2744,
      "托": 2745,
      "扛": 2746,
      "扞": 2747,
      "扢": 2748,
      "扣": 2749,
      "执": 2750,
      "扩": 2751,
      "扪": 2752,
      "扫": 2753,
      "扬": 2754,
      "扭": 2755,
      "扮": 2756,
      "扯": 2757,
      "扰": 2758,
      "扳": 2759,
      "扶": 2760,
      "批": 2761,
      "扼": 2762,
      "找": 2763,
      "承": 2764,
      "技": 2765,
      "抄": 2766,
      "抇": 2767,
      "抉": 2768,
      "把": 2769,
      "抑": 2770,
      "抒": 2771,
      "抓": 2772,
      "投": 2773,
      "抖": 2774,
      "抗": 2775,
      "折": 2776,
      "抚": 2777,
      "抛": 2778,
      "抠": 2779,
      "抡": 2780,
      "抢": 2781,
      "护": 2782,
      "报": 2783,
      "抨": 2784,
      "披": 2785,
      "抬": 2786,
      "抰": 2787,
      "抱": 2788,
      "抵": 2789,
      "抹": 2790,
      "抻": 2791,
      "押": 2792,
      "抽": 2793,
      "抿": 2794,
      "拂": 2795,
      "拄": 2796,
      "担": 2797,
      "拆": 2798,
      "拇": 2799,
      "拈": 2800,
      "拉": 2801,
      "拋": 2802,
      "拌": 2803,
      "拍": 2804,
      "拎": 2805,
      "拐": 2806,
      "拒": 2807,
      "拓": 2808,
      "拔": 2809,
      "拖": 2810,
      "拗": 2811,
      "拘": 2812,
      "拙": 2813,
      "拚": 2814,
      "招": 2815,
      "拜": 2816,
      "拟": 2817,
      "拢": 2818,
      "拣": 2819,
      "拥": 2820,
      "拦": 2821,
      "拧": 2822,
      "拨": 2823,
      "择": 2824,
      "括": 2825,
      "拭": 2826,
      "拮": 2827,
      "拯": 2828,
      "拱": 2829,
      "拳": 2830,
      "拴": 2831,
      "拷": 2832,
      "拸": 2833,
      "拼": 2834,
      "拽": 2835,
      "拾": 2836,
      "拿": 2837,
      "持": 2838,
      "挂": 2839,
      "指": 2840,
      "挈": 2841,
      "按": 2842,
      "挎": 2843,
      "挑": 2844,
      "挖": 2845,
      "挚": 2846,
      "挛": 2847,
      "挝": 2848,
      "挞": 2849,
      "挟": 2850,
      "挠": 2851,
      "挡": 2852,
      "挣": 2853,
      "挤": 2854,
      "挥": 2855,
      "挨": 2856,
      "挪": 2857,
      "挫": 2858,
      "振": 2859,
      "挲": 2860,
      "挺": 2861,
      "挽": 2862,
      "挾": 2863,
      "捂": 2864,
      "捅": 2865,
      "捆": 2866,
      "捉": 2867,
      "捋": 2868,
      "捌": 2869,
      "捍": 2870,
      "捎": 2871,
      "捏": 2872,
      "捐": 2873,
      "捕": 2874,
      "捞": 2875,
      "损": 2876,
      "捡": 2877,
      "换": 2878,
      "捣": 2879,
      "捧": 2880,
      "捨": 2881,
      "捩": 2882,
      "据": 2883,
      "捱": 2884,
      "捲": 2885,
      "捶": 2886,
      "捷": 2887,
      "捻": 2888,
      "掀": 2889,
      "掂": 2890,
      "掃": 2891,
      "掇": 2892,
      "授": 2893,
      "掉": 2894,
      "掌": 2895,
      "掍": 2896,
      "掏": 2897,
      "掐": 2898,
      "排": 2899,
      "掖": 2900,
      "掗": 2901,
      "掘": 2902,
      "掙": 2903,
      "掛": 2904,
      "掠": 2905,
      "採": 2906,
      "探": 2907,
      "掣": 2908,
      "接": 2909,
      "控": 2910,
      "推": 2911,
      "掩": 2912,
      "措": 2913,
      "掬": 2914,
      "掮": 2915,
      "掰": 2916,
      "掳": 2917,
      "掴": 2918,
      "掷": 2919,
      "掸": 2920,
      "掺": 2921,
      "揀": 2922,
      "揉": 2923,
      "揌": 2924,
      "揍": 2925,
      "描": 2926,
      "提": 2927,
      "插": 2928,
      "揚": 2929,
      "換": 2930,
      "揝": 2931,
      "握": 2932,
      "揣": 2933,
      "揤": 2934,
      "揩": 2935,
      "揪": 2936,
      "揭": 2937,
      "揮": 2938,
      "援": 2939,
      "揸": 2940,
      "揽": 2941,
      "揾": 2942,
      "搀": 2943,
      "搁": 2944,
      "搂": 2945,
      "搅": 2946,
      "損": 2947,
      "搏": 2948,
      "搐": 2949,
      "搓": 2950,
      "搔": 2951,
      "搖": 2952,
      "搗": 2953,
      "搜": 2954,
      "搞": 2955,
      "搟": 2956,
      "搡": 2957,
      "搥": 2958,
      "搪": 2959,
      "搬": 2960,
      "搭": 2961,
      "搴": 2962,
      "搵": 2963,
      "搶": 2964,
      "携": 2965,
      "搽": 2966,
      "摀": 2967,
      "摁": 2968,
      "摂": 2969,
      "摄": 2970,
      "摆": 2971,
      "摇": 2972,
      "摈": 2973,
      "摊": 2974,
      "摒": 2975,
      "摔": 2976,
      "摘": 2977,
      "摟": 2978,
      "摧": 2979,
      "摩": 2980,
      "摯": 2981,
      "摸": 2982,
      "摹": 2983,
      "摻": 2984,
      "撂": 2985,
      "撅": 2986,
      "撇": 2987,
      "撐": 2988,
      "撑": 2989,
      "撒": 2990,
      "撓": 2991,
      "撕": 2992,
      "撞": 2993,
      "撤": 2994,
      "撥": 2995,
      "撩": 2996,
      "撫": 2997,
      "撬": 2998,
      "播": 2999,
      "撮": 3000,
      "撰": 3001,
      "撲": 3002,
      "撵": 3003,
      "撷": 3004,
      "撸": 3005,
      "撺": 3006,
      "撼": 3007,
      "撿": 3008,
      "擁": 3009,
      "擂": 3010,
      "擅": 3011,
      "擇": 3012,
      "擊": 3013,
      "擋": 3014,
      "操": 3015,
      "擎": 3016,
      "擒": 3017,
      "擔": 3018,
      "擘": 3019,
      "據": 3020,
      "擞": 3021,
      "擠": 3022,
      "擢": 3023,
      "擤": 3024,
      "擦": 3025,
      "擬": 3026,
      "擰": 3027,
      "擱": 3028,
      "擲": 3029,
      "擴": 3030,
      "擺": 3031,
      "擼": 3032,
      "擾": 3033,
      "攀": 3034,
      "攏": 3035,
      "攒": 3036,
      "攔": 3037,
      "攘": 3038,
      "攜": 3039,
      "攝": 3040,
      "攣": 3041,
      "攤": 3042,
      "攥": 3043,
      "攫": 3044,
      "攬": 3045,
      "支": 3046,
      "收": 3047,
      "攸": 3048,
      "改": 3049,
      "攻": 3050,
      "放": 3051,
      "政": 3052,
      "故": 3053,
      "效": 3054,
      "敌": 3055,
      "敏": 3056,
      "救": 3057,
      "敕": 3058,
      "敖": 3059,
      "敗": 3060,
      "敘": 3061,
      "教": 3062,
      "敛": 3063,
      "敝": 3064,
      "敞": 3065,
      "敢": 3066,
      "散": 3067,
      "敦": 3068,
      "敬": 3069,
      "数": 3070,
      "敲": 3071,
      "整": 3072,
      "敵": 3073,
      "敷": 3074,
      "數": 3075,
      "斂": 3076,
      "斃": 3077,
      "文": 3078,
      "斋": 3079,
      "斌": 3080,
      "斐": 3081,
      "斑": 3082,
      "斓": 3083,
      "斕": 3084,
      "斗": 3085,
      "料": 3086,
      "斜": 3087,
      "斟": 3088,
      "斡": 3089,
      "斤": 3090,
      "斥": 3091,
      "斧": 3092,
      "斩": 3093,
      "斬": 3094,
      "断": 3095,
      "斯": 3096,
      "新": 3097,
      "斷": 3098,
      "方": 3099,
      "於": 3100,
      "施": 3101,
      "旁": 3102,
      "旅": 3103,
      "旋": 3104,
      "旌": 3105,
      "族": 3106,
      "旗": 3107,
      "无": 3108,
      "既": 3109,
      "日": 3110,
      "旦": 3111,
      "旧": 3112,
      "旨": 3113,
      "早": 3114,
      "旬": 3115,
      "旭": 3116,
      "旮": 3117,
      "旯": 3118,
      "旱": 3119,
      "时": 3120,
      "旷": 3121,
      "旺": 3122,
      "昂": 3123,
      "昄": 3124,
      "昆": 3125,
      "昇": 3126,
      "昊": 3127,
      "昌": 3128,
      "明": 3129,
      "昏": 3130,
      "昒": 3131,
      "易": 3132,
      "昔": 3133,
      "昕": 3134,
      "昙": 3135,
      "昜": 3136,
      "星": 3137,
      "映": 3138,
      "春": 3139,
      "昧": 3140,
      "昨": 3141,
      "昭": 3142,
      "是": 3143,
      "昴": 3144,
      "昵": 3145,
      "昹": 3146,
      "昼": 3147,
      "显": 3148,
      "時": 3149,
      "晃": 3150,
      "晋": 3151,
      "晌": 3152,
      "晒": 3153,
      "晓": 3154,
      "晔": 3155,
      "晕": 3156,
      "晖": 3157,
      "晚": 3158,
      "晝": 3159,
      "晟": 3160,
      "晤": 3161,
      "晦": 3162,
      "晨": 3163,
      "普": 3164,
      "景": 3165,
      "晰": 3166,
      "晴": 3167,
      "晶": 3168,
      "智": 3169,
      "晾": 3170,
      "暂": 3171,
      "暄": 3172,
      "暇": 3173,
      "暈": 3174,
      "暑": 3175,
      "暖": 3176,
      "暗": 3177,
      "暢": 3178,
      "暧": 3179,
      "暨": 3180,
      "暫": 3181,
      "暮": 3182,
      "暴": 3183,
      "暹": 3184,
      "暺": 3185,
      "曆": 3186,
      "曉": 3187,
      "曙": 3188,
      "曝": 3189,
      "曦": 3190,
      "曬": 3191,
      "曰": 3192,
      "曲": 3193,
      "曳": 3194,
      "更": 3195,
      "書": 3196,
      "曹": 3197,
      "曼": 3198,
      "曾": 3199,
      "替": 3200,
      "最": 3201,
      "會": 3202,
      "月": 3203,
      "有": 3204,
      "朊": 3205,
      "朋": 3206,
      "服": 3207,
      "朔": 3208,
      "朕": 3209,
      "朗": 3210,
      "望": 3211,
      "朝": 3212,
      "期": 3213,
      "朦": 3214,
      "木": 3215,
      "未": 3216,
      "末": 3217,
      "本": 3218,
      "札": 3219,
      "朮": 3220,
      "术": 3221,
      "朱": 3222,
      "朴": 3223,
      "朵": 3224,
      "朶": 3225,
      "机": 3226,
      "朽": 3227,
      "杀": 3228,
      "杂": 3229,
      "权": 3230,
      "杅": 3231,
      "杆": 3232,
      "杉": 3233,
      "李": 3234,
      "杏": 3235,
      "材": 3236,
      "村": 3237,
      "杖": 3238,
      "杜": 3239,
      "杞": 3240,
      "束": 3241,
      "杠": 3242,
      "条": 3243,
      "来": 3244,
      "杨": 3245,
      "杭": 3246,
      "杯": 3247,
      "杰": 3248,
      "東": 3249,
      "杵": 3250,
      "杻": 3251,
      "松": 3252,
      "板": 3253,
      "极": 3254,
      "构": 3255,
      "枉": 3256,
      "析": 3257,
      "枑": 3258,
      "枕": 3259,
      "林": 3260,
      "枙": 3261,
      "枚": 3262,
      "果": 3263,
      "枝": 3264,
      "枢": 3265,
      "枣": 3266,
      "枪": 3267,
      "枫": 3268,
      "枭": 3269,
      "枯": 3270,
      "架": 3271,
      "枷": 3272,
      "枸": 3273,
      "柁": 3274,
      "柄": 3275,
      "柊": 3276,
      "柏": 3277,
      "某": 3278,
      "柑": 3279,
      "染": 3280,
      "柔": 3281,
      "柚": 3282,
      "柜": 3283,
      "柠": 3284,
      "柢": 3285,
      "查": 3286,
      "柩": 3287,
      "柬": 3288,
      "柯": 3289,
      "柰": 3290,
      "柱": 3291,
      "柲": 3292,
      "柳": 3293,
      "柴": 3294,
      "柵": 3295,
      "柿": 3296,
      "栀": 3297,
      "栅": 3298,
      "标": 3299,
      "栈": 3300,
      "栉": 3301,
      "栋": 3302,
      "栎": 3303,
      "栏": 3304,
      "树": 3305,
      "栓": 3306,
      "栖": 3307,
      "栗": 3308,
      "栠": 3309,
      "校": 3310,
      "栩": 3311,
      "株": 3312,
      "样": 3313,
      "核": 3314,
      "根": 3315,
      "格": 3316,
      "栽": 3317,
      "桀": 3318,
      "桂": 3319,
      "桃": 3320,
      "桅": 3321,
      "框": 3322,
      "案": 3323,
      "桉": 3324,
      "桌": 3325,
      "桎": 3326,
      "桐": 3327,
      "桑": 3328,
      "桓": 3329,
      "桔": 3330,
      "桖": 3331,
      "桜": 3332,
      "桡": 3333,
      "桢": 3334,
      "档": 3335,
      "桥": 3336,
      "桦": 3337,
      "桧": 3338,
      "桨": 3339,
      "桩": 3340,
      "桲": 3341,
      "桵": 3342,
      "桶": 3343,
      "桿": 3344,
      "梁": 3345,
      "梅": 3346,
      "梆": 3347,
      "梏": 3348,
      "梑": 3349,
      "梒": 3350,
      "梓": 3351,
      "梗": 3352,
      "條": 3353,
      "梢": 3354,
      "梦": 3355,
      "梧": 3356,
      "梨": 3357,
      "梭": 3358,
      "梯": 3359,
      "械": 3360,
      "梳": 3361,
      "梵": 3362,
      "检": 3363,
      "棄": 3364,
      "棉": 3365,
      "棋": 3366,
      "棍": 3367,
      "棒": 3368,
      "棕": 3369,
      "棗": 3370,
      "棘": 3371,
      "棚": 3372,
      "棟": 3373,
      "棠": 3374,
      "棣": 3375,
      "森": 3376,
      "棱": 3377,
      "棲": 3378,
      "棵": 3379,
      "棺": 3380,
      "椄": 3381,
      "椅": 3382,
      "植": 3383,
      "椎": 3384,
      "椒": 3385,
      "椤": 3386,
      "椭": 3387,
      "椰": 3388,
      "椿": 3389,
      "楂": 3390,
      "楊": 3391,
      "楓": 3392,
      "楔": 3393,
      "楚": 3394,
      "楛": 3395,
      "楝": 3396,
      "楞": 3397,
      "楠": 3398,
      "楣": 3399,
      "楦": 3400,
      "業": 3401,
      "極": 3402,
      "楷": 3403,
      "楼": 3404,
      "概": 3405,
      "榄": 3406,
      "榅": 3407,
      "榆": 3408,
      "榈": 3409,
      "榔": 3410,
      "榛": 3411,
      "榜": 3412,
      "榨": 3413,
      "榭": 3414,
      "榮": 3415,
      "榴": 3416,
      "榷": 3417,
      "榻": 3418,
      "槁": 3419,
      "構": 3420,
      "槌": 3421,
      "槍": 3422,
      "槐": 3423,
      "槙": 3424,
      "槛": 3425,
      "槟": 3426,
      "槲": 3427,
      "槽": 3428,
      "槿": 3429,
      "樁": 3430,
      "樂": 3431,
      "樊": 3432,
      "樑": 3433,
      "樓": 3434,
      "標": 3435,
      "樟": 3436,
      "模": 3437,
      "樣": 3438,
      "横": 3439,
      "樱": 3440,
      "樵": 3441,
      "樸": 3442,
      "樹": 3443,
      "樺": 3444,
      "樽": 3445,
      "橄": 3446,
      "橇": 3447,
      "橈": 3448,
      "橋": 3449,
      "橘": 3450,
      "橙": 3451,
      "機": 3452,
      "橡": 3453,
      "橢": 3454,
      "橫": 3455,
      "橱": 3456,
      "橵": 3457,
      "橼": 3458,
      "橾": 3459,
      "檀": 3460,
      "檐": 3461,
      "檔": 3462,
      "檞": 3463,
      "檢": 3464,
      "檬": 3465,
      "檯": 3466,
      "檳": 3467,
      "檸": 3468,
      "櫃": 3469,
      "櫚": 3470,
      "櫥": 3471,
      "欄": 3472,
      "權": 3473,
      "欑": 3474,
      "欖": 3475,
      "欠": 3476,
      "次": 3477,
      "欢": 3478,
      "欣": 3479,
      "欧": 3480,
      "欲": 3481,
      "欴": 3482,
      "欸": 3483,
      "欺": 3484,
      "欽": 3485,
      "款": 3486,
      "歇": 3487,
      "歉": 3488,
      "歌": 3489,
      "歐": 3490,
      "歡": 3491,
      "止": 3492,
      "正": 3493,
      "此": 3494,
      "步": 3495,
      "武": 3496,
      "歧": 3497,
      "歪": 3498,
      "歲": 3499,
      "歷": 3500,
      "歸": 3501,
      "歹": 3502,
      "死": 3503,
      "歼": 3504,
      "殃": 3505,
      "殄": 3506,
      "殆": 3507,
      "殉": 3508,
      "殊": 3509,
      "残": 3510,
      "殒": 3511,
      "殓": 3512,
      "殖": 3513,
      "殘": 3514,
      "殡": 3515,
      "殭": 3516,
      "殴": 3517,
      "段": 3518,
      "殷": 3519,
      "殺": 3520,
      "殼": 3521,
      "殿": 3522,
      "毀": 3523,
      "毁": 3524,
      "毂": 3525,
      "毅": 3526,
      "毆": 3527,
      "毋": 3528,
      "母": 3529,
      "毎": 3530,
      "每": 3531,
      "毒": 3532,
      "毓": 3533,
      "比": 3534,
      "毕": 3535,
      "毖": 3536,
      "毗": 3537,
      "毙": 3538,
      "毚": 3539,
      "毛": 3540,
      "毞": 3541,
      "毡": 3542,
      "毫": 3543,
      "毯": 3544,
      "氏": 3545,
      "氐": 3546,
      "民": 3547,
      "氓": 3548,
      "气": 3549,
      "氘": 3550,
      "氙": 3551,
      "氚": 3552,
      "氛": 3553,
      "氟": 3554,
      "氡": 3555,
      "氢": 3556,
      "氣": 3557,
      "氦": 3558,
      "氧": 3559,
      "氨": 3560,
      "氩": 3561,
      "氪": 3562,
      "氮": 3563,
      "氯": 3564,
      "氰": 3565,
      "水": 3566,
      "永": 3567,
      "汀": 3568,
      "汁": 3569,
      "求": 3570,
      "汇": 3571,
      "汉": 3572,
      "汐": 3573,
      "汔": 3574,
      "汗": 3575,
      "汝": 3576,
      "汞": 3577,
      "江": 3578,
      "池": 3579,
      "污": 3580,
      "汤": 3581,
      "汩": 3582,
      "汪": 3583,
      "汰": 3584,
      "汲": 3585,
      "汴": 3586,
      "汶": 3587,
      "汹": 3588,
      "決": 3589,
      "汽": 3590,
      "汾": 3591,
      "沁": 3592,
      "沂": 3593,
      "沃": 3594,
      "沈": 3595,
      "沉": 3596,
      "沌": 3597,
      "沏": 3598,
      "沐": 3599,
      "沒": 3600,
      "沓": 3601,
      "沖": 3602,
      "沙": 3603,
      "沛": 3604,
      "沟": 3605,
      "没": 3606,
      "沢": 3607,
      "沣": 3608,
      "沤": 3609,
      "沥": 3610,
      "沦": 3611,
      "沧": 3612,
      "沫": 3613,
      "沬": 3614,
      "沮": 3615,
      "河": 3616,
      "沸": 3617,
      "油": 3618,
      "治": 3619,
      "沼": 3620,
      "沽": 3621,
      "沾": 3622,
      "沿": 3623,
      "況": 3624,
      "泂": 3625,
      "泄": 3626,
      "泉": 3627,
      "泊": 3628,
      "泌": 3629,
      "泐": 3630,
      "泔": 3631,
      "法": 3632,
      "泗": 3633,
      "泛": 3634,
      "泞": 3635,
      "泠": 3636,
      "泡": 3637,
      "波": 3638,
      "泣": 3639,
      "泥": 3640,
      "注": 3641,
      "泪": 3642,
      "泭": 3643,
      "泮": 3644,
      "泯": 3645,
      "泰": 3646,
      "泳": 3647,
      "泵": 3648,
      "泷": 3649,
      "泻": 3650,
      "泼": 3651,
      "泽": 3652,
      "泾": 3653,
      "洁": 3654,
      "洄": 3655,
      "洇": 3656,
      "洋": 3657,
      "洒": 3658,
      "洗": 3659,
      "洙": 3660,
      "洛": 3661,
      "洞": 3662,
      "津": 3663,
      "洩": 3664,
      "洪": 3665,
      "洮": 3666,
      "洱": 3667,
      "洲": 3668,
      "洶": 3669,
      "活": 3670,
      "洼": 3671,
      "洽": 3672,
      "派": 3673,
      "流": 3674,
      "浃": 3675,
      "浅": 3676,
      "浆": 3677,
      "浇": 3678,
      "浊": 3679,
      "测": 3680,
      "济": 3681,
      "浏": 3682,
      "浑": 3683,
      "浓": 3684,
      "浙": 3685,
      "浚": 3686,
      "浣": 3687,
      "浦": 3688,
      "浩": 3689,
      "浪": 3690,
      "浬": 3691,
      "浮": 3692,
      "浯": 3693,
      "浴": 3694,
      "海": 3695,
      "浸": 3696,
      "涂": 3697,
      "涅": 3698,
      "消": 3699,
      "涉": 3700,
      "涌": 3701,
      "涎": 3702,
      "涓": 3703,
      "涕": 3704,
      "涛": 3705,
      "涝": 3706,
      "涟": 3707,
      "涡": 3708,
      "涣": 3709,
      "涤": 3710,
      "润": 3711,
      "涨": 3712,
      "涩": 3713,
      "涮": 3714,
      "涯": 3715,
      "液": 3716,
      "涴": 3717,
      "涵": 3718,
      "涸": 3719,
      "涼": 3720,
      "淀": 3721,
      "淅": 3722,
      "淆": 3723,
      "淇": 3724,
      "淋": 3725,
      "淌": 3726,
      "淏": 3727,
      "淑": 3728,
      "淖": 3729,
      "淘": 3730,
      "淚": 3731,
      "淡": 3732,
      "淤": 3733,
      "淨": 3734,
      "淩": 3735,
      "淪": 3736,
      "淫": 3737,
      "淮": 3738,
      "深": 3739,
      "淳": 3740,
      "淵": 3741,
      "混": 3742,
      "淹": 3743,
      "淺": 3744,
      "添": 3745,
      "清": 3746,
      "渊": 3747,
      "渍": 3748,
      "渎": 3749,
      "渐": 3750,
      "渔": 3751,
      "渗": 3752,
      "渙": 3753,
      "渚": 3754,
      "減": 3755,
      "渝": 3756,
      "渠": 3757,
      "渡": 3758,
      "渣": 3759,
      "渤": 3760,
      "渥": 3761,
      "渦": 3762,
      "渧": 3763,
      "温": 3764,
      "測": 3765,
      "渭": 3766,
      "港": 3767,
      "渲": 3768,
      "渴": 3769,
      "游": 3770,
      "渺": 3771,
      "渾": 3772,
      "湃": 3773,
      "湄": 3774,
      "湊": 3775,
      "湍": 3776,
      "湎": 3777,
      "湔": 3778,
      "湖": 3779,
      "湘": 3780,
      "湛": 3781,
      "湧": 3782,
      "湮": 3783,
      "湯": 3784,
      "湾": 3785,
      "湿": 3786,
      "溃": 3787,
      "溅": 3788,
      "溉": 3789,
      "源": 3790,
      "準": 3791,
      "溘": 3792,
      "溜": 3793,
      "溝": 3794,
      "溢": 3795,
      "溥": 3796,
      "溪": 3797,
      "溫": 3798,
      "溯": 3799,
      "溴": 3800,
      "溶": 3801,
      "溷": 3802,
      "溺": 3803,
      "溼": 3804,
      "滅": 3805,
      "滇": 3806,
      "滋": 3807,
      "滌": 3808,
      "滑": 3809,
      "滓": 3810,
      "滔": 3811,
      "滕": 3812,
      "滚": 3813,
      "滞": 3814,
      "满": 3815,
      "滤": 3816,
      "滥": 3817,
      "滨": 3818,
      "滩": 3819,
      "滯": 3820,
      "滲": 3821,
      "滴": 3822,
      "滾": 3823,
      "滿": 3824,
      "漁": 3825,
      "漂": 3826,
      "漆": 3827,
      "漏": 3828,
      "漓": 3829,
      "演": 3830,
      "漠": 3831,
      "漢": 3832,
      "漩": 3833,
      "漪": 3834,
      "漫": 3835,
      "漬": 3836,
      "漯": 3837,
      "漱": 3838,
      "漲": 3839,
      "漸": 3840,
      "漾": 3841,
      "漿": 3842,
      "潇": 3843,
      "潑": 3844,
      "潔": 3845,
      "潘": 3846,
      "潛": 3847,
      "潜": 3848,
      "潢": 3849,
      "潤": 3850,
      "潦": 3851,
      "潭": 3852,
      "潮": 3853,
      "潰": 3854,
      "潸": 3855,
      "潺": 3856,
      "澄": 3857,
      "澈": 3858,
      "澎": 3859,
      "澜": 3860,
      "澡": 3861,
      "澤": 3862,
      "澳": 3863,
      "澹": 3864,
      "激": 3865,
      "濑": 3866,
      "濒": 3867,
      "濕": 3868,
      "濘": 3869,
      "濛": 3870,
      "濟": 3871,
      "濡": 3872,
      "濤": 3873,
      "濬": 3874,
      "濯": 3875,
      "濺": 3876,
      "濾": 3877,
      "瀏": 3878,
      "瀑": 3879,
      "瀕": 3880,
      "瀚": 3881,
      "瀝": 3882,
      "瀟": 3883,
      "瀬": 3884,
      "瀰": 3885,
      "灌": 3886,
      "灑": 3887,
      "灘": 3888,
      "灣": 3889,
      "火": 3890,
      "灭": 3891,
      "灯": 3892,
      "灰": 3893,
      "灵": 3894,
      "灶": 3895,
      "灸": 3896,
      "灼": 3897,
      "災": 3898,
      "灾": 3899,
      "灿": 3900,
      "炉": 3901,
      "炊": 3902,
      "炎": 3903,
      "炒": 3904,
      "炔": 3905,
      "炕": 3906,
      "炖": 3907,
      "炙": 3908,
      "炜": 3909,
      "炫": 3910,
      "炬": 3911,
      "炭": 3912,
      "炮": 3913,
      "炯": 3914,
      "炳": 3915,
      "炵": 3916,
      "炷": 3917,
      "炸": 3918,
      "点": 3919,
      "為": 3920,
      "炼": 3921,
      "炽": 3922,
      "烁": 3923,
      "烂": 3924,
      "烃": 3925,
      "烈": 3926,
      "烊": 3927,
      "烏": 3928,
      "烘": 3929,
      "烙": 3930,
      "烛": 3931,
      "烟": 3932,
      "烤": 3933,
      "烦": 3934,
      "烧": 3935,
      "烩": 3936,
      "烫": 3937,
      "烬": 3938,
      "热": 3939,
      "烯": 3940,
      "烷": 3941,
      "烹": 3942,
      "焉": 3943,
      "焊": 3944,
      "焕": 3945,
      "焙": 3946,
      "焚": 3947,
      "無": 3948,
      "焦": 3949,
      "焰": 3950,
      "然": 3951,
      "煅": 3952,
      "煉": 3953,
      "煌": 3954,
      "煎": 3955,
      "煙": 3956,
      "煞": 3957,
      "煤": 3958,
      "煥": 3959,
      "煦": 3960,
      "照": 3961,
      "煩": 3962,
      "煭": 3963,
      "煮": 3964,
      "煲": 3965,
      "煽": 3966,
      "熄": 3967,
      "熊": 3968,
      "熏": 3969,
      "熔": 3970,
      "熙": 3971,
      "熟": 3972,
      "熠": 3973,
      "熨": 3974,
      "熬": 3975,
      "熱": 3976,
      "燃": 3977,
      "燈": 3978,
      "燉": 3979,
      "燎": 3980,
      "燒": 3981,
      "燕": 3982,
      "燙": 3983,
      "營": 3984,
      "燠": 3985,
      "燥": 3986,
      "燦": 3987,
      "燧": 3988,
      "燬": 3989,
      "燭": 3990,
      "燮": 3991,
      "燴": 3992,
      "燻": 3993,
      "燼": 3994,
      "爆": 3995,
      "爐": 3996,
      "爛": 3997,
      "爪": 3998,
      "爬": 3999,
      "爭": 4000,
      "爱": 4001,
      "爲": 4002,
      "爵": 4003,
      "父": 4004,
      "爷": 4005,
      "爸": 4006,
      "爹": 4007,
      "爺": 4008,
      "爽": 4009,
      "爾": 4010,
      "牀": 4011,
      "牆": 4012,
      "片": 4013,
      "版": 4014,
      "牌": 4015,
      "牍": 4016,
      "牒": 4017,
      "牙": 4018,
      "牛": 4019,
      "牟": 4020,
      "牠": 4021,
      "牡": 4022,
      "牢": 4023,
      "牦": 4024,
      "牧": 4025,
      "物": 4026,
      "牲": 4027,
      "牵": 4028,
      "特": 4029,
      "牺": 4030,
      "牽": 4031,
      "犀": 4032,
      "犁": 4033,
      "犄": 4034,
      "犊": 4035,
      "犒": 4036,
      "犖": 4037,
      "犢": 4038,
      "犧": 4039,
      "犬": 4040,
      "犭": 4041,
      "犯": 4042,
      "犰": 4043,
      "状": 4044,
      "犸": 4045,
      "犹": 4046,
      "狀": 4047,
      "狂": 4048,
      "狄": 4049,
      "狈": 4050,
      "狎": 4051,
      "狐": 4052,
      "狒": 4053,
      "狓": 4054,
      "狗": 4055,
      "狙": 4056,
      "狝": 4057,
      "狞": 4058,
      "狟": 4059,
      "狠": 4060,
      "狡": 4061,
      "狥": 4062,
      "狦": 4063,
      "狩": 4064,
      "独": 4065,
      "狭": 4066,
      "狮": 4067,
      "狰": 4068,
      "狱": 4069,
      "狳": 4070,
      "狵": 4071,
      "狶": 4072,
      "狸": 4073,
      "狹": 4074,
      "狻": 4075,
      "狼": 4076,
      "狽": 4077,
      "狾": 4078,
      "猁": 4079,
      "猌": 4080,
      "猎": 4081,
      "猔": 4082,
      "猕": 4083,
      "猖": 4084,
      "猛": 4085,
      "猜": 4086,
      "猝": 4087,
      "猟": 4088,
      "猠": 4089,
      "猡": 4090,
      "猥": 4091,
      "猧": 4092,
      "猩": 4093,
      "猪": 4094,
      "猫": 4095,
      "猬": 4096,
      "猭": 4097,
      "献": 4098,
      "猳": 4099,
      "猴": 4100,
      "猵": 4101,
      "猶": 4102,
      "猾": 4103,
      "猿": 4104,
      "獀": 4105,
      "獁": 4106,
      "獃": 4107,
      "獄": 4108,
      "獅": 4109,
      "獎": 4110,
      "獗": 4111,
      "獠": 4112,
      "獨": 4113,
      "獭": 4114,
      "獰": 4115,
      "獲": 4116,
      "獴": 4117,
      "獵": 4118,
      "獶": 4119,
      "獸": 4120,
      "獹": 4121,
      "獺": 4122,
      "獻": 4123,
      "獽": 4124,
      "獾": 4125,
      "獿": 4126,
      "玂": 4127,
      "玄": 4128,
      "玅": 4129,
      "玆": 4130,
      "率": 4131,
      "玉": 4132,
      "王": 4133,
      "玌": 4134,
      "玒": 4135,
      "玙": 4136,
      "玛": 4137,
      "玜": 4138,
      "玡": 4139,
      "玥": 4140,
      "玩": 4141,
      "玫": 4142,
      "玮": 4143,
      "环": 4144,
      "现": 4145,
      "玱": 4146,
      "玲": 4147,
      "玳": 4148,
      "玴": 4149,
      "玵": 4150,
      "玶": 4151,
      "玷": 4152,
      "玺": 4153,
      "玻": 4154,
      "玼": 4155,
      "珀": 4156,
      "珂": 4157,
      "珃": 4158,
      "珅": 4159,
      "珆": 4160,
      "珇": 4161,
      "珈": 4162,
      "珉": 4163,
      "珊": 4164,
      "珋": 4165,
      "珍": 4166,
      "珏": 4167,
      "珑": 4168,
      "珗": 4169,
      "珠": 4170,
      "珥": 4171,
      "珧": 4172,
      "珨": 4173,
      "珩": 4174,
      "班": 4175,
      "珮": 4176,
      "珼": 4177,
      "現": 4178,
      "珿": 4179,
      "琁": 4180,
      "球": 4181,
      "琄": 4182,
      "琅": 4183,
      "理": 4184,
      "琉": 4185,
      "琌": 4186,
      "琍": 4187,
      "琎": 4188,
      "琐": 4189,
      "琕": 4190,
      "琘": 4191,
      "琛": 4192,
      "琜": 4193,
      "琢": 4194,
      "琥": 4195,
      "琦": 4196,
      "琩": 4197,
      "琪": 4198,
      "琳": 4199,
      "琴": 4200,
      "琵": 4201,
      "琶": 4202,
      "琼": 4203,
      "琾": 4204,
      "琿": 4205,
      "瑀": 4206,
      "瑁": 4207,
      "瑅": 4208,
      "瑆": 4209,
      "瑇": 4210,
      "瑈": 4211,
      "瑌": 4212,
      "瑍": 4213,
      "瑕": 4214,
      "瑙": 4215,
      "瑚": 4216,
      "瑛": 4217,
      "瑜": 4218,
      "瑞": 4219,
      "瑟": 4220,
      "瑠": 4221,
      "瑪": 4222,
      "瑯": 4223,
      "瑰": 4224,
      "瑶": 4225,
      "瑻": 4226,
      "瑾": 4227,
      "瑿": 4228,
      "璂": 4229,
      "璃": 4230,
      "璅": 4231,
      "璆": 4232,
      "璉": 4233,
      "璊": 4234,
      "璍": 4235,
      "璐": 4236,
      "璓": 4237,
      "璗": 4238,
      "璚": 4239,
      "璜": 4240,
      "璝": 4241,
      "璞": 4242,
      "璣": 4243,
      "璨": 4244,
      "璭": 4245,
      "環": 4246,
      "璵": 4247,
      "璶": 4248,
      "璸": 4249,
      "璼": 4250,
      "璽": 4251,
      "瓁": 4252,
      "瓆": 4253,
      "瓊": 4254,
      "瓒": 4255,
      "瓜": 4256,
      "瓠": 4257,
      "瓢": 4258,
      "瓣": 4259,
      "瓦": 4260,
      "瓮": 4261,
      "瓳": 4262,
      "瓶": 4263,
      "瓷": 4264,
      "瓸": 4265,
      "瓿": 4266,
      "甃": 4267,
      "甄": 4268,
      "甅": 4269,
      "甉": 4270,
      "甊": 4271,
      "甘": 4272,
      "甚": 4273,
      "甜": 4274,
      "生": 4275,
      "甡": 4276,
      "產": 4277,
      "甤": 4278,
      "甥": 4279,
      "甦": 4280,
      "甧": 4281,
      "用": 4282,
      "甩": 4283,
      "甫": 4284,
      "甬": 4285,
      "甭": 4286,
      "甮": 4287,
      "田": 4288,
      "由": 4289,
      "甲": 4290,
      "申": 4291,
      "电": 4292,
      "甶": 4293,
      "男": 4294,
      "甸": 4295,
      "町": 4296,
      "画": 4297,
      "畅": 4298,
      "畉": 4299,
      "界": 4300,
      "畍": 4301,
      "畏": 4302,
      "畐": 4303,
      "畑": 4304,
      "畒": 4305,
      "畓": 4306,
      "畔": 4307,
      "畕": 4308,
      "留": 4309,
      "畜": 4310,
      "畢": 4311,
      "略": 4312,
      "番": 4313,
      "畫": 4314,
      "異": 4315,
      "畴": 4316,
      "當": 4317,
      "畸": 4318,
      "疆": 4319,
      "疉": 4320,
      "疍": 4321,
      "疏": 4322,
      "疑": 4323,
      "疗": 4324,
      "疙": 4325,
      "疚": 4326,
      "疝": 4327,
      "疟": 4328,
      "疡": 4329,
      "疤": 4330,
      "疥": 4331,
      "疩": 4332,
      "疫": 4333,
      "疭": 4334,
      "疮": 4335,
      "疯": 4336,
      "疱": 4337,
      "疲": 4338,
      "疵": 4339,
      "疶": 4340,
      "疹": 4341,
      "疻": 4342,
      "疼": 4343,
      "疽": 4344,
      "疾": 4345,
      "痁": 4346,
      "痂": 4347,
      "病": 4348,
      "症": 4349,
      "痈": 4350,
      "痉": 4351,
      "痊": 4352,
      "痍": 4353,
      "痒": 4354,
      "痔": 4355,
      "痕": 4356,
      "痘": 4357,
      "痙": 4358,
      "痚": 4359,
      "痛": 4360,
      "痜": 4361,
      "痝": 4362,
      "痞": 4363,
      "痠": 4364,
      "痢": 4365,
      "痣": 4366,
      "痨": 4367,
      "痪": 4368,
      "痫": 4369,
      "痮": 4370,
      "痰": 4371,
      "痴": 4372,
      "痷": 4373,
      "痸": 4374,
      "痹": 4375,
      "痺": 4376,
      "痻": 4377,
      "痼": 4378,
      "痾": 4379,
      "痿": 4380,
      "瘀": 4381,
      "瘁": 4382,
      "瘂": 4383,
      "瘆": 4384,
      "瘋": 4385,
      "瘓": 4386,
      "瘘": 4387,
      "瘟": 4388,
      "瘠": 4389,
      "瘡": 4390,
      "瘤": 4391,
      "瘦": 4392,
      "瘧": 4393,
      "瘩": 4394,
      "瘪": 4395,
      "瘫": 4396,
      "瘴": 4397,
      "瘸": 4398,
      "瘾": 4399,
      "療": 4400,
      "癌": 4401,
      "癐": 4402,
      "癒": 4403,
      "癔": 4404,
      "癖": 4405,
      "癘": 4406,
      "癚": 4407,
      "癞": 4408,
      "癟": 4409,
      "癠": 4410,
      "癡": 4411,
      "癢": 4412,
      "癣": 4413,
      "癥": 4414,
      "癩": 4415,
      "癫": 4416,
      "癬": 4417,
      "癮": 4418,
      "癱": 4419,
      "癲": 4420,
      "癳": 4421,
      "癵": 4422,
      "癶": 4423,
      "癸": 4424,
      "発": 4425,
      "登": 4426,
      "發": 4427,
      "白": 4428,
      "百": 4429,
      "皂": 4430,
      "皃": 4431,
      "的": 4432,
      "皆": 4433,
      "皇": 4434,
      "皈": 4435,
      "皊": 4436,
      "皑": 4437,
      "皓": 4438,
      "皘": 4439,
      "皙": 4440,
      "皮": 4441,
      "皱": 4442,
      "皿": 4443,
      "盂": 4444,
      "盅": 4445,
      "盆": 4446,
      "盈": 4447,
      "盉": 4448,
      "益": 4449,
      "盋": 4450,
      "盌": 4451,
      "盎": 4452,
      "盏": 4453,
      "盐": 4454,
      "监": 4455,
      "盒": 4456,
      "盔": 4457,
      "盕": 4458,
      "盖": 4459,
      "盗": 4460,
      "盘": 4461,
      "盚": 4462,
      "盛": 4463,
      "盜": 4464,
      "盞": 4465,
      "盟": 4466,
      "盡": 4467,
      "盢": 4468,
      "監": 4469,
      "盤": 4470,
      "盧": 4471,
      "盪": 4472,
      "目": 4473,
      "盯": 4474,
      "盲": 4475,
      "直": 4476,
      "相": 4477,
      "盹": 4478,
      "盼": 4479,
      "盽": 4480,
      "盾": 4481,
      "盿": 4482,
      "省": 4483,
      "眃": 4484,
      "眈": 4485,
      "眉": 4486,
      "眊": 4487,
      "看": 4488,
      "眎": 4489,
      "眏": 4490,
      "眒": 4491,
      "眔": 4492,
      "眕": 4493,
      "眖": 4494,
      "眞": 4495,
      "真": 4496,
      "眠": 4497,
      "眢": 4498,
      "眣": 4499,
      "眤": 4500,
      "眦": 4501,
      "眨": 4502,
      "眩": 4503,
      "眭": 4504,
      "眯": 4505,
      "眳": 4506,
      "眶": 4507,
      "眷": 4508,
      "眸": 4509,
      "眺": 4510,
      "眻": 4511,
      "眼": 4512,
      "眾": 4513,
      "着": 4514,
      "睁": 4515,
      "睇": 4516,
      "睐": 4517,
      "睑": 4518,
      "睚": 4519,
      "睛": 4520,
      "睜": 4521,
      "睝": 4522,
      "睡": 4523,
      "睢": 4524,
      "督": 4525,
      "睦": 4526,
      "睪": 4527,
      "睫": 4528,
      "睬": 4529,
      "睭": 4530,
      "睱": 4531,
      "睲": 4532,
      "睵": 4533,
      "睹": 4534,
      "睼": 4535,
      "睽": 4536,
      "睾": 4537,
      "睿": 4538,
      "瞄": 4539,
      "瞅": 4540,
      "瞇": 4541,
      "瞊": 4542,
      "瞋": 4543,
      "瞌": 4544,
      "瞎": 4545,
      "瞏": 4546,
      "瞑": 4547,
      "瞒": 4548,
      "瞝": 4549,
      "瞞": 4550,
      "瞟": 4551,
      "瞠": 4552,
      "瞥": 4553,
      "瞦": 4554,
      "瞧": 4555,
      "瞩": 4556,
      "瞪": 4557,
      "瞬": 4558,
      "瞭": 4559,
      "瞯": 4560,
      "瞰": 4561,
      "瞳": 4562,
      "瞴": 4563,
      "瞶": 4564,
      "瞷": 4565,
      "瞻": 4566,
      "矇": 4567,
      "矓": 4568,
      "矗": 4569,
      "矛": 4570,
      "矜": 4571,
      "矢": 4572,
      "矣": 4573,
      "知": 4574,
      "矩": 4575,
      "矪": 4576,
      "矫": 4577,
      "短": 4578,
      "矮": 4579,
      "石": 4580,
      "矶": 4581,
      "矹": 4582,
      "矽": 4583,
      "矾": 4584,
      "矿": 4585,
      "码": 4586,
      "砂": 4587,
      "砃": 4588,
      "砆": 4589,
      "砉": 4590,
      "砋": 4591,
      "砌": 4592,
      "砍": 4593,
      "砏": 4594,
      "砑": 4595,
      "砒": 4596,
      "砓": 4597,
      "研": 4598,
      "砖": 4599,
      "砛": 4600,
      "砝": 4601,
      "砥": 4602,
      "砦": 4603,
      "砧": 4604,
      "砩": 4605,
      "砫": 4606,
      "砯": 4607,
      "砰": 4608,
      "砲": 4609,
      "破": 4610,
      "砷": 4611,
      "砸": 4612,
      "砺": 4613,
      "砾": 4614,
      "础": 4615,
      "硁": 4616,
      "硂": 4617,
      "硄": 4618,
      "硅": 4619,
      "硈": 4620,
      "硉": 4621,
      "硋": 4622,
      "硌": 4623,
      "硐": 4624,
      "硑": 4625,
      "硒": 4626,
      "硓": 4627,
      "硔": 4628,
      "硕": 4629,
      "硖": 4630,
      "硙": 4631,
      "硝": 4632,
      "硪": 4633,
      "硫": 4634,
      "硬": 4635,
      "确": 4636,
      "硷": 4637,
      "硼": 4638,
      "碈": 4639,
      "碉": 4640,
      "碊": 4641,
      "碌": 4642,
      "碍": 4643,
      "碎": 4644,
      "碑": 4645,
      "碔": 4646,
      "碕": 4647,
      "碗": 4648,
      "碘": 4649,
      "碙": 4650,
      "碝": 4651,
      "碞": 4652,
      "碟": 4653,
      "碧": 4654,
      "碩": 4655,
      "碭": 4656,
      "碰": 4657,
      "碱": 4658,
      "碳": 4659,
      "碴": 4660,
      "確": 4661,
      "碼": 4662,
      "碾": 4663,
      "碿": 4664,
      "磀": 4665,
      "磁": 4666,
      "磅": 4667,
      "磊": 4668,
      "磋": 4669,
      "磐": 4670,
      "磑": 4671,
      "磕": 4672,
      "磖": 4673,
      "磚": 4674,
      "磨": 4675,
      "磯": 4676,
      "磷": 4677,
      "磺": 4678,
      "礁": 4679,
      "礎": 4680,
      "礙": 4681,
      "礚": 4682,
      "礛": 4683,
      "礟": 4684,
      "礢": 4685,
      "礦": 4686,
      "礹": 4687,
      "示": 4688,
      "礼": 4689,
      "社": 4690,
      "礿": 4691,
      "祀": 4692,
      "祂": 4693,
      "祅": 4694,
      "祇": 4695,
      "祈": 4696,
      "祉": 4697,
      "祍": 4698,
      "祐": 4699,
      "祑": 4700,
      "祔": 4701,
      "祖": 4702,
      "祘": 4703,
      "祛": 4704,
      "祜": 4705,
      "祝": 4706,
      "神": 4707,
      "祟": 4708,
      "祢": 4709,
      "祥": 4710,
      "祧": 4711,
      "票": 4712,
      "祭": 4713,
      "祷": 4714,
      "祸": 4715,
      "祺": 4716,
      "禀": 4717,
      "禁": 4718,
      "禄": 4719,
      "禅": 4720,
      "禍": 4721,
      "福": 4722,
      "禔": 4723,
      "禗": 4724,
      "禜": 4725,
      "禟": 4726,
      "禣": 4727,
      "禥": 4728,
      "禦": 4729,
      "禧": 4730,
      "禫": 4731,
      "禬": 4732,
      "禭": 4733,
      "禮": 4734,
      "禯": 4735,
      "禰": 4736,
      "禱": 4737,
      "禲": 4738,
      "禴": 4739,
      "禺": 4740,
      "离": 4741,
      "禽": 4742,
      "禾": 4743,
      "禿": 4744,
      "秀": 4745,
      "私": 4746,
      "秂": 4747,
      "秃": 4748,
      "秅": 4749,
      "秆": 4750,
      "秈": 4751,
      "秉": 4752,
      "秋": 4753,
      "种": 4754,
      "秎": 4755,
      "秏": 4756,
      "科": 4757,
      "秒": 4758,
      "秖": 4759,
      "秘": 4760,
      "秝": 4761,
      "租": 4762,
      "秤": 4763,
      "秦": 4764,
      "秧": 4765,
      "秨": 4766,
      "秩": 4767,
      "秪": 4768,
      "积": 4769,
      "称": 4770,
      "秶": 4771,
      "秸": 4772,
      "移": 4773,
      "秽": 4774,
      "稀": 4775,
      "稂": 4776,
      "稅": 4777,
      "程": 4778,
      "稍": 4779,
      "税": 4780,
      "稗": 4781,
      "稚": 4782,
      "稟": 4783,
      "稠": 4784,
      "稣": 4785,
      "稦": 4786,
      "稬": 4787,
      "種": 4788,
      "稰": 4789,
      "稱": 4790,
      "稲": 4791,
      "稳": 4792,
      "稴": 4793,
      "稵": 4794,
      "稶": 4795,
      "稷": 4796,
      "稺": 4797,
      "稻": 4798,
      "稼": 4799,
      "稽": 4800,
      "稿": 4801,
      "穀": 4802,
      "穆": 4803,
      "穌": 4804,
      "積": 4805,
      "穎": 4806,
      "穓": 4807,
      "穕": 4808,
      "穗": 4809,
      "穛": 4810,
      "穝": 4811,
      "穢": 4812,
      "穦": 4813,
      "穨": 4814,
      "穩": 4815,
      "穫": 4816,
      "穱": 4817,
      "穴": 4818,
      "究": 4819,
      "穷": 4820,
      "穹": 4821,
      "空": 4822,
      "穿": 4823,
      "突": 4824,
      "窃": 4825,
      "窄": 4826,
      "窈": 4827,
      "窍": 4828,
      "窑": 4829,
      "窒": 4830,
      "窕": 4831,
      "窖": 4832,
      "窗": 4833,
      "窘": 4834,
      "窜": 4835,
      "窝": 4836,
      "窟": 4837,
      "窠": 4838,
      "窥": 4839,
      "窦": 4840,
      "窩": 4841,
      "窮": 4842,
      "窯": 4843,
      "窰": 4844,
      "窱": 4845,
      "窸": 4846,
      "窺": 4847,
      "窽": 4848,
      "窾": 4849,
      "窿": 4850,
      "竄": 4851,
      "竅": 4852,
      "竇": 4853,
      "竊": 4854,
      "立": 4855,
      "竒": 4856,
      "竕": 4857,
      "竖": 4858,
      "站": 4859,
      "竚": 4860,
      "竜": 4861,
      "竞": 4862,
      "竟": 4863,
      "章": 4864,
      "竡": 4865,
      "竣": 4866,
      "竤": 4867,
      "童": 4868,
      "竧": 4869,
      "竭": 4870,
      "竮": 4871,
      "端": 4872,
      "竲": 4873,
      "競": 4874,
      "竹": 4875,
      "竺": 4876,
      "竿": 4877,
      "笃": 4878,
      "笆": 4879,
      "笈": 4880,
      "笋": 4881,
      "笑": 4882,
      "笔": 4883,
      "笘": 4884,
      "笙": 4885,
      "笛": 4886,
      "笞": 4887,
      "笠": 4888,
      "笢": 4889,
      "笥": 4890,
      "符": 4891,
      "笨": 4892,
      "第": 4893,
      "笭": 4894,
      "笱": 4895,
      "笲": 4896,
      "笴": 4897,
      "笵": 4898,
      "笷": 4899,
      "笹": 4900,
      "笺": 4901,
      "笻": 4902,
      "笼": 4903,
      "笿": 4904,
      "筁": 4905,
      "筂": 4906,
      "筆": 4907,
      "等": 4908,
      "筋": 4909,
      "筍": 4910,
      "筎": 4911,
      "筏": 4912,
      "筐": 4913,
      "筑": 4914,
      "筒": 4915,
      "答": 4916,
      "策": 4917,
      "筛": 4918,
      "筝": 4919,
      "筧": 4920,
      "筱": 4921,
      "筴": 4922,
      "筵": 4923,
      "筷": 4924,
      "筹": 4925,
      "筽": 4926,
      "签": 4927,
      "筿": 4928,
      "简": 4929,
      "箂": 4930,
      "箇": 4931,
      "箉": 4932,
      "箍": 4933,
      "箎": 4934,
      "箔": 4935,
      "算": 4936,
      "箝": 4937,
      "管": 4938,
      "箫": 4939,
      "箭": 4940,
      "箱": 4941,
      "箴": 4942,
      "節": 4943,
      "範": 4944,
      "篇": 4945,
      "築": 4946,
      "篊": 4947,
      "篋": 4948,
      "篏": 4949,
      "篑": 4950,
      "篗": 4951,
      "篙": 4952,
      "篝": 4953,
      "篡": 4954,
      "篤": 4955,
      "篦": 4956,
      "篪": 4957,
      "篫": 4958,
      "篮": 4959,
      "篱": 4960,
      "篷": 4961,
      "簀": 4962,
      "簆": 4963,
      "簇": 4964,
      "簈": 4965,
      "簍": 4966,
      "簎": 4967,
      "簑": 4968,
      "簒": 4969,
      "簘": 4970,
      "簡": 4971,
      "簧": 4972,
      "簫": 4973,
      "簸": 4974,
      "簽": 4975,
      "簾": 4976,
      "簿": 4977,
      "籁": 4978,
      "籃": 4979,
      "籇": 4980,
      "籊": 4981,
      "籌": 4982,
      "籍": 4983,
      "籏": 4984,
      "籐": 4985,
      "籓": 4986,
      "籔": 4987,
      "籖": 4988,
      "籘": 4989,
      "籜": 4990,
      "籟": 4991,
      "籠": 4992,
      "籤": 4993,
      "籬": 4994,
      "籲": 4995,
      "米": 4996,
      "籴": 4997,
      "籹": 4998,
      "类": 4999,
      "籽": 5000,
      "粁": 5001,
      "粄": 5002,
      "粆": 5003,
      "粇": 5004,
      "粉": 5005,
      "粒": 5006,
      "粗": 5007,
      "粘": 5008,
      "粟": 5009,
      "粤": 5010,
      "粥": 5011,
      "粪": 5012,
      "粮": 5013,
      "粱": 5014,
      "粹": 5015,
      "粽": 5016,
      "精": 5017,
      "粿": 5018,
      "糃": 5019,
      "糅": 5020,
      "糉": 5021,
      "糊": 5022,
      "糋": 5023,
      "糑": 5024,
      "糒": 5025,
      "糓": 5026,
      "糔": 5027,
      "糕": 5028,
      "糖": 5029,
      "糗": 5030,
      "糙": 5031,
      "糛": 5032,
      "糞": 5033,
      "糟": 5034,
      "糠": 5035,
      "糤": 5036,
      "糧": 5037,
      "糯": 5038,
      "糴": 5039,
      "糵": 5040,
      "糶": 5041,
      "糷": 5042,
      "糸": 5043,
      "系": 5044,
      "糽": 5045,
      "糾": 5046,
      "紀": 5047,
      "紁": 5048,
      "約": 5049,
      "紅": 5050,
      "紆": 5051,
      "紇": 5052,
      "紈": 5053,
      "紊": 5054,
      "紋": 5055,
      "納": 5056,
      "紏": 5057,
      "紐": 5058,
      "純": 5059,
      "紗": 5060,
      "紙": 5061,
      "級": 5062,
      "紛": 5063,
      "素": 5064,
      "索": 5065,
      "紧": 5066,
      "紫": 5067,
      "紮": 5068,
      "累": 5069,
      "細": 5070,
      "紲": 5071,
      "紳": 5072,
      "紹": 5073,
      "紿": 5074,
      "終": 5075,
      "絃": 5076,
      "組": 5077,
      "絆": 5078,
      "絋": 5079,
      "結": 5080,
      "絒": 5081,
      "絕": 5082,
      "絘": 5083,
      "絙": 5084,
      "絞": 5085,
      "絡": 5086,
      "絤": 5087,
      "給": 5088,
      "絨": 5089,
      "絩": 5090,
      "絫": 5091,
      "絬": 5092,
      "絮": 5093,
      "統": 5094,
      "絲": 5095,
      "絴": 5096,
      "絶": 5097,
      "絿": 5098,
      "綁": 5099,
      "綑": 5100,
      "經": 5101,
      "続": 5102,
      "綜": 5103,
      "綟": 5104,
      "綠": 5105,
      "綢": 5106,
      "綣": 5107,
      "綤": 5108,
      "綪": 5109,
      "維": 5110,
      "綮": 5111,
      "綰": 5112,
      "綱": 5113,
      "網": 5114,
      "綴": 5115,
      "綸": 5116,
      "綻": 5117,
      "綼": 5118,
      "綽": 5119,
      "綾": 5120,
      "綿": 5121,
      "緅": 5122,
      "緇": 5123,
      "緊": 5124,
      "緋": 5125,
      "緑": 5126,
      "緒": 5127,
      "緓": 5128,
      "緘": 5129,
      "線": 5130,
      "緝": 5131,
      "緞": 5132,
      "締": 5133,
      "緣": 5134,
      "編": 5135,
      "緩": 5136,
      "練": 5137,
      "縀": 5138,
      "縇": 5139,
      "縈": 5140,
      "縉": 5141,
      "縋": 5142,
      "縐": 5143,
      "縒": 5144,
      "縛": 5145,
      "縡": 5146,
      "縣": 5147,
      "縤": 5148,
      "縫": 5149,
      "縮": 5150,
      "縱": 5151,
      "縷": 5152,
      "縸": 5153,
      "總": 5154,
      "績": 5155,
      "繁": 5156,
      "繃": 5157,
      "織": 5158,
      "繞": 5159,
      "繦": 5160,
      "繧": 5161,
      "繨": 5162,
      "繩": 5163,
      "繫": 5164,
      "繰": 5165,
      "繳": 5166,
      "繷": 5167,
      "繹": 5168,
      "繺": 5169,
      "繻": 5170,
      "繼": 5171,
      "繽": 5172,
      "纂": 5173,
      "纄": 5174,
      "纊": 5175,
      "續": 5176,
      "纏": 5177,
      "纐": 5178,
      "纒": 5179,
      "纓": 5180,
      "纔": 5181,
      "纖": 5182,
      "纘": 5183,
      "纜": 5184,
      "纠": 5185,
      "红": 5186,
      "纣": 5187,
      "纤": 5188,
      "约": 5189,
      "级": 5190,
      "纨": 5191,
      "纪": 5192,
      "纫": 5193,
      "纬": 5194,
      "纭": 5195,
      "纯": 5196,
      "纱": 5197,
      "纲": 5198,
      "纳": 5199,
      "纵": 5200,
      "纶": 5201,
      "纷": 5202,
      "纸": 5203,
      "纹": 5204,
      "纺": 5205,
      "纽": 5206,
      "纾": 5207,
      "线": 5208,
      "练": 5209,
      "组": 5210,
      "绅": 5211,
      "细": 5212,
      "织": 5213,
      "终": 5214,
      "绊": 5215,
      "绌": 5216,
      "绍": 5217,
      "绎": 5218,
      "经": 5219,
      "绑": 5220,
      "绒": 5221,
      "结": 5222,
      "绔": 5223,
      "绕": 5224,
      "绘": 5225,
      "给": 5226,
      "绚": 5227,
      "绛": 5228,
      "络": 5229,
      "绝": 5230,
      "绞": 5231,
      "统": 5232,
      "绢": 5233,
      "绣": 5234,
      "绥": 5235,
      "绦": 5236,
      "继": 5237,
      "绩": 5238,
      "绪": 5239,
      "续": 5240,
      "绯": 5241,
      "绰": 5242,
      "绳": 5243,
      "维": 5244,
      "绵": 5245,
      "绶": 5246,
      "绷": 5247,
      "绸": 5248,
      "综": 5249,
      "绽": 5250,
      "绿": 5251,
      "缀": 5252,
      "缄": 5253,
      "缅": 5254,
      "缆": 5255,
      "缇": 5256,
      "缈": 5257,
      "缉": 5258,
      "缎": 5259,
      "缓": 5260,
      "缔": 5261,
      "缕": 5262,
      "编": 5263,
      "缘": 5264,
      "缙": 5265,
      "缚": 5266,
      "缛": 5267,
      "缜": 5268,
      "缝": 5269,
      "缠": 5270,
      "缡": 5271,
      "缢": 5272,
      "缤": 5273,
      "缨": 5274,
      "缩": 5275,
      "缪": 5276,
      "缫": 5277,
      "缬": 5278,
      "缭": 5279,
      "缮": 5280,
      "缰": 5281,
      "缴": 5282,
      "缷": 5283,
      "缸": 5284,
      "缺": 5285,
      "罂": 5286,
      "罄": 5287,
      "罐": 5288,
      "网": 5289,
      "罔": 5290,
      "罕": 5291,
      "罖": 5292,
      "罗": 5293,
      "罚": 5294,
      "罠": 5295,
      "罢": 5296,
      "罩": 5297,
      "罪": 5298,
      "置": 5299,
      "罰": 5300,
      "署": 5301,
      "罵": 5302,
      "罷": 5303,
      "罹": 5304,
      "罺": 5305,
      "罽": 5306,
      "羁": 5307,
      "羅": 5308,
      "羆": 5309,
      "羊": 5310,
      "羌": 5311,
      "美": 5312,
      "羔": 5313,
      "羘": 5314,
      "羙": 5315,
      "羚": 5316,
      "羛": 5317,
      "羞": 5318,
      "羟": 5319,
      "羡": 5320,
      "群": 5321,
      "羨": 5322,
      "義": 5323,
      "羪": 5324,
      "羬": 5325,
      "羯": 5326,
      "羲": 5327,
      "羶": 5328,
      "羸": 5329,
      "羹": 5330,
      "羽": 5331,
      "翁": 5332,
      "翅": 5333,
      "翊": 5334,
      "翌": 5335,
      "翎": 5336,
      "習": 5337,
      "翔": 5338,
      "翘": 5339,
      "翠": 5340,
      "翡": 5341,
      "翧": 5342,
      "翩": 5343,
      "翰": 5344,
      "翱": 5345,
      "翳": 5346,
      "翴": 5347,
      "翹": 5348,
      "翺": 5349,
      "翻": 5350,
      "翼": 5351,
      "耀": 5352,
      "老": 5353,
      "考": 5354,
      "耄": 5355,
      "者": 5356,
      "耆": 5357,
      "耋": 5358,
      "而": 5359,
      "耍": 5360,
      "耐": 5361,
      "耑": 5362,
      "耕": 5363,
      "耗": 5364,
      "耙": 5365,
      "耞": 5366,
      "耤": 5367,
      "耭": 5368,
      "耳": 5369,
      "耴": 5370,
      "耶": 5371,
      "耷": 5372,
      "耸": 5373,
      "耻": 5374,
      "耽": 5375,
      "耿": 5376,
      "聂": 5377,
      "聆": 5378,
      "聊": 5379,
      "聋": 5380,
      "职": 5381,
      "聐": 5382,
      "联": 5383,
      "聕": 5384,
      "聖": 5385,
      "聘": 5386,
      "聚": 5387,
      "聞": 5388,
      "聩": 5389,
      "聪": 5390,
      "聯": 5391,
      "聰": 5392,
      "聲": 5393,
      "聳": 5394,
      "職": 5395,
      "聼": 5396,
      "聽": 5397,
      "聾": 5398,
      "肃": 5399,
      "肄": 5400,
      "肅": 5401,
      "肆": 5402,
      "肇": 5403,
      "肈": 5404,
      "肉": 5405,
      "肋": 5406,
      "肌": 5407,
      "肏": 5408,
      "肓": 5409,
      "肖": 5410,
      "肘": 5411,
      "肚": 5412,
      "肛": 5413,
      "肝": 5414,
      "肞": 5415,
      "肠": 5416,
      "股": 5417,
      "肢": 5418,
      "肤": 5419,
      "肥": 5420,
      "肩": 5421,
      "肪": 5422,
      "肮": 5423,
      "肯": 5424,
      "育": 5425,
      "肴": 5426,
      "肺": 5427,
      "肽": 5428,
      "肾": 5429,
      "肿": 5430,
      "胀": 5431,
      "胁": 5432,
      "胃": 5433,
      "胄": 5434,
      "胆": 5435,
      "胊": 5436,
      "背": 5437,
      "胎": 5438,
      "胔": 5439,
      "胖": 5440,
      "胚": 5441,
      "胜": 5442,
      "胞": 5443,
      "胠": 5444,
      "胡": 5445,
      "胥": 5446,
      "胧": 5447,
      "胫": 5448,
      "胭": 5449,
      "胯": 5450,
      "胰": 5451,
      "胱": 5452,
      "胳": 5453,
      "胴": 5454,
      "胶": 5455,
      "胸": 5456,
      "胺": 5457,
      "能": 5458,
      "脂": 5459,
      "脄": 5460,
      "脅": 5461,
      "脆": 5462,
      "脈": 5463,
      "脉": 5464,
      "脊": 5465,
      "脋": 5466,
      "脏": 5467,
      "脐": 5468,
      "脑": 5469,
      "脓": 5470,
      "脔": 5471,
      "脖": 5472,
      "脚": 5473,
      "脛": 5474,
      "脫": 5475,
      "脯": 5476,
      "脱": 5477,
      "脸": 5478,
      "脹": 5479,
      "脾": 5480,
      "腀": 5481,
      "腃": 5482,
      "腆": 5483,
      "腇": 5484,
      "腉": 5485,
      "腊": 5486,
      "腋": 5487,
      "腌": 5488,
      "腎": 5489,
      "腐": 5490,
      "腑": 5491,
      "腓": 5492,
      "腔": 5493,
      "腕": 5494,
      "腞": 5495,
      "腢": 5496,
      "腥": 5497,
      "腦": 5498,
      "腨": 5499,
      "腩": 5500,
      "腪": 5501,
      "腫": 5502,
      "腭": 5503,
      "腮": 5504,
      "腰": 5505,
      "腱": 5506,
      "腳": 5507,
      "腴": 5508,
      "腸": 5509,
      "腹": 5510,
      "腺": 5511,
      "腻": 5512,
      "腼": 5513,
      "腾": 5514,
      "腿": 5515,
      "膀": 5516,
      "膈": 5517,
      "膊": 5518,
      "膎": 5519,
      "膏": 5520,
      "膑": 5521,
      "膘": 5522,
      "膚": 5523,
      "膛": 5524,
      "膜": 5525,
      "膝": 5526,
      "膠": 5527,
      "膥": 5528,
      "膨": 5529,
      "膩": 5530,
      "膳": 5531,
      "膺": 5532,
      "膽": 5533,
      "膿": 5534,
      "臀": 5535,
      "臂": 5536,
      "臃": 5537,
      "臆": 5538,
      "臈": 5539,
      "臉": 5540,
      "臊": 5541,
      "臍": 5542,
      "臔": 5543,
      "臘": 5544,
      "臚": 5545,
      "臛": 5546,
      "臟": 5547,
      "臣": 5548,
      "臥": 5549,
      "臨": 5550,
      "臩": 5551,
      "自": 5552,
      "臫": 5553,
      "臭": 5554,
      "臮": 5555,
      "至": 5556,
      "致": 5557,
      "臸": 5558,
      "臺": 5559,
      "臻": 5560,
      "臼": 5561,
      "臽": 5562,
      "舀": 5563,
      "舂": 5564,
      "舅": 5565,
      "舆": 5566,
      "與": 5567,
      "興": 5568,
      "舉": 5569,
      "舊": 5570,
      "舌": 5571,
      "舍": 5572,
      "舐": 5573,
      "舒": 5574,
      "舔": 5575,
      "舗": 5576,
      "舘": 5577,
      "舛": 5578,
      "舜": 5579,
      "舞": 5580,
      "舟": 5581,
      "舠": 5582,
      "舦": 5583,
      "舧": 5584,
      "航": 5585,
      "般": 5586,
      "舰": 5587,
      "舱": 5588,
      "舵": 5589,
      "舶": 5590,
      "舷": 5591,
      "船": 5592,
      "舺": 5593,
      "艇": 5594,
      "艉": 5595,
      "艋": 5596,
      "艘": 5597,
      "艙": 5598,
      "艦": 5599,
      "艮": 5600,
      "良": 5601,
      "艰": 5602,
      "艱": 5603,
      "色": 5604,
      "艳": 5605,
      "艶": 5606,
      "艷": 5607,
      "艹": 5608,
      "艺": 5609,
      "艼": 5610,
      "艾": 5611,
      "节": 5612,
      "芅": 5613,
      "芉": 5614,
      "芋": 5615,
      "芒": 5616,
      "芖": 5617,
      "芙": 5618,
      "芛": 5619,
      "芜": 5620,
      "芝": 5621,
      "芠": 5622,
      "芥": 5623,
      "芦": 5624,
      "芬": 5625,
      "芭": 5626,
      "芮": 5627,
      "芯": 5628,
      "花": 5629,
      "芳": 5630,
      "芴": 5631,
      "芶": 5632,
      "芷": 5633,
      "芸": 5634,
      "芹": 5635,
      "芽": 5636,
      "芾": 5637,
      "苇": 5638,
      "苍": 5639,
      "苏": 5640,
      "苑": 5641,
      "苓": 5642,
      "苔": 5643,
      "苗": 5644,
      "苘": 5645,
      "苛": 5646,
      "苜": 5647,
      "苝": 5648,
      "苞": 5649,
      "苟": 5650,
      "苤": 5651,
      "若": 5652,
      "苦": 5653,
      "苯": 5654,
      "英": 5655,
      "苷": 5656,
      "苹": 5657,
      "茁": 5658,
      "茂": 5659,
      "范": 5660,
      "茄": 5661,
      "茅": 5662,
      "茉": 5663,
      "茎": 5664,
      "茗": 5665,
      "茜": 5666,
      "茧": 5667,
      "茨": 5668,
      "茫": 5669,
      "茬": 5670,
      "茱": 5671,
      "茲": 5672,
      "茴": 5673,
      "茵": 5674,
      "茶": 5675,
      "茸": 5676,
      "茹": 5677,
      "荀": 5678,
      "荃": 5679,
      "荆": 5680,
      "草": 5681,
      "荎": 5682,
      "荐": 5683,
      "荒": 5684,
      "荚": 5685,
      "荜": 5686,
      "荟": 5687,
      "荡": 5688,
      "荣": 5689,
      "荧": 5690,
      "荨": 5691,
      "荫": 5692,
      "药": 5693,
      "荷": 5694,
      "荻": 5695,
      "荼": 5696,
      "荽": 5697,
      "莅": 5698,
      "莆": 5699,
      "莉": 5700,
      "莊": 5701,
      "莎": 5702,
      "莓": 5703,
      "莞": 5704,
      "莠": 5705,
      "莢": 5706,
      "莪": 5707,
      "莫": 5708,
      "莰": 5709,
      "莱": 5710,
      "莲": 5711,
      "获": 5712,
      "莹": 5713,
      "莺": 5714,
      "莽": 5715,
      "菁": 5716,
      "菇": 5717,
      "菈": 5718,
      "菊": 5719,
      "菌": 5720,
      "菏": 5721,
      "菜": 5722,
      "菠": 5723,
      "菩": 5724,
      "華": 5725,
      "菱": 5726,
      "菲": 5727,
      "菸": 5728,
      "萃": 5729,
      "萄": 5730,
      "萇": 5731,
      "萊": 5732,
      "萌": 5733,
      "萍": 5734,
      "萎": 5735,
      "萘": 5736,
      "萝": 5737,
      "萤": 5738,
      "营": 5739,
      "萦": 5740,
      "萧": 5741,
      "萨": 5742,
      "萩": 5743,
      "萬": 5744,
      "萱": 5745,
      "萵": 5746,
      "萸": 5747,
      "萼": 5748,
      "落": 5749,
      "葉": 5750,
      "著": 5751,
      "葛": 5752,
      "葡": 5753,
      "董": 5754,
      "葩": 5755,
      "葫": 5756,
      "葬": 5757,
      "葭": 5758,
      "葱": 5759,
      "葵": 5760,
      "葷": 5761,
      "葺": 5762,
      "蒂": 5763,
      "蒋": 5764,
      "蒐": 5765,
      "蒙": 5766,
      "蒜": 5767,
      "蒲": 5768,
      "蒳": 5769,
      "蒸": 5770,
      "蒼": 5771,
      "蒿": 5772,
      "蓄": 5773,
      "蓉": 5774,
      "蓋": 5775,
      "蓓": 5776,
      "蓖": 5777,
      "蓝": 5778,
      "蓟": 5779,
      "蓦": 5780,
      "蓬": 5781,
      "蓮": 5782,
      "蓿": 5783,
      "蔑": 5784,
      "蔓": 5785,
      "蔔": 5786,
      "蔗": 5787,
      "蔚": 5788,
      "蔡": 5789,
      "蔣": 5790,
      "蔥": 5791,
      "蔫": 5792,
      "蔬": 5793,
      "蔭": 5794,
      "蔷": 5795,
      "蔻": 5796,
      "蔼": 5797,
      "蔽": 5798,
      "蕁": 5799,
      "蕃": 5800,
      "蕉": 5801,
      "蕊": 5802,
      "蕙": 5803,
      "蕞": 5804,
      "蕨": 5805,
      "蕩": 5806,
      "蕭": 5807,
      "蕴": 5808,
      "蕾": 5809,
      "薄": 5810,
      "薇": 5811,
      "薊": 5812,
      "薑": 5813,
      "薛": 5814,
      "薦": 5815,
      "薩": 5816,
      "薪": 5817,
      "薮": 5818,
      "薯": 5819,
      "薰": 5820,
      "藉": 5821,
      "藍": 5822,
      "藏": 5823,
      "藐": 5824,
      "藓": 5825,
      "藕": 5826,
      "藜": 5827,
      "藝": 5828,
      "藤": 5829,
      "藥": 5830,
      "藩": 5831,
      "藷": 5832,
      "藻": 5833,
      "藿": 5834,
      "蘇": 5835,
      "蘊": 5836,
      "蘋": 5837,
      "蘑": 5838,
      "蘭": 5839,
      "蘸": 5840,
      "蘿": 5841,
      "虎": 5842,
      "虏": 5843,
      "虐": 5844,
      "虑": 5845,
      "虔": 5846,
      "處": 5847,
      "虚": 5848,
      "虛": 5849,
      "虜": 5850,
      "虞": 5851,
      "號": 5852,
      "虧": 5853,
      "虫": 5854,
      "虱": 5855,
      "虹": 5856,
      "虽": 5857,
      "虾": 5858,
      "蚀": 5859,
      "蚁": 5860,
      "蚂": 5861,
      "蚊": 5862,
      "蚋": 5863,
      "蚌": 5864,
      "蚓": 5865,
      "蚔": 5866,
      "蚕": 5867,
      "蚗": 5868,
      "蚚": 5869,
      "蚜": 5870,
      "蚝": 5871,
      "蚣": 5872,
      "蚤": 5873,
      "蚩": 5874,
      "蚯": 5875,
      "蚱": 5876,
      "蚳": 5877,
      "蚾": 5878,
      "蛀": 5879,
      "蛁": 5880,
      "蛂": 5881,
      "蛆": 5882,
      "蛇": 5883,
      "蛊": 5884,
      "蛋": 5885,
      "蛎": 5886,
      "蛔": 5887,
      "蛙": 5888,
      "蛛": 5889,
      "蛞": 5890,
      "蛟": 5891,
      "蛤": 5892,
      "蛭": 5893,
      "蛮": 5894,
      "蛰": 5895,
      "蛹": 5896,
      "蛾": 5897,
      "蜀": 5898,
      "蜂": 5899,
      "蜃": 5900,
      "蜆": 5901,
      "蜇": 5902,
      "蜈": 5903,
      "蜊": 5904,
      "蜍": 5905,
      "蜒": 5906,
      "蜓": 5907,
      "蜗": 5908,
      "蜘": 5909,
      "蜚": 5910,
      "蜜": 5911,
      "蜡": 5912,
      "蜢": 5913,
      "蜥": 5914,
      "蜧": 5915,
      "蜱": 5916,
      "蜴": 5917,
      "蜷": 5918,
      "蜻": 5919,
      "蜿": 5920,
      "蝇": 5921,
      "蝉": 5922,
      "蝌": 5923,
      "蝎": 5924,
      "蝓": 5925,
      "蝕": 5926,
      "蝗": 5927,
      "蝙": 5928,
      "蝚": 5929,
      "蝟": 5930,
      "蝠": 5931,
      "蝦": 5932,
      "蝨": 5933,
      "蝴": 5934,
      "蝶": 5935,
      "蝾": 5936,
      "螁": 5937,
      "螂": 5938,
      "螃": 5939,
      "螆": 5940,
      "螈": 5941,
      "螉": 5942,
      "螌": 5943,
      "融": 5944,
      "螒": 5945,
      "螔": 5946,
      "螕": 5947,
      "螖": 5948,
      "螘": 5949,
      "螛": 5950,
      "螝": 5951,
      "螞": 5952,
      "螟": 5953,
      "螠": 5954,
      "螡": 5955,
      "螣": 5956,
      "螤": 5957,
      "螨": 5958,
      "螯": 5959,
      "螳": 5960,
      "螺": 5961,
      "蟀": 5962,
      "蟄": 5963,
      "蟆": 5964,
      "蟋": 5965,
      "蟑": 5966,
      "蟒": 5967,
      "蟠": 5968,
      "蟲": 5969,
      "蟹": 5970,
      "蟺": 5971,
      "蟻": 5972,
      "蟼": 5973,
      "蟽": 5974,
      "蟾": 5975,
      "蟿": 5976,
      "蠀": 5977,
      "蠁": 5978,
      "蠂": 5979,
      "蠄": 5980,
      "蠅": 5981,
      "蠈": 5982,
      "蠉": 5983,
      "蠋": 5984,
      "蠍": 5985,
      "蠑": 5986,
      "蠔": 5987,
      "蠕": 5988,
      "蠖": 5989,
      "蠟": 5990,
      "蠢": 5991,
      "蠱": 5992,
      "蠹": 5993,
      "蠻": 5994,
      "血": 5995,
      "衄": 5996,
      "衅": 5997,
      "行": 5998,
      "衍": 5999,
      "術": 6000,
      "衔": 6001,
      "街": 6002,
      "衙": 6003,
      "衛": 6004,
      "衝": 6005,
      "衡": 6006,
      "衣": 6007,
      "补": 6008,
      "表": 6009,
      "衩": 6010,
      "衫": 6011,
      "衬": 6012,
      "衭": 6013,
      "衰": 6014,
      "衷": 6015,
      "衾": 6016,
      "袁": 6017,
      "袂": 6018,
      "袋": 6019,
      "袍": 6020,
      "袒": 6021,
      "袖": 6022,
      "袜": 6023,
      "袤": 6024,
      "袧": 6025,
      "袨": 6026,
      "被": 6027,
      "袭": 6028,
      "袱": 6029,
      "裁": 6030,
      "裂": 6031,
      "装": 6032,
      "裆": 6033,
      "裋": 6034,
      "裎": 6035,
      "裏": 6036,
      "裔": 6037,
      "裕": 6038,
      "裘": 6039,
      "裙": 6040,
      "補": 6041,
      "裝": 6042,
      "裡": 6043,
      "裤": 6044,
      "裨": 6045,
      "裱": 6046,
      "裳": 6047,
      "裴": 6048,
      "裸": 6049,
      "裹": 6050,
      "製": 6051,
      "褂": 6052,
      "複": 6053,
      "褐": 6054,
      "褒": 6055,
      "褓": 6056,
      "褛": 6057,
      "褥": 6058,
      "褪": 6059,
      "褫": 6060,
      "褲": 6061,
      "褶": 6062,
      "襁": 6063,
      "襄": 6064,
      "襞": 6065,
      "襟": 6066,
      "襢": 6067,
      "襪": 6068,
      "襯": 6069,
      "襲": 6070,
      "西": 6071,
      "要": 6072,
      "覂": 6073,
      "覃": 6074,
      "覆": 6075,
      "見": 6076,
      "規": 6077,
      "覓": 6078,
      "視": 6079,
      "覜": 6080,
      "親": 6081,
      "覲": 6082,
      "覺": 6083,
      "覽": 6084,
      "觀": 6085,
      "见": 6086,
      "观": 6087,
      "规": 6088,
      "觅": 6089,
      "视": 6090,
      "览": 6091,
      "觉": 6092,
      "觊": 6093,
      "觎": 6094,
      "觐": 6095,
      "觑": 6096,
      "角": 6097,
      "觝": 6098,
      "觞": 6099,
      "解": 6100,
      "触": 6101,
      "觸": 6102,
      "言": 6103,
      "訂": 6104,
      "訃": 6105,
      "訇": 6106,
      "計": 6107,
      "訊": 6108,
      "討": 6109,
      "訓": 6110,
      "託": 6111,
      "記": 6112,
      "訛": 6113,
      "訝": 6114,
      "訟": 6115,
      "訣": 6116,
      "訪": 6117,
      "設": 6118,
      "許": 6119,
      "訴": 6120,
      "診": 6121,
      "註": 6122,
      "証": 6123,
      "訾": 6124,
      "詆": 6125,
      "詐": 6126,
      "評": 6127,
      "詛": 6128,
      "詞": 6129,
      "詠": 6130,
      "詢": 6131,
      "試": 6132,
      "詩": 6133,
      "詪": 6134,
      "詫": 6135,
      "詭": 6136,
      "話": 6137,
      "該": 6138,
      "詳": 6139,
      "詹": 6140,
      "誇": 6141,
      "誉": 6142,
      "誊": 6143,
      "誌": 6144,
      "認": 6145,
      "誑": 6146,
      "誒": 6147,
      "誓": 6148,
      "誕": 6149,
      "誘": 6150,
      "語": 6151,
      "誠": 6152,
      "誡": 6153,
      "誣": 6154,
      "誤": 6155,
      "誦": 6156,
      "誨": 6157,
      "說": 6158,
      "説": 6159,
      "誰": 6160,
      "課": 6161,
      "誹": 6162,
      "誼": 6163,
      "調": 6164,
      "諀": 6165,
      "談": 6166,
      "諉": 6167,
      "請": 6168,
      "諒": 6169,
      "論": 6170,
      "諜": 6171,
      "諢": 6172,
      "諦": 6173,
      "諧": 6174,
      "諫": 6175,
      "諭": 6176,
      "諱": 6177,
      "諷": 6178,
      "諸": 6179,
      "諾": 6180,
      "謀": 6181,
      "謂": 6182,
      "謊": 6183,
      "謎": 6184,
      "謗": 6185,
      "謙": 6186,
      "講": 6187,
      "謝": 6188,
      "謠": 6189,
      "謬": 6190,
      "謹": 6191,
      "證": 6192,
      "識": 6193,
      "譚": 6194,
      "譜": 6195,
      "譟": 6196,
      "警": 6197,
      "譫": 6198,
      "譬": 6199,
      "譯": 6200,
      "議": 6201,
      "譴": 6202,
      "護": 6203,
      "譽": 6204,
      "讀": 6205,
      "變": 6206,
      "讓": 6207,
      "讕": 6208,
      "讚": 6209,
      "计": 6210,
      "订": 6211,
      "讣": 6212,
      "认": 6213,
      "讥": 6214,
      "讦": 6215,
      "讧": 6216,
      "讨": 6217,
      "让": 6218,
      "讪": 6219,
      "讫": 6220,
      "讬": 6221,
      "训": 6222,
      "议": 6223,
      "讯": 6224,
      "记": 6225,
      "讲": 6226,
      "讳": 6227,
      "讶": 6228,
      "讷": 6229,
      "许": 6230,
      "讹": 6231,
      "论": 6232,
      "讼": 6233,
      "讽": 6234,
      "设": 6235,
      "访": 6236,
      "诀": 6237,
      "证": 6238,
      "诃": 6239,
      "评": 6240,
      "诅": 6241,
      "识": 6242,
      "诈": 6243,
      "诉": 6244,
      "诊": 6245,
      "诋": 6246,
      "诌": 6247,
      "词": 6248,
      "诏": 6249,
      "译": 6250,
      "诓": 6251,
      "试": 6252,
      "诗": 6253,
      "诘": 6254,
      "诙": 6255,
      "诚": 6256,
      "诛": 6257,
      "话": 6258,
      "诞": 6259,
      "诟": 6260,
      "诠": 6261,
      "诡": 6262,
      "询": 6263,
      "诣": 6264,
      "该": 6265,
      "详": 6266,
      "诧": 6267,
      "诨": 6268,
      "诩": 6269,
      "诫": 6270,
      "诬": 6271,
      "语": 6272,
      "误": 6273,
      "诱": 6274,
      "诲": 6275,
      "说": 6276,
      "诵": 6277,
      "诶": 6278,
      "请": 6279,
      "诸": 6280,
      "诺": 6281,
      "读": 6282,
      "诽": 6283,
      "课": 6284,
      "诿": 6285,
      "谀": 6286,
      "谁": 6287,
      "谂": 6288,
      "调": 6289,
      "谄": 6290,
      "谅": 6291,
      "谆": 6292,
      "谈": 6293,
      "谊": 6294,
      "谋": 6295,
      "谌": 6296,
      "谍": 6297,
      "谎": 6298,
      "谏": 6299,
      "谐": 6300,
      "谑": 6301,
      "谓": 6302,
      "谕": 6303,
      "谘": 6304,
      "谙": 6305,
      "谚": 6306,
      "谛": 6307,
      "谜": 6308,
      "谟": 6309,
      "谢": 6310,
      "谣": 6311,
      "谤": 6312,
      "谦": 6313,
      "谧": 6314,
      "谨": 6315,
      "谩": 6316,
      "谬": 6317,
      "谭": 6318,
      "谰": 6319,
      "谱": 6320,
      "谴": 6321,
      "谶": 6322,
      "谷": 6323,
      "豁": 6324,
      "豆": 6325,
      "豈": 6326,
      "豌": 6327,
      "豎": 6328,
      "豐": 6329,
      "豖": 6330,
      "豚": 6331,
      "象": 6332,
      "豢": 6333,
      "豪": 6334,
      "豫": 6335,
      "豬": 6336,
      "豹": 6337,
      "豺": 6338,
      "貂": 6339,
      "貉": 6340,
      "貌": 6341,
      "貍": 6342,
      "貓": 6343,
      "貝": 6344,
      "貞": 6345,
      "負": 6346,
      "財": 6347,
      "貢": 6348,
      "貧": 6349,
      "貨": 6350,
      "販": 6351,
      "貪": 6352,
      "貫": 6353,
      "責": 6354,
      "貯": 6355,
      "貴": 6356,
      "貶": 6357,
      "買": 6358,
      "貸": 6359,
      "費": 6360,
      "貼": 6361,
      "賀": 6362,
      "賂": 6363,
      "賄": 6364,
      "資": 6365,
      "賈": 6366,
      "賊": 6367,
      "賑": 6368,
      "賓": 6369,
      "賜": 6370,
      "賞": 6371,
      "賠": 6372,
      "賢": 6373,
      "賣": 6374,
      "賤": 6375,
      "賦": 6376,
      "質": 6377,
      "賬": 6378,
      "賭": 6379,
      "賴": 6380,
      "賸": 6381,
      "賺": 6382,
      "購": 6383,
      "賽": 6384,
      "贅": 6385,
      "贈": 6386,
      "贊": 6387,
      "贏": 6388,
      "贓": 6389,
      "贖": 6390,
      "贗": 6391,
      "贝": 6392,
      "贞": 6393,
      "负": 6394,
      "贡": 6395,
      "财": 6396,
      "责": 6397,
      "贤": 6398,
      "败": 6399,
      "账": 6400,
      "货": 6401,
      "质": 6402,
      "贩": 6403,
      "贪": 6404,
      "贫": 6405,
      "贬": 6406,
      "购": 6407,
      "贮": 6408,
      "贯": 6409,
      "贰": 6410,
      "贱": 6411,
      "贲": 6412,
      "贴": 6413,
      "贵": 6414,
      "贷": 6415,
      "贸": 6416,
      "费": 6417,
      "贺": 6418,
      "贻": 6419,
      "贼": 6420,
      "贾": 6421,
      "贿": 6422,
      "赁": 6423,
      "赂": 6424,
      "赃": 6425,
      "资": 6426,
      "赅": 6427,
      "赈": 6428,
      "赊": 6429,
      "赋": 6430,
      "赌": 6431,
      "赎": 6432,
      "赏": 6433,
      "赐": 6434,
      "赔": 6435,
      "赖": 6436,
      "赘": 6437,
      "赚": 6438,
      "赛": 6439,
      "赝": 6440,
      "赞": 6441,
      "赠": 6442,
      "赡": 6443,
      "赢": 6444,
      "赣": 6445,
      "赤": 6446,
      "赦": 6447,
      "赫": 6448,
      "走": 6449,
      "赳": 6450,
      "赴": 6451,
      "赵": 6452,
      "赶": 6453,
      "起": 6454,
      "赻": 6455,
      "赽": 6456,
      "趁": 6457,
      "超": 6458,
      "越": 6459,
      "趋": 6460,
      "趕": 6461,
      "趙": 6462,
      "趟": 6463,
      "趣": 6464,
      "趨": 6465,
      "足": 6466,
      "趴": 6467,
      "趸": 6468,
      "趾": 6469,
      "跃": 6470,
      "跄": 6471,
      "跆": 6472,
      "跋": 6473,
      "跌": 6474,
      "跎": 6475,
      "跑": 6476,
      "跘": 6477,
      "跚": 6478,
      "跛": 6479,
      "距": 6480,
      "跟": 6481,
      "跡": 6482,
      "跤": 6483,
      "跨": 6484,
      "跩": 6485,
      "跪": 6486,
      "路": 6487,
      "跳": 6488,
      "践": 6489,
      "跶": 6490,
      "跷": 6491,
      "跺": 6492,
      "跻": 6493,
      "踉": 6494,
      "踊": 6495,
      "踌": 6496,
      "踏": 6497,
      "踐": 6498,
      "踝": 6499,
      "踞": 6500,
      "踟": 6501,
      "踡": 6502,
      "踢": 6503,
      "踩": 6504,
      "踪": 6505,
      "踮": 6506,
      "踯": 6507,
      "踰": 6508,
      "踵": 6509,
      "踹": 6510,
      "蹂": 6511,
      "蹄": 6512,
      "蹈": 6513,
      "蹉": 6514,
      "蹊": 6515,
      "蹋": 6516,
      "蹑": 6517,
      "蹒": 6518,
      "蹚": 6519,
      "蹟": 6520,
      "蹤": 6521,
      "蹦": 6522,
      "蹩": 6523,
      "蹬": 6524,
      "蹭": 6525,
      "蹰": 6526,
      "蹲": 6527,
      "蹴": 6528,
      "蹶": 6529,
      "蹼": 6530,
      "蹿": 6531,
      "躁": 6532,
      "躅": 6533,
      "躇": 6534,
      "躉": 6535,
      "躍": 6536,
      "躏": 6537,
      "躓": 6538,
      "身": 6539,
      "躬": 6540,
      "躯": 6541,
      "躲": 6542,
      "躺": 6543,
      "軀": 6544,
      "車": 6545,
      "軌": 6546,
      "軍": 6547,
      "軒": 6548,
      "軗": 6549,
      "軟": 6550,
      "軸": 6551,
      "較": 6552,
      "載": 6553,
      "輔": 6554,
      "輕": 6555,
      "輛": 6556,
      "輝": 6557,
      "輟": 6558,
      "輩": 6559,
      "輪": 6560,
      "輯": 6561,
      "輸": 6562,
      "輿": 6563,
      "轉": 6564,
      "轍": 6565,
      "轎": 6566,
      "轟": 6567,
      "车": 6568,
      "轧": 6569,
      "轨": 6570,
      "轩": 6571,
      "转": 6572,
      "轭": 6573,
      "轮": 6574,
      "软": 6575,
      "轰": 6576,
      "轱": 6577,
      "轲": 6578,
      "轴": 6579,
      "轶": 6580,
      "轻": 6581,
      "载": 6582,
      "轿": 6583,
      "较": 6584,
      "辄": 6585,
      "辅": 6586,
      "辆": 6587,
      "辈": 6588,
      "辉": 6589,
      "辊": 6590,
      "辍": 6591,
      "辐": 6592,
      "辑": 6593,
      "输": 6594,
      "辕": 6595,
      "辖": 6596,
      "辗": 6597,
      "辘": 6598,
      "辙": 6599,
      "辛": 6600,
      "辜": 6601,
      "辞": 6602,
      "辟": 6603,
      "辣": 6604,
      "辦": 6605,
      "辨": 6606,
      "辩": 6607,
      "辫": 6608,
      "辭": 6609,
      "辮": 6610,
      "辯": 6611,
      "辰": 6612,
      "辱": 6613,
      "農": 6614,
      "边": 6615,
      "辽": 6616,
      "达": 6617,
      "迁": 6618,
      "迂": 6619,
      "迄": 6620,
      "迅": 6621,
      "过": 6622,
      "迈": 6623,
      "迎": 6624,
      "运": 6625,
      "近": 6626,
      "返": 6627,
      "迖": 6628,
      "还": 6629,
      "这": 6630,
      "进": 6631,
      "远": 6632,
      "违": 6633,
      "连": 6634,
      "迟": 6635,
      "迡": 6636,
      "迢": 6637,
      "迥": 6638,
      "迦": 6639,
      "迨": 6640,
      "迪": 6641,
      "迫": 6642,
      "迭": 6643,
      "述": 6644,
      "迳": 6645,
      "迴": 6646,
      "迷": 6647,
      "迸": 6648,
      "迹": 6649,
      "迺": 6650,
      "追": 6651,
      "退": 6652,
      "送": 6653,
      "适": 6654,
      "逃": 6655,
      "逅": 6656,
      "逆": 6657,
      "选": 6658,
      "逊": 6659,
      "逍": 6660,
      "透": 6661,
      "逐": 6662,
      "递": 6663,
      "途": 6664,
      "逗": 6665,
      "這": 6666,
      "通": 6667,
      "逛": 6668,
      "逝": 6669,
      "逞": 6670,
      "速": 6671,
      "造": 6672,
      "逢": 6673,
      "連": 6674,
      "逮": 6675,
      "週": 6676,
      "進": 6677,
      "逸": 6678,
      "逻": 6679,
      "逼": 6680,
      "逾": 6681,
      "遁": 6682,
      "遂": 6683,
      "遇": 6684,
      "遊": 6685,
      "運": 6686,
      "遍": 6687,
      "過": 6688,
      "遏": 6689,
      "遐": 6690,
      "遒": 6691,
      "道": 6692,
      "達": 6693,
      "違": 6694,
      "遗": 6695,
      "遙": 6696,
      "遛": 6697,
      "遜": 6698,
      "遞": 6699,
      "遠": 6700,
      "遢": 6701,
      "遣": 6702,
      "遥": 6703,
      "適": 6704,
      "遭": 6705,
      "遮": 6706,
      "遲": 6707,
      "遴": 6708,
      "遵": 6709,
      "遷": 6710,
      "選": 6711,
      "遺": 6712,
      "遼": 6713,
      "遽": 6714,
      "避": 6715,
      "邀": 6716,
      "邁": 6717,
      "邂": 6718,
      "邃": 6719,
      "還": 6720,
      "邈": 6721,
      "邊": 6722,
      "邋": 6723,
      "邏": 6724,
      "邑": 6725,
      "邓": 6726,
      "邝": 6727,
      "邢": 6728,
      "那": 6729,
      "邦": 6730,
      "邨": 6731,
      "邪": 6732,
      "邮": 6733,
      "邱": 6734,
      "邵": 6735,
      "邸": 6736,
      "邹": 6737,
      "邻": 6738,
      "郁": 6739,
      "郅": 6740,
      "郊": 6741,
      "郎": 6742,
      "郑": 6743,
      "郔": 6744,
      "郝": 6745,
      "郞": 6746,
      "郡": 6747,
      "部": 6748,
      "郭": 6749,
      "郴": 6750,
      "郵": 6751,
      "郸": 6752,
      "都": 6753,
      "鄂": 6754,
      "鄉": 6755,
      "鄔": 6756,
      "鄙": 6757,
      "鄢": 6758,
      "鄧": 6759,
      "鄭": 6760,
      "鄰": 6761,
      "酉": 6762,
      "酊": 6763,
      "酋": 6764,
      "酌": 6765,
      "配": 6766,
      "酐": 6767,
      "酒": 6768,
      "酕": 6769,
      "酗": 6770,
      "酚": 6771,
      "酝": 6772,
      "酥": 6773,
      "酩": 6774,
      "酪": 6775,
      "酬": 6776,
      "酮": 6777,
      "酯": 6778,
      "酰": 6779,
      "酱": 6780,
      "酵": 6781,
      "酶": 6782,
      "酷": 6783,
      "酸": 6784,
      "酿": 6785,
      "醃": 6786,
      "醇": 6787,
      "醉": 6788,
      "醋": 6789,
      "醍": 6790,
      "醐": 6791,
      "醒": 6792,
      "醚": 6793,
      "醛": 6794,
      "醜": 6795,
      "醫": 6796,
      "醬": 6797,
      "醮": 6798,
      "醯": 6799,
      "醱": 6800,
      "醴": 6801,
      "醺": 6802,
      "釆": 6803,
      "采": 6804,
      "釉": 6805,
      "释": 6806,
      "釋": 6807,
      "里": 6808,
      "重": 6809,
      "野": 6810,
      "量": 6811,
      "釐": 6812,
      "金": 6813,
      "釘": 6814,
      "釜": 6815,
      "針": 6816,
      "釣": 6817,
      "釦": 6818,
      "釬": 6819,
      "釵": 6820,
      "鈍": 6821,
      "鈔": 6822,
      "鈕": 6823,
      "鈦": 6824,
      "鈴": 6825,
      "鈾": 6826,
      "鉅": 6827,
      "鉖": 6828,
      "鉗": 6829,
      "鉛": 6830,
      "鉜": 6831,
      "鉤": 6832,
      "鉴": 6833,
      "銀": 6834,
      "銅": 6835,
      "銘": 6836,
      "銜": 6837,
      "銡": 6838,
      "銬": 6839,
      "銳": 6840,
      "銷": 6841,
      "銹": 6842,
      "鋅": 6843,
      "鋒": 6844,
      "鋪": 6845,
      "鋸": 6846,
      "鋻": 6847,
      "鋼": 6848,
      "錄": 6849,
      "錘": 6850,
      "錢": 6851,
      "錦": 6852,
      "錨": 6853,
      "錫": 6854,
      "錯": 6855,
      "錶": 6856,
      "鍊": 6857,
      "鍋": 6858,
      "鍔": 6859,
      "鍛": 6860,
      "鍰": 6861,
      "鍵": 6862,
      "鍾": 6863,
      "鎊": 6864,
      "鎔": 6865,
      "鎖": 6866,
      "鎗": 6867,
      "鎘": 6868,
      "鎧": 6869,
      "鎮": 6870,
      "鏈": 6871,
      "鏘": 6872,
      "鏟": 6873,
      "鏡": 6874,
      "鏢": 6875,
      "鐐": 6876,
      "鐘": 6877,
      "鐮": 6878,
      "鐲": 6879,
      "鐵": 6880,
      "鑒": 6881,
      "鑣": 6882,
      "鑫": 6883,
      "鑰": 6884,
      "鑲": 6885,
      "鑽": 6886,
      "鑿": 6887,
      "针": 6888,
      "钉": 6889,
      "钊": 6890,
      "钋": 6891,
      "钍": 6892,
      "钐": 6893,
      "钓": 6894,
      "钙": 6895,
      "钚": 6896,
      "钛": 6897,
      "钝": 6898,
      "钞": 6899,
      "钟": 6900,
      "钠": 6901,
      "钡": 6902,
      "钢": 6903,
      "钥": 6904,
      "钦": 6905,
      "钧": 6906,
      "钨": 6907,
      "钩": 6908,
      "钮": 6909,
      "钱": 6910,
      "钳": 6911,
      "钴": 6912,
      "钵": 6913,
      "钶": 6914,
      "钹": 6915,
      "钻": 6916,
      "钼": 6917,
      "钽": 6918,
      "钾": 6919,
      "铀": 6920,
      "铁": 6921,
      "铃": 6922,
      "铅": 6923,
      "铆": 6924,
      "铉": 6925,
      "铌": 6926,
      "铍": 6927,
      "铎": 6928,
      "铐": 6929,
      "铛": 6930,
      "铜": 6931,
      "铝": 6932,
      "铟": 6933,
      "铠": 6934,
      "铢": 6935,
      "铤": 6936,
      "铪": 6937,
      "铬": 6938,
      "铭": 6939,
      "铯": 6940,
      "铰": 6941,
      "铱": 6942,
      "铲": 6943,
      "铵": 6944,
      "银": 6945,
      "铸": 6946,
      "铺": 6947,
      "链": 6948,
      "铿": 6949,
      "销": 6950,
      "锁": 6951,
      "锂": 6952,
      "锄": 6953,
      "锅": 6954,
      "锆": 6955,
      "锈": 6956,
      "锋": 6957,
      "锌": 6958,
      "锏": 6959,
      "锐": 6960,
      "锒": 6961,
      "错": 6962,
      "锚": 6963,
      "锡": 6964,
      "锢": 6965,
      "锣": 6966,
      "锤": 6967,
      "锥": 6968,
      "锦": 6969,
      "锭": 6970,
      "键": 6971,
      "锯": 6972,
      "锰": 6973,
      "锲": 6974,
      "锵": 6975,
      "锶": 6976,
      "锹": 6977,
      "锺": 6978,
      "锻": 6979,
      "镀": 6980,
      "镁": 6981,
      "镇": 6982,
      "镉": 6983,
      "镊": 6984,
      "镍": 6985,
      "镑": 6986,
      "镓": 6987,
      "镖": 6988,
      "镗": 6989,
      "镛": 6990,
      "镜": 6991,
      "镣": 6992,
      "镬": 6993,
      "镭": 6994,
      "镯": 6995,
      "镰": 6996,
      "镳": 6997,
      "镶": 6998,
      "長": 6999,
      "长": 7000,
      "門": 7001,
      "閃": 7002,
      "閉": 7003,
      "開": 7004,
      "閑": 7005,
      "閒": 7006,
      "間": 7007,
      "閣": 7008,
      "閥": 7009,
      "閩": 7010,
      "閱": 7011,
      "闆": 7012,
      "闇": 7013,
      "闊": 7014,
      "闌": 7015,
      "闕": 7016,
      "闖": 7017,
      "關": 7018,
      "闡": 7019,
      "闢": 7020,
      "门": 7021,
      "闩": 7022,
      "闪": 7023,
      "闭": 7024,
      "问": 7025,
      "闯": 7026,
      "闰": 7027,
      "闲": 7028,
      "间": 7029,
      "闷": 7030,
      "闸": 7031,
      "闹": 7032,
      "闺": 7033,
      "闻": 7034,
      "闽": 7035,
      "阀": 7036,
      "阁": 7037,
      "阂": 7038,
      "阄": 7039,
      "阅": 7040,
      "阈": 7041,
      "阉": 7042,
      "阎": 7043,
      "阐": 7044,
      "阑": 7045,
      "阔": 7046,
      "阖": 7047,
      "阙": 7048,
      "阞": 7049,
      "队": 7050,
      "阡": 7051,
      "阨": 7052,
      "阪": 7053,
      "阮": 7054,
      "阰": 7055,
      "阱": 7056,
      "防": 7057,
      "阳": 7058,
      "阴": 7059,
      "阵": 7060,
      "阶": 7061,
      "阻": 7062,
      "阿": 7063,
      "陀": 7064,
      "附": 7065,
      "际": 7066,
      "陆": 7067,
      "陈": 7068,
      "陋": 7069,
      "陌": 7070,
      "降": 7071,
      "限": 7072,
      "陑": 7073,
      "陓": 7074,
      "陕": 7075,
      "陛": 7076,
      "陡": 7077,
      "院": 7078,
      "陣": 7079,
      "除": 7080,
      "陨": 7081,
      "险": 7082,
      "陪": 7083,
      "陬": 7084,
      "陰": 7085,
      "陲": 7086,
      "陳": 7087,
      "陵": 7088,
      "陶": 7089,
      "陷": 7090,
      "陸": 7091,
      "陽": 7092,
      "隅": 7093,
      "隆": 7094,
      "隊": 7095,
      "隋": 7096,
      "階": 7097,
      "随": 7098,
      "隐": 7099,
      "隔": 7100,
      "隘": 7101,
      "隙": 7102,
      "際": 7103,
      "障": 7104,
      "隠": 7105,
      "隧": 7106,
      "隨": 7107,
      "險": 7108,
      "隱": 7109,
      "隴": 7110,
      "隶": 7111,
      "隸": 7112,
      "隻": 7113,
      "隼": 7114,
      "隽": 7115,
      "难": 7116,
      "雀": 7117,
      "雁": 7118,
      "雄": 7119,
      "雅": 7120,
      "集": 7121,
      "雇": 7122,
      "雌": 7123,
      "雍": 7124,
      "雏": 7125,
      "雕": 7126,
      "雖": 7127,
      "雙": 7128,
      "雛": 7129,
      "雜": 7130,
      "雞": 7131,
      "離": 7132,
      "難": 7133,
      "雨": 7134,
      "雪": 7135,
      "雯": 7136,
      "雲": 7137,
      "雳": 7138,
      "零": 7139,
      "雷": 7140,
      "雹": 7141,
      "電": 7142,
      "雾": 7143,
      "需": 7144,
      "霄": 7145,
      "霆": 7146,
      "震": 7147,
      "霉": 7148,
      "霍": 7149,
      "霎": 7150,
      "霏": 7151,
      "霓": 7152,
      "霖": 7153,
      "霜": 7154,
      "霞": 7155,
      "霧": 7156,
      "霫": 7157,
      "霰": 7158,
      "露": 7159,
      "霸": 7160,
      "霹": 7161,
      "霾": 7162,
      "靂": 7163,
      "靈": 7164,
      "青": 7165,
      "靓": 7166,
      "靖": 7167,
      "静": 7168,
      "靜": 7169,
      "非": 7170,
      "靠": 7171,
      "靡": 7172,
      "面": 7173,
      "革": 7174,
      "靳": 7175,
      "靴": 7176,
      "靶": 7177,
      "靼": 7178,
      "鞋": 7179,
      "鞍": 7180,
      "鞏": 7181,
      "鞑": 7182,
      "鞘": 7183,
      "鞠": 7184,
      "鞣": 7185,
      "鞭": 7186,
      "韁": 7187,
      "韋": 7188,
      "韓": 7189,
      "韦": 7190,
      "韧": 7191,
      "韩": 7192,
      "韭": 7193,
      "音": 7194,
      "韵": 7195,
      "韶": 7196,
      "韻": 7197,
      "響": 7198,
      "頁": 7199,
      "頂": 7200,
      "項": 7201,
      "順": 7202,
      "須": 7203,
      "頌": 7204,
      "頏": 7205,
      "預": 7206,
      "頑": 7207,
      "頓": 7208,
      "頗": 7209,
      "領": 7210,
      "頤": 7211,
      "頭": 7212,
      "頰": 7213,
      "頸": 7214,
      "頻": 7215,
      "顆": 7216,
      "題": 7217,
      "額": 7218,
      "顎": 7219,
      "顏": 7220,
      "願": 7221,
      "顛": 7222,
      "類": 7223,
      "顧": 7224,
      "顯": 7225,
      "顱": 7226,
      "页": 7227,
      "顶": 7228,
      "顷": 7229,
      "项": 7230,
      "顺": 7231,
      "须": 7232,
      "顽": 7233,
      "顾": 7234,
      "顿": 7235,
      "颁": 7236,
      "颂": 7237,
      "预": 7238,
      "颅": 7239,
      "领": 7240,
      "颇": 7241,
      "颈": 7242,
      "颊": 7243,
      "颌": 7244,
      "颏": 7245,
      "颐": 7246,
      "频": 7247,
      "颓": 7248,
      "颖": 7249,
      "颗": 7250,
      "题": 7251,
      "颚": 7252,
      "颜": 7253,
      "额": 7254,
      "颞": 7255,
      "颠": 7256,
      "颤": 7257,
      "颧": 7258,
      "風": 7259,
      "颶": 7260,
      "飄": 7261,
      "飆": 7262,
      "风": 7263,
      "飓": 7264,
      "飘": 7265,
      "飙": 7266,
      "飚": 7267,
      "飛": 7268,
      "飞": 7269,
      "食": 7270,
      "飢": 7271,
      "飧": 7272,
      "飨": 7273,
      "飯": 7274,
      "飲": 7275,
      "飽": 7276,
      "飾": 7277,
      "餃": 7278,
      "餅": 7279,
      "養": 7280,
      "餐": 7281,
      "餒": 7282,
      "餓": 7283,
      "餘": 7284,
      "餞": 7285,
      "餡": 7286,
      "館": 7287,
      "餮": 7288,
      "餵": 7289,
      "餿": 7290,
      "饉": 7291,
      "饋": 7292,
      "饑": 7293,
      "饒": 7294,
      "饕": 7295,
      "饞": 7296,
      "饥": 7297,
      "饨": 7298,
      "饪": 7299,
      "饭": 7300,
      "饮": 7301,
      "饯": 7302,
      "饰": 7303,
      "饱": 7304,
      "饲": 7305,
      "饵": 7306,
      "饶": 7307,
      "饷": 7308,
      "饺": 7309,
      "饼": 7310,
      "饿": 7311,
      "馁": 7312,
      "馄": 7313,
      "馅": 7314,
      "馆": 7315,
      "馈": 7316,
      "馊": 7317,
      "馋": 7318,
      "馍": 7319,
      "馏": 7320,
      "馐": 7321,
      "馑": 7322,
      "馒": 7323,
      "首": 7324,
      "香": 7325,
      "馥": 7326,
      "馨": 7327,
      "馬": 7328,
      "馭": 7329,
      "馮": 7330,
      "馱": 7331,
      "馳": 7332,
      "馴": 7333,
      "駁": 7334,
      "駐": 7335,
      "駕": 7336,
      "駛": 7337,
      "駝": 7338,
      "駡": 7339,
      "駭": 7340,
      "駱": 7341,
      "騎": 7342,
      "騙": 7343,
      "騰": 7344,
      "騷": 7345,
      "騾": 7346,
      "驅": 7347,
      "驕": 7348,
      "驗": 7349,
      "驚": 7350,
      "驟": 7351,
      "驢": 7352,
      "马": 7353,
      "驭": 7354,
      "驮": 7355,
      "驯": 7356,
      "驰": 7357,
      "驱": 7358,
      "驳": 7359,
      "驴": 7360,
      "驶": 7361,
      "驷": 7362,
      "驹": 7363,
      "驻": 7364,
      "驼": 7365,
      "驽": 7366,
      "驾": 7367,
      "驿": 7368,
      "骁": 7369,
      "骂": 7370,
      "骄": 7371,
      "骆": 7372,
      "骇": 7373,
      "骋": 7374,
      "验": 7375,
      "骏": 7376,
      "骑": 7377,
      "骗": 7378,
      "骚": 7379,
      "骜": 7380,
      "骠": 7381,
      "骡": 7382,
      "骤": 7383,
      "骨": 7384,
      "骯": 7385,
      "骰": 7386,
      "骷": 7387,
      "骸": 7388,
      "骼": 7389,
      "髂": 7390,
      "髅": 7391,
      "髋": 7392,
      "髏": 7393,
      "髒": 7394,
      "髓": 7395,
      "體": 7396,
      "高": 7397,
      "髡": 7398,
      "髦": 7399,
      "髮": 7400,
      "鬃": 7401,
      "鬆": 7402,
      "鬍": 7403,
      "鬓": 7404,
      "鬣": 7405,
      "鬥": 7406,
      "鬧": 7407,
      "鬨": 7408,
      "鬱": 7409,
      "鬼": 7410,
      "魁": 7411,
      "魂": 7412,
      "魄": 7413,
      "魅": 7414,
      "魇": 7415,
      "魏": 7416,
      "魔": 7417,
      "魚": 7418,
      "魣": 7419,
      "魯": 7420,
      "魷": 7421,
      "鮑": 7422,
      "鮮": 7423,
      "鯉": 7424,
      "鯊": 7425,
      "鯨": 7426,
      "鰨": 7427,
      "鰭": 7428,
      "鱷": 7429,
      "鱼": 7430,
      "鱿": 7431,
      "鲀": 7432,
      "鲁": 7433,
      "鲈": 7434,
      "鲍": 7435,
      "鲑": 7436,
      "鲔": 7437,
      "鲗": 7438,
      "鲜": 7439,
      "鲡": 7440,
      "鲣": 7441,
      "鲤": 7442,
      "鲥": 7443,
      "鲨": 7444,
      "鲭": 7445,
      "鲱": 7446,
      "鲳": 7447,
      "鲵": 7448,
      "鲶": 7449,
      "鲷": 7450,
      "鲸": 7451,
      "鲻": 7452,
      "鲽": 7453,
      "鳃": 7454,
      "鳄": 7455,
      "鳅": 7456,
      "鳉": 7457,
      "鳌": 7458,
      "鳍": 7459,
      "鳏": 7460,
      "鳐": 7461,
      "鳕": 7462,
      "鳖": 7463,
      "鳗": 7464,
      "鳞": 7465,
      "鳟": 7466,
      "鳥": 7467,
      "鳳": 7468,
      "鳴": 7469,
      "鴃": 7470,
      "鴉": 7471,
      "鴒": 7472,
      "鴨": 7473,
      "鴻": 7474,
      "鴿": 7475,
      "鵄": 7476,
      "鵝": 7477,
      "鵡": 7478,
      "鵪": 7479,
      "鶉": 7480,
      "鶪": 7481,
      "鶺": 7482,
      "鷄": 7483,
      "鷉": 7484,
      "鷹": 7485,
      "鸊": 7486,
      "鸌": 7487,
      "鸚": 7488,
      "鸛": 7489,
      "鸟": 7490,
      "鸠": 7491,
      "鸡": 7492,
      "鸢": 7493,
      "鸣": 7494,
      "鸥": 7495,
      "鸦": 7496,
      "鸨": 7497,
      "鸫": 7498,
      "鸭": 7499,
      "鸮": 7500,
      "鸯": 7501,
      "鸳": 7502,
      "鸵": 7503,
      "鸸": 7504,
      "鸽": 7505,
      "鸾": 7506,
      "鸿": 7507,
      "鹅": 7508,
      "鹈": 7509,
      "鹉": 7510,
      "鹊": 7511,
      "鹋": 7512,
      "鹌": 7513,
      "鹏": 7514,
      "鹑": 7515,
      "鹓": 7516,
      "鹕": 7517,
      "鹗": 7518,
      "鹞": 7519,
      "鹣": 7520,
      "鹤": 7521,
      "鹦": 7522,
      "鹩": 7523,
      "鹪": 7524,
      "鹫": 7525,
      "鹰": 7526,
      "鹱": 7527,
      "鹳": 7528,
      "鹼": 7529,
      "鹽": 7530,
      "鹿": 7531,
      "麋": 7532,
      "麒": 7533,
      "麓": 7534,
      "麗": 7535,
      "麝": 7536,
      "麟": 7537,
      "麥": 7538,
      "麦": 7539,
      "麵": 7540,
      "麸": 7541,
      "麻": 7542,
      "麼": 7543,
      "麽": 7544,
      "麾": 7545,
      "黃": 7546,
      "黄": 7547,
      "黍": 7548,
      "黎": 7549,
      "黏": 7550,
      "黑": 7551,
      "黔": 7552,
      "默": 7553,
      "黛": 7554,
      "黜": 7555,
      "黝": 7556,
      "點": 7557,
      "黠": 7558,
      "黢": 7559,
      "黧": 7560,
      "黨": 7561,
      "黩": 7562,
      "黯": 7563,
      "鼎": 7564,
      "鼓": 7565,
      "鼠": 7566,
      "鼬": 7567,
      "鼹": 7568,
      "鼻": 7569,
      "鼾": 7570,
      "齁": 7571,
      "齊": 7572,
      "齋": 7573,
      "齐": 7574,
      "齒": 7575,
      "齡": 7576,
      "齣": 7577,
      "齿": 7578,
      "龄": 7579,
      "龈": 7580,
      "龊": 7581,
      "龋": 7582,
      "龌": 7583,
      "龍": 7584,
      "龐": 7585,
      "龕": 7586,
      "龙": 7587,
      "龚": 7588,
      "龛": 7589,
      "龜": 7590,
      "龟": 7591,
      "ꌢ": 7592,
      "뇳": 7593,
      "뱾": 7594,
      "쵽": 7595,
      "펳": 7596,
      "ﬁ": 7597,
      "ﬂ": 7598,
      "﵃": 7599,
      "﷓": 7600,
      "︰": 7601,
      "︱": 7602,
      "︸": 7603,
      "︹": 7604,
      "︺": 7605,
      "︽": 7606,
      "︾": 7607,
      "﹀": 7608,
      "﹁": 7609,
      "﹄": 7610,
      "﹊": 7611,
      "﹋": 7612,
      "﹍": 7613,
      "﹐": 7614,
      "﹑": 7615,
      "﹒": 7616,
      "﹔": 7617,
      "﹖": 7618,
      "﹗": 7619,
      "﹙": 7620,
      "﹚": 7621,
      "﹛": 7622,
      "﹜": 7623,
      "﹝": 7624,
      "﹞": 7625,
      "﹟": 7626,
      "﹠": 7627,
      "﹡": 7628,
      "﹣": 7629,
      "ﺀ": 7630,
      "ﺁ": 7631,
      "ﺃ": 7632,
      "ﺄ": 7633,
      "ﺇ": 7634,
      "ﺈ": 7635,
      "ﺊ": 7636,
      "ﺋ": 7637,
      "ﺌ": 7638,
      "ﺍ": 7639,
      "ﺎ": 7640,
      "ﺐ": 7641,
      "ﺑ": 7642,
      "ﺒ": 7643,
      "ﺓ": 7644,
      "ﺔ": 7645,
      "ﺕ": 7646,
      "ﺖ": 7647,
      "ﺗ": 7648,
      "ﺘ": 7649,
      "ﺙ": 7650,
      "ﺚ": 7651,
      "ﺛ": 7652,
      "ﺜ": 7653,
      "ﺝ": 7654,
      "ﺟ": 7655,
      "ﺠ": 7656,
      "ﺡ": 7657,
      "ﺢ": 7658,
      "ﺣ": 7659,
      "ﺤ": 7660,
      "ﺧ": 7661,
      "ﺨ": 7662,
      "ﺩ": 7663,
      "ﺪ": 7664,
      "ﺫ": 7665,
      "ﺬ": 7666,
      "ﺭ": 7667,
      "ﺮ": 7668,
      "ﺯ": 7669,
      "ﺰ": 7670,
      "ﺱ": 7671,
      "ﺲ": 7672,
      "ﺳ": 7673,
      "ﺴ": 7674,
      "ﺶ": 7675,
      "ﺷ": 7676,
      "ﺸ": 7677,
      "ﺹ": 7678,
      "ﺺ": 7679,
      "ﺻ": 7680,
      "ﺼ": 7681,
      "ﺾ": 7682,
      "ﺿ": 7683,
      "ﻀ": 7684,
      "ﻃ": 7685,
      "ﻄ": 7686,
      "ﻆ": 7687,
      "ﻇ": 7688,
      "ﻈ": 7689,
      "ﻉ": 7690,
      "ﻊ": 7691,
      "ﻋ": 7692,
      "ﻌ": 7693,
      "ﻏ": 7694,
      "ﻐ": 7695,
      "ﻑ": 7696,
      "ﻒ": 7697,
      "ﻓ": 7698,
      "ﻔ": 7699,
      "ﻕ": 7700,
      "ﻖ": 7701,
      "ﻗ": 7702,
      "ﻘ": 7703,
      "ﻙ": 7704,
      "ﻚ": 7705,
      "ﻛ": 7706,
      "ﻜ": 7707,
      "ﻝ": 7708,
      "ﻞ": 7709,
      "ﻟ": 7710,
      "ﻠ": 7711,
      "ﻡ": 7712,
      "ﻢ": 7713,
      "ﻣ": 7714,
      "ﻤ": 7715,
      "ﻥ": 7716,
      "ﻦ": 7717,
      "ﻧ": 7718,
      "ﻨ": 7719,
      "ﻩ": 7720,
      "ﻪ": 7721,
      "ﻫ": 7722,
      "ﻬ": 7723,
      "ﻭ": 7724,
      "ﻮ": 7725,
      "ﻰ": 7726,
      "ﻱ": 7727,
      "ﻲ": 7728,
      "ﻳ": 7729,
      "ﻴ": 7730,
      "ﻵ": 7731,
      "ﻷ": 7732,
      "ﻹ": 7733,
      "ﻺ": 7734,
      "ﻻ": 7735,
      "ﻼ": 7736,
      "！": 7737,
      "＂": 7738,
      "＃": 7739,
      "＄": 7740,
      "％": 7741,
      "＇": 7742,
      "（": 7743,
      "）": 7744,
      "＊": 7745,
      "＋": 7746,
      "，": 7747,
      "－": 7748,
      "．": 7749,
      "／": 7750,
      "０": 7751,
      "１": 7752,
      "２": 7753,
      "３": 7754,
      "４": 7755,
      "５": 7756,
      "６": 7757,
      "７": 7758,
      "８": 7759,
      "９": 7760,
      "：": 7761,
      "；": 7762,
      "＜": 7763,
      "＝": 7764,
      "＞": 7765,
      "？": 7766,
      "Ａ": 7767,
      "Ｂ": 7768,
      "Ｃ": 7769,
      "Ｄ": 7770,
      "Ｅ": 7771,
      "Ｆ": 7772,
      "Ｈ": 7773,
      "Ｉ": 7774,
      "Ｊ": 7775,
      "Ｋ": 7776,
      "Ｏ": 7777,
      "Ｒ": 7778,
      "Ｓ": 7779,
      "Ｔ": 7780,
      "Ｙ": 7781,
      "［": 7782,
      "］": 7783,
      "＿": 7784,
      "｀": 7785,
      "ｄ": 7786,
      "ｏ": 7787,
      "｛": 7788,
      "｝": 7789,
      "～": 7790,
      "｢": 7791,
      "｣": 7792,
      "､": 7793,
      "･": 7794,
      "￡": 7795,
      "￭": 7796,
      "￮": 7797,
      "񈡔": 7798,
      "񐨒": 7799,
      "򆁱": 7800,
      "򕟿": 7801,
      "򻡌": 7802,
      "󐡐": 7803,
      "󓚼": 7804,
      "##r": 7805,
      "##g": 7806,
      "##u": 7807,
      "##a": 7808,
      "##b": 7809,
      "##l": 7810,
      "##e": 7811,
      "##v": 7812,
      "##n": 7813,
      "##s": 7814,
      "##i": 7815,
      "##t": 7816,
      "##o": 7817,
      "##d": 7818,
      "##p": 7819,
      "##h": 7820,
      "##ि": 7821,
      "##क": 7822,
      "##े": 7823,
      "##ट": 7824,
      "##ी": 7825,
      "##f": 7826,
      "##E": 7827,
      "##Y": 7828,
      "##O": 7829,
      "##N": 7830,
      "##D": 7831,
      "##c": 7832,
      "##m": 7833,
      "##j": 7834,
      "##č": 7835,
      "##w": 7836,
      "##y": 7837,
      "##6": 7838,
      "##0": 7839,
      "##9": 7840,
      "##R": 7841,
      "##k": 7842,
      "##S": 7843,
      "##A": 7844,
      "##W": 7845,
      "##7": 7846,
      "##1": 7847,
      "##I": 7848,
      "##C": 7849,
      "##M": 7850,
      "##z": 7851,
      "##5": 7852,
      "##4": 7853,
      "##x": 7854,
      "##2": 7855,
      "##P": 7856,
      "##L": 7857,
      "##्": 7858,
      "##र": 7859,
      "##ो": 7860,
      "##प": 7861,
      "##⑵": 7862,
      "##B": 7863,
      "##H": 7864,
      "##ű": 7865,
      "##¾": 7866,
      "##£": 7867,
      "##¨": 7868,
      "##Ԛ": 7869,
      "##ć": 7870,
      "##T": 7871,
      "##G": 7872,
      "##F": 7873,
      "##3": 7874,
      "##ğ": 7875,
      "##U": 7876,
      "##ढ": 7877,
      "##़": 7878,
      "##ा": 7879,
      "##न": 7880,
      "##é": 7881,
      "##8": 7882,
      "##V": 7883,
      "##á": 7884,
      "##р": 7885,
      "##и": 7886,
      "##X": 7887,
      "##à": 7888,
      "##त": 7889,
      "##å": 7890,
      "##ú": 7891,
      "##ड": 7892,
      "##±": 7893,
      "##ǒ": 7894,
      "##ぃ": 7895,
      "##q": 7896,
      "##＞": 7897,
      "##è": 7898,
      "##ﺘ": 7899,
      "##ﻜ": 7900,
      "##ﻳ": 7901,
      "##ﺮ": 7902,
      "##ﺷ": 7903,
      "##ह": 7904,
      "##स": 7905,
      "##Z": 7906,
      "##ए": 7907,
      "##ü": 7908,
      "##ﻬ": 7909,
      "##ﺗ": 7910,
      "##ﺎ": 7911,
      "##ﺒ": 7912,
      "##ﻏ": 7913,
      "##ﺑ": 7914,
      "##ҥ": 7915,
      "##³": 7916,
      "##ñ": 7917,
      "##ç": 7918,
      "##´": 7919,
      "##ष": 7920,
      "##ू": 7921,
      "##ण": 7922,
      "##ख": 7923,
      "##य": 7924,
      "##व": 7925,
      "##ं": 7926,
      "##ï": 7927,
      "##Q": 7928,
      "##ﻨ": 7929,
      "##ﺠ": 7930,
      "##ﻣ": 7931,
      "##ﻧ": 7932,
      "##ब": 7933,
      "##ο": 7934,
      "##ﻮ": 7935,
      "##ग": 7936,
      "##í": 7937,
      "##ó": 7938,
      "##च": 7939,
      "##J": 7940,
      "##ﺿ": 7941,
      "##ﻔ": 7942,
      "##Á": 7943,
      "##K": 7944,
      "##～": 7945,
      "##ㄓ": 7946,
      "##∕": 7947,
      "##ﺳ": 7948,
      "##ﻟ": 7949,
      "##ǎ": 7950,
      "##ﻌ": 7951,
      "##ă": 7952,
      "##ţ": 7953,
      "##Τ": 7954,
      "##ゑ": 7955,
      "##ल": 7956,
      "##श": 7957,
      "##æ": 7958,
      "##ㄛ": 7959,
      "##㎝": 7960,
      "##¯": 7961,
      "##¸": 7962,
      "##ë": 7963,
      "##थ": 7964,
      "##ओ": 7965,
      "##म": 7966,
      "##Ü": 7967,
      "##°": 7968,
      "##ㄏ": 7969,
      "##е": 7970,
      "##ń": 7971,
      "##ä": 7972,
      "##ﻵ": 7973,
      "##ﺍ": 7974,
      "##ː": 7975,
      "##ĵ": 7976,
      "##Ē": 7977,
      "##ﻛ": 7978,
      "##ﺃ": 7979,
      "##ﻭ": 7980,
      "##ﺼ": 7981,
      "##¦": 7982,
      "##ﺁ": 7983,
      "##ﻷ": 7984,
      "##Η": 7985,
      "##ψ": 7986,
      "##º": 7987,
      "##भ": 7988,
      "##ø": 7989,
      "##ﻴ": 7990,
      "##펳": 7991,
      "##ė": 7992,
      "##ž": 7993,
      "##っ": 7994,
      "##か": 7995,
      "##に": 7996,
      "##ã": 7997,
      "##ö": 7998,
      "##ज": 7999,
      "##Θ": 8000,
      "##ु": 8001,
      "##ध": 8002,
      "##ㄠ": 8003,
      "##る": 8004,
      "##ê": 8005,
      "##ㄆ": 8006,
      "##ǖ": 8007,
      "##ﺬ": 8008,
      "##̎": 8009,
      "##ļ": 8010,
      "##þ": 8011,
      "##µ": 8012,
      "##ı": 8013,
      "##ꌢ": 8014,
      "##ै": 8015,
      "##ﺪ": 8016,
      "##ﺣ": 8017,
      "##ﻓ": 8018,
      "##ﻈ": 8019,
      "##ª": 8020,
      "##ﺰ": 8021,
      "##ﻋ": 8022,
      "##ञ": 8023,
      "##ユ": 8024,
      "##֮": 8025,
      "##ǰ": 8026,
      "##İ": 8027,
      "##ँ": 8028,
      "##¼": 8029,
      "##Ϳ": 8030,
      "##ɒ": 8031,
      "##Լ": 8032,
      "##ӈ": 8033,
      "##뱾": 8034,
      "##â": 8035,
      "##ぱ": 8036,
      "##द": 8037,
      "##¬": 8038,
      "##Ξ": 8039,
      "##Ш": 8040,
      "##℃": 8041,
      "##˵": 8042,
      "##フ": 8043,
      "##ノ": 8044,
      "##А": 8045,
      "##¹": 8046,
      "##¤": 8047,
      "##ߣ": 8048,
      "##š": 8049,
      "##ﻚ": 8050,
      "##ﺧ": 8051,
      "##΄": 8052,
      "##ܷ": 8053,
      "##Î": 8054,
      "##ʠ": 8055,
      "##Ҫ": 8056,
      "##ֱ": 8057,
      "##½": 8058,
      "##ӷ": 8059,
      "##ʇ": 8060,
      "##뇳": 8061,
      "##ͷ": 8062,
      "##֐": 8063,
      "##Đ": 8064,
      "##ŏ": 8065,
      "##¢": 8066,
      "##Ե": 8067,
      "##ô": 8068,
      "##Ĝ": 8069,
      "##쵽": 8070,
      "##ヾ": 8071,
      "##ﻠ": 8072,
      "##ﺜ": 8073,
      "##ﺩ": 8074,
      "##デ": 8075,
      "##Ӄ": 8076,
      "##²": 8077,
      "##Ἧ": 8078,
      "##ﻗ": 8079,
      "##ﻼ": 8080,
      "##झ": 8081,
      "##ウ": 8082,
      "##ý": 8083,
      "##õ": 8084,
      "##ठ": 8085,
      "##Â": 8086,
      "##ˊ": 8087,
      "##É": 8088,
      "##ő": 8089,
      "##™": 8090,
      "##ﻲ": 8091,
      "##ﻤ": 8092,
      "##Í": 8093,
      "##∶": 8094,
      "##ृ": 8095,
      "##ﻘ": 8096,
      "##さ": 8097,
      "##ﺻ": 8098,
      "##び": 8099,
      "##ﻫ": 8100,
      "##∮": 8101,
      "##ネ": 8102,
      "##㏑": 8103,
      "##ﺸ": 8104,
      "##ҫ": 8105,
      "##һ": 8106,
      "##Щ": 8107,
      "##∗": 8108,
      "##⋯": 8109,
      "##♫": 8110,
      "##♪": 8111,
      "##ﺤ": 8112,
      "##®": 8113,
      "##ौ": 8114,
      "##ﺫ": 8115,
      "##ﺭ": 8116,
      "##в": 8117,
      "##а": 8118,
      "##Ó": 8119,
      "##ş": 8120,
      "##ò": 8121,
      "##ʽ": 8122,
      "##׷": 8123,
      "##Ϊ": 8124,
      "##Ε": 8125,
      "##Ι": 8126,
      "##ǐ": 8127,
      "##ゴ": 8128,
      "##ぐ": 8129,
      "##┄": 8130,
      "##ず": 8131,
      "##よ": 8132,
      "##ȫ": 8133,
      "##ģ": 8134,
      "##Ϟ": 8135,
      "##ֆ": 8136,
      "##ザ": 8137,
      "##¥": 8138,
      "##ї": 8139,
      "##ई": 8140,
      "##î": 8141,
      "##З": 8142,
      "##с": 8143,
      "##к": 8144,
      "##л": 8145,
      "##ю": 8146,
      "##ч": 8147,
      "##т": 8148,
      "##ь": 8149,
      "##ﺴ": 8150,
      "##ぇ": 8151,
      "##ﺨ": 8152,
      "##Ŀ": 8153,
      "##⎄": 8154,
      "##ﺌ": 8155,
      "##ﺟ": 8156,
      "##９": 8157,
      "##６": 8158,
      "##０": 8159,
      "##α": 8160,
      "##Ʒ": 8161,
      "##−": 8162,
      "##э": 8163,
      "##м": 8164,
      "##ų": 8165,
      "##┣": 8166,
      "##﷓": 8167,
      "##も": 8168,
      "##ﺋ": 8169,
      "##㈡": 8170,
      "##ﻀ": 8171,
      "##╊": 8172,
      "##Ä": 8173,
      "##ヘ": 8174,
      "##ù": 8175,
      "##Μ": 8176,
      "##３": 8177,
      "##ㄇ": 8178,
      "##ァ": 8179,
      "##の": 8180,
      "##Ć": 8181,
      "##ē": 8182,
      "##ð": 8183,
      "##ぶ": 8184,
      "##घ": 8185,
      "##♬": 8186,
      "##ā": 8187,
      "##─": 8188,
      "##タ": 8189,
      "##у": 8190,
      "##チ": 8191,
      "##ﻹ": 8192,
      "##ʱ": 8193,
      "##Ť": 8194,
      "##փ": 8195,
      "##Ｓ": 8196,
      "##パ": 8197,
      "##ケ": 8198,
      "##Č": 8199,
      "##ъ": 8200,
      "##ľ": 8201,
      "##ł": 8202,
      "##ひ": 8203,
      "##󓚼": 8204,
      "##ī": 8205,
      "##ת": 8206,
      "##ō": 8207,
      "##Ҕ": 8208,
      "##ʹ": 8209,
      "##ѹ": 8210,
      "##ݿ": 8211,
      "##ⰲ": 8212,
      "##ū": 8213,
      "##ﺇ": 8214,
      "##ヴ": 8215,
      "##ﻻ": 8216,
      "##ﺄ": 8217,
      "##７": 8218,
      "##サ": 8219,
      "##©": 8220,
      "##ﻄ": 8221,
      "##Ω": 8222,
      "##⊿": 8223,
      "##ُ": 8224,
      "##Ν": 8225,
      "##い": 8226,
      "##आ": 8227,
      "##͠": 8228,
      "##そ": 8229,
      "##⑸": 8230,
      "##φ": 8231,
      "##ェ": 8232,
      "##み": 8233,
      "##ㄨ": 8234,
      "##Ÿ": 8235,
      "##ゲ": 8236,
      "##о": 8237,
      "##г": 8238,
      "##４": 8239,
      "##ゅ": 8240,
      "##て": 8241,
      "##㈢": 8242,
      "##÷": 8243,
      "##ϻ": 8244,
      "##Ϣ": 8245,
      "##ґ": 8246,
      "##ち": 8247,
      "##Ⴞ": 8248,
      "##ぺ": 8249,
      "##╢": 8250,
      "##Λ": 8251,
      "##ㄢ": 8252,
      "##ㄣ": 8253,
      "##イ": 8254,
      "##ʶ": 8255,
      "##╈": 8256,
      "##∑": 8257,
      "##⑶": 8258,
      "##○": 8259,
      "##Α": 8260,
      "##ゼ": 8261,
      "##δ": 8262,
      "##֪": 8263,
      "##є": 8264,
      "##カ": 8265,
      "##ϵ": 8266,
      "##ͳ": 8267,
      "##╆": 8268,
      "##Ӛ": 8269,
      "##Ɋ": 8270,
      "##ÿ": 8271,
      "##ﻐ": 8272,
      "##ど": 8273,
      "##ア": 8274,
      "##û": 8275,
      "##＝": 8276,
      "##󐡐": 8277,
      "##װ": 8278,
      "##ኸ": 8279,
      "##̐": 8280,
      "##򻡌": 8281,
      "##ኾ": 8282,
      "##̳": 8283,
      "##㎡": 8284,
      "##だ": 8285,
      "##〇": 8286,
      "##ﺈ": 8287,
      "##⑴": 8288,
      "##й": 8289,
      "##Õ": 8290,
      "##５": 8291,
      "##Ϭ": 8292,
      "##ㄘ": 8293,
      "##Ā": 8294,
      "##€": 8295,
      "##Ã": 8296,
      "##▄": 8297,
      "##ऊ": 8298,
      "##┮": 8299,
      "##Κ": 8300,
      "##д": 8301,
      "##н": 8302,
      "##ź": 8303,
      "##͢": 8304,
      "##ま": 8305,
      "##फ": 8306,
      "##ン": 8307,
      "##ね": 8308,
      "##ď": 8309,
      "##ﻺ": 8310,
      "##τ": 8311,
      "##┰": 8312,
      "##ナ": 8313,
      "##は": 8314,
      "##ん": 8315,
      "##ż": 8316,
      "##֡": 8317,
      "##đ": 8318,
      "##┕": 8319,
      "##↖": 8320,
      "##ド": 8321,
      "##Г": 8322,
      "##ǳ": 8323,
      "##┤": 8324,
      "##キ": 8325,
      "##＋": 8326,
      "##セ": 8327,
      "##ْ": 8328,
      "##ρ": 8329,
      "##ԋ": 8330,
      "##×": 8331,
      "##Ö": 8332,
      "##щ": 8333,
      "##б": 8334,
      "##з": 8335,
      "##ц": 8336,
      "##ˋ": 8337,
      "##ガ": 8338,
      "##Ｋ": 8339,
      "##ﺖ": 8340,
      "##㏄": 8341,
      "##Ç": 8342,
      "##ﺯ": 8343,
      "##Ϻ": 8344,
      "##┪": 8345,
      "##㊣": 8346,
      "##╧": 8347,
      "##き": 8348,
      "##ミ": 8349,
      "##ॉ": 8350,
      "##ﬂ": 8351,
      "##ّ": 8352,
      "##Ƽ": 8353,
      "##Ь": 8354,
      "##Ñ": 8355,
      "##Ġ": 8356,
      "##Б": 8357,
      "##Ф": 8358,
      "##ě": 8359,
      "##Ў": 8360,
      "##ʜ": 8361,
      "##ּ": 8362,
      "##ソ": 8363,
      "##ӡ": 8364,
      "##इ": 8365,
      "##ś": 8366,
      "##ﺛ": 8367,
      "##ό": 8368,
      "##Р": 8369,
      "##ㄈ": 8370,
      "##अ": 8371,
      "##や": 8372,
      "##ﻃ": 8373,
      "##̡": 8374,
      "##ゃ": 8375,
      "##ㄤ": 8376,
      "##छ": 8377,
      "##Ƚ": 8378,
      "##ϔ": 8379,
      "##ε": 8380,
      "##ĺ": 8381,
      "##Ӊ": 8382,
      "##κ": 8383,
      "##َ": 8384,
      "##が": 8385,
      "##┏": 8386,
      "##ư": 8387,
      "##ﻇ": 8388,
      "##Ş": 8389,
      "##Ĳ": 8390,
      "##ʼ": 8391,
      "##㈤": 8392,
      "##ろ": 8393,
      "##֘": 8394,
      "##ƴ": 8395,
      "##Ï": 8396,
      "##Ú": 8397,
      "##Ì": 8398,
      "##Ò": 8399,
      "##ﬁ": 8400,
      "##ダ": 8401,
      "##ً": 8402,
      "##ą": 8403,
      "##ф": 8404,
      "##す": 8405,
      "##Ђ": 8406,
      "##ﺀ": 8407,
      "##８": 8408,
      "##Ａ": 8409,
      "##┯": 8410,
      "##˙": 8411,
      "##ؓ": 8412,
      "##ڱ": 8413,
      "##ʖ": 8414,
      "##╬": 8415,
      "##Ч": 8416,
      "##ʣ": 8417,
      "##ら": 8418,
      "##Դ": 8419,
      "##ӄ": 8420,
      "##﵃": 8421,
      "##２": 8422,
      "##ㄉ": 8423,
      "##ש": 8424,
      "##Ҁ": 8425,
      "##Ȼ": 8426,
      "##Ӑ": 8427,
      "##㊽": 8428,
      "##├": 8429,
      "##œ": 8430,
      "##ョ": 8431,
      "##Ψ": 8432,
      "##ǿ": 8433,
      "##Β": 8434,
      "##Ӡ": 8435,
      "##Γ": 8436,
      "##he": 8437,
      "##on": 8438,
      "the": 8439,
      "##ti": 8440,
      "##er": 8441,
      "##en": 8442,
      "##es": 8443,
      "##in": 8444,
      "##or": 8445,
      "of": 8446,
      "##nd": 8447,
      "##tion": 8448,
      "##ed": 8449,
      "##al": 8450,
      "##at": 8451,
      "##ou": 8452,
      "##an": 8453,
      "in": 8454,
      "and": 8455,
      "to": 8456,
      "##ar": 8457,
      "##it": 8458,
      "##ation": 8459,
      "##is": 8460,
      "##ing": 8461,
      "##re": 8462,
      "##ent": 8463,
      "##om": 8464,
      "##ec": 8465,
      "##ic": 8466,
      "th": 8467,
      "##el": 8468,
      "##ro": 8469,
      "##as": 8470,
      "##il": 8471,
      "##ment": 8472,
      "re": 8473,
      "##le": 8474,
      "##00": 8475,
      "for": 8476,
      "##ts": 8477,
      "##ce": 8478,
      "##ve": 8479,
      "##ra": 8480,
      "on": 8481,
      "##st": 8482,
      "##ol": 8483,
      "##ur": 8484,
      "be": 8485,
      "that": 8486,
      "con": 8487,
      "200": 8488,
      "##si": 8489,
      "##ter": 8490,
      "##ig": 8491,
      "pro": 8492,
      "##ly": 8493,
      "The": 8494,
      "##ri": 8495,
      "##ot": 8496,
      "##id": 8497,
      "##op": 8498,
      "you": 8499,
      "##ir": 8500,
      "##tin": 8501,
      "##se": 8502,
      "##ver": 8503,
      "is": 8504,
      "as": 8505,
      "##ul": 8506,
      "##et": 8507,
      "##ith": 8508,
      "##ations": 8509,
      "##ad": 8510,
      "##ow": 8511,
      "##ut": 8512,
      "with": 8513,
      "##omm": 8514,
      "##ac": 8515,
      "##ate": 8516,
      "su": 8517,
      "##ity": 8518,
      "##em": 8519,
      "al": 8520,
      "##ess": 8521,
      "##por": 8522,
      "st": 8523,
      "##ev": 8524,
      "##ee": 8525,
      "##ting": 8526,
      "##ay": 8527,
      "##ld": 8528,
      "##igh": 8529,
      "res": 8530,
      "##ab": 8531,
      "wh": 8532,
      "by": 8533,
      "##ff": 8534,
      "ac": 8535,
      "or": 8536,
      "##oun": 8537,
      "##tic": 8538,
      "##um": 8539,
      "it": 8540,
      "an": 8541,
      "##her": 8542,
      "##oc": 8543,
      "##im": 8544,
      "par": 8545,
      "##ers": 8546,
      "##ational": 8547,
      "##sion": 8548,
      "##port": 8549,
      "ex": 8550,
      "##ain": 8551,
      "##ial": 8552,
      "##am": 8553,
      "##uc": 8554,
      "are": 8555,
      "##ak": 8556,
      "##ion": 8557,
      "##ould": 8558,
      "19": 8559,
      "##end": 8560,
      "ha": 8561,
      "at": 8562,
      "In": 8563,
      "##ud": 8564,
      "##od": 8565,
      "##evel": 8566,
      "##un": 8567,
      "##ge": 8568,
      "en": 8569,
      "St": 8570,
      "##rom": 8571,
      "not": 8572,
      "Un": 8573,
      "##iz": 8574,
      "im": 8575,
      "##th": 8576,
      "was": 8577,
      "##ill": 8578,
      "##ited": 8579,
      "##ted": 8580,
      "##ary": 8581,
      "##pp": 8582,
      "##os": 8583,
      "##us": 8584,
      "##ties": 8585,
      "sh": 8586,
      "##tern": 8587,
      "its": 8588,
      "##qu": 8589,
      "##ist": 8590,
      "##and": 8591,
      "ad": 8592,
      "##tive": 8593,
      "me": 8594,
      "##ance": 8595,
      "Comm": 8596,
      "##ew": 8597,
      "##for": 8598,
      "##ch": 8599,
      "##ution": 8600,
      "##our": 8601,
      "United": 8602,
      "##ep": 8603,
      "##ther": 8604,
      "##ber": 8605,
      "##eg": 8606,
      "##pec": 8607,
      "have": 8608,
      "##evelop": 8609,
      "com": 8610,
      "##ven": 8611,
      "##res": 8612,
      "##ea": 8613,
      "inc": 8614,
      "##ant": 8615,
      "##ork": 8616,
      "##over": 8617,
      "this": 8618,
      "##ount": 8619,
      "##ust": 8620,
      "all": 8621,
      "##eral": 8622,
      "ag": 8623,
      "from": 8624,
      "##ated": 8625,
      "##ence": 8626,
      "##ates": 8627,
      "##all": 8628,
      "##rou": 8629,
      "##ternational": 8630,
      "##ard": 8631,
      "##ure": 8632,
      "##gra": 8633,
      "##lic": 8634,
      "Con": 8635,
      "rec": 8636,
      "Nations": 8637,
      "imp": 8638,
      "##ere": 8639,
      "##ies": 8640,
      "##ip": 8641,
      "ch": 8642,
      "##ments": 8643,
      "##ia": 8644,
      "##itt": 8645,
      "##ell": 8646,
      "##ight": 8647,
      "##ich": 8648,
      "##eneral": 8649,
      "reg": 8650,
      "develop": 8651,
      "##ear": 8652,
      "##if": 8653,
      "199": 8654,
      "Th": 8655,
      "##ome": 8656,
      "##ap": 8657,
      "Sec": 8658,
      "##gh": 8659,
      "##ord": 8660,
      "their": 8661,
      "which": 8662,
      "##ities": 8663,
      "dis": 8664,
      "cont": 8665,
      "app": 8666,
      "has": 8667,
      "##iv": 8668,
      "prov": 8669,
      "will": 8670,
      "##able": 8671,
      "##form": 8672,
      "count": 8673,
      "##ub": 8674,
      "##tiv": 8675,
      "comm": 8676,
      "It": 8677,
      "##nder": 8678,
      "sec": 8679,
      "##ry": 8680,
      "General": 8681,
      "##uman": 8682,
      "rel": 8683,
      "##overn": 8684,
      "##pon": 8685,
      "##ittee": 8686,
      "##ty": 8687,
      "we": 8688,
      "he": 8689,
      "do": 8690,
      "##ission": 8691,
      "ar": 8692,
      "go": 8693,
      "ne": 8694,
      "ab": 8695,
      "##ous": 8696,
      "You": 8697,
      "##ans": 8698,
      "10": 8699,
      "##ights": 8700,
      "acc": 8701,
      "States": 8702,
      "per": 8703,
      "##mm": 8704,
      "##lud": 8705,
      "##per": 8706,
      "Committee": 8707,
      "##ress": 8708,
      "de": 8709,
      "work": 8710,
      "##der": 8711,
      "int": 8712,
      "##est": 8713,
      "comp": 8714,
      "As": 8715,
      "##ret": 8716,
      "international": 8717,
      "under": 8718,
      "##olution": 8719,
      "been": 8720,
      "##ces": 8721,
      "##so": 8722,
      "##lo": 8723,
      "##min": 8724,
      "##gan": 8725,
      "eff": 8726,
      "##ake": 8727,
      "pl": 8728,
      "other": 8729,
      "##tions": 8730,
      "##ice": 8731,
      "##ision": 8732,
      "Wh": 8733,
      "Ch": 8734,
      "##ue": 8735,
      "had": 8736,
      "##hen": 8737,
      "co": 8738,
      "##fer": 8739,
      "##cil": 8740,
      "##ore": 8741,
      "##lement": 8742,
      "##ild": 8743,
      "##duc": 8744,
      "un": 8745,
      "includ": 8746,
      "##ose": 8747,
      "12": 8748,
      "ass": 8749,
      "also": 8750,
      "##out": 8751,
      "##ganiz": 8752,
      "would": 8753,
      "should": 8754,
      "##ong": 8755,
      "Coun": 8756,
      "out": 8757,
      "pre": 8758,
      "##ries": 8759,
      "##age": 8760,
      "can": 8761,
      "sub": 8762,
      "man": 8763,
      "##gramm": 8764,
      "##aw": 8765,
      "were": 8766,
      "##ms": 8767,
      "resolution": 8768,
      "##og": 8769,
      "Council": 8770,
      "##ke": 8771,
      "pol": 8772,
      "##erv": 8773,
      "##resent": 8774,
      "##ren": 8775,
      "UN": 8776,
      "##urity": 8777,
      "##ember": 8778,
      "##ari": 8779,
      "##ble": 8780,
      "Pro": 8781,
      "fin": 8782,
      "##now": 8783,
      "##pport": 8784,
      "##ally": 8785,
      "there": 8786,
      "We": 8787,
      "##ublic": 8788,
      "li": 8789,
      "dec": 8790,
      "report": 8791,
      "##ase": 8792,
      "partic": 8793,
      "##ast": 8794,
      "##mb": 8795,
      "##oll": 8796,
      "##anc": 8797,
      "He": 8798,
      "tr": 8799,
      "##tit": 8800,
      "##overnment": 8801,
      "up": 8802,
      "No": 8803,
      "##ign": 8804,
      "##ession": 8805,
      "tra": 8806,
      "human": 8807,
      "requ": 8808,
      "your": 8809,
      "provid": 8810,
      "##ex": 8811,
      "##ree": 8812,
      "##ues": 8813,
      "##ric": 8814,
      "##omen": 8815,
      "countries": 8816,
      "##ect": 8817,
      "##ish": 8818,
      "conc": 8819,
      "ind": 8820,
      "##ely": 8821,
      "##ire": 8822,
      "development": 8823,
      "11": 8824,
      "my": 8825,
      "know": 8826,
      "##con": 8827,
      "##one": 8828,
      "Ad": 8829,
      "Al": 8830,
      "need": 8831,
      "##vention": 8832,
      "##reat": 8833,
      "##ech": 8834,
      "##ult": 8835,
      "they": 8836,
      "##pecial": 8837,
      "##ative": 8838,
      "##ph": 8839,
      "##ost": 8840,
      "##ie": 8841,
      "rights": 8842,
      "##ok": 8843,
      "Secret": 8844,
      "##ag": 8845,
      "exp": 8846,
      "ob": 8847,
      "inform": 8848,
      "ter": 8849,
      "20": 8850,
      "15": 8851,
      "##conom": 8852,
      "##iew": 8853,
      "no": 8854,
      "so": 8855,
      "##ures": 8856,
      "proc": 8857,
      "##rib": 8858,
      "##ack": 8859,
      "##tor": 8860,
      "implement": 8861,
      "add": 8862,
      "##ual": 8863,
      "am": 8864,
      "cons": 8865,
      "off": 8866,
      "one": 8867,
      "any": 8868,
      "##eeting": 8869,
      "2001": 8870,
      "inv": 8871,
      "inter": 8872,
      "##ru": 8873,
      "such": 8874,
      "##roup": 8875,
      "right": 8876,
      "2005": 8877,
      "organiz": 8878,
      "##ular": 8879,
      "rep": 8880,
      "##erson": 8881,
      "##semb": 8882,
      "##eration": 8883,
      "##eop": 8884,
      "##ade": 8885,
      "who": 8886,
      "##und": 8887,
      "##sembly": 8888,
      "##enc": 8889,
      "##eace": 8890,
      "##ft": 8891,
      "##ility": 8892,
      "support": 8893,
      "us": 8894,
      "programm": 8895,
      "bet": 8896,
      "them": 8897,
      "Assembly": 8898,
      "session": 8899,
      "##ating": 8900,
      "##ace": 8901,
      "cl": 8902,
      "##rough": 8903,
      "2002": 8904,
      "##abl": 8905,
      "tim": 8906,
      "##rac": 8907,
      "##ern": 8908,
      "Commission": 8909,
      "including": 8910,
      "##ical": 8911,
      "2000": 8912,
      "again": 8913,
      "women": 8914,
      "Af": 8915,
      "##yst": 8916,
      "more": 8917,
      "Rep": 8918,
      "sp": 8919,
      "year": 8920,
      "##ition": 8921,
      "##au": 8922,
      "2004": 8923,
      "##enti": 8924,
      "##ine": 8925,
      "##ystem": 8926,
      "national": 8927,
      "##ory": 8928,
      "contin": 8929,
      "but": 8930,
      "13": 8931,
      "##sider": 8932,
      "##rop": 8933,
      "2003": 8934,
      "##ail": 8935,
      "iss": 8936,
      "meeting": 8937,
      "about": 8938,
      "what": 8939,
      "Dec": 8940,
      "##een": 8941,
      "##conomic": 8942,
      "sa": 8943,
      "over": 8944,
      "What": 8945,
      "##iti": 8946,
      "para": 8947,
      "don": 8948,
      "##ach": 8949,
      "State": 8950,
      "those": 8951,
      "Secretary": 8952,
      "##hed": 8953,
      "see": 8954,
      "law": 8955,
      "2006": 8956,
      "##here": 8957,
      "And": 8958,
      "region": 8959,
      "his": 8960,
      "##air": 8961,
      "consider": 8962,
      "activ": 8963,
      "dra": 8964,
      "information": 8965,
      "bas": 8966,
      "##ection": 8967,
      "like": 8968,
      "##ference": 8969,
      "made": 8970,
      "##graph": 8971,
      "some": 8972,
      "Mr": 8973,
      "system": 8974,
      "##tical": 8975,
      "fac": 8976,
      "peop": 8977,
      "##orld": 8978,
      "Par": 8979,
      "14": 8980,
      "Convention": 8981,
      "International": 8982,
      "est": 8983,
      "##ink": 8984,
      "person": 8985,
      "into": 8986,
      "hel": 8987,
      "##oin": 8988,
      "##ank": 8989,
      "soc": 8990,
      "through": 8991,
      "##ame": 8992,
      "child": 8993,
      "##les": 8994,
      "Is": 8995,
      "del": 8996,
      "concern": 8997,
      "##are": 8998,
      "##ommend": 8999,
      "em": 9000,
      "##ang": 9001,
      "establ": 9002,
      "str": 9003,
      "peace": 9004,
      "##ific": 9005,
      "time": 9006,
      "##cc": 9007,
      "##get": 9008,
      "leg": 9009,
      "implementation": 9010,
      "ins": 9011,
      "tw": 9012,
      "18": 9013,
      "commun": 9014,
      "respon": 9015,
      "disc": 9016,
      "well": 9017,
      "Government": 9018,
      "pri": 9019,
      "trans": 9020,
      "lo": 9021,
      "##man": 9022,
      "This": 9023,
      "cent": 9024,
      "##ive": 9025,
      "2007": 9026,
      "against": 9027,
      "##ollow": 9028,
      "##ors": 9029,
      "gu": 9030,
      "##til": 9031,
      "##echn": 9032,
      "new": 9033,
      "##ever": 9034,
      "30": 9035,
      "16": 9036,
      "if": 9037,
      "##ful": 9038,
      "##ticle": 9039,
      "##ied": 9040,
      "particular": 9041,
      "For": 9042,
      "just": 9043,
      "##mit": 9044,
      "him": 9045,
      "our": 9046,
      "level": 9047,
      "##ile": 9048,
      "##pos": 9049,
      "recommend": 9050,
      "el": 9051,
      "serv": 9052,
      "att": 9053,
      "##uring": 9054,
      "##ween": 9055,
      "##ices": 9056,
      "le": 9057,
      "##ian": 9058,
      "effor": 9059,
      "part": 9060,
      "could": 9061,
      "##ond": 9062,
      "##operation": 9063,
      "here": 9064,
      "prom": 9065,
      "import": 9066,
      "conf": 9067,
      "##iol": 9068,
      "##lear": 9069,
      "##bers": 9070,
      "rem": 9071,
      "adop": 9072,
      "between": 9073,
      "activities": 9074,
      "##ct": 9075,
      "her": 9076,
      "meas": 9077,
      "17": 9078,
      "##irst": 9079,
      "Afric": 9080,
      "people": 9081,
      "##fore": 9082,
      "sc": 9083,
      "##uth": 9084,
      "Security": 9085,
      "did": 9086,
      "may": 9087,
      "##par": 9088,
      "take": 9089,
      "##titution": 9090,
      "##rimin": 9091,
      "pr": 9092,
      "tak": 9093,
      "An": 9094,
      "rev": 9095,
      "##de": 9096,
      "##ffic": 9097,
      "##ident": 9098,
      "##ism": 9099,
      "follow": 9100,
      "sit": 9101,
      "##ide": 9102,
      "##ources": 9103,
      "##ges": 9104,
      "Republic": 9105,
      "get": 9106,
      "effec": 9107,
      "21": 9108,
      "That": 9109,
      "##tives": 9110,
      "##iver": 9111,
      "prot": 9112,
      "financ": 9113,
      "process": 9114,
      "2008": 9115,
      "these": 9116,
      "assist": 9117,
      "ful": 9118,
      "##als": 9119,
      "ll": 9120,
      "ro": 9121,
      "ens": 9122,
      "##ange": 9123,
      "security": 9124,
      "incre": 9125,
      "##hip": 9126,
      "Re": 9127,
      "country": 9128,
      "##ind": 9129,
      "cap": 9130,
      "polic": 9131,
      "draft": 9132,
      "##embers": 9133,
      "##ough": 9134,
      "terr": 9135,
      "Develop": 9136,
      "pos": 9137,
      "regard": 9138,
      "##ens": 9139,
      "##ural": 9140,
      "only": 9141,
      "paragraph": 9142,
      "##ious": 9143,
      "##urther": 9144,
      "##old": 9145,
      "##jec": 9146,
      "25": 9147,
      "techn": 9148,
      "decision": 9149,
      "##ilit": 9150,
      "two": 9151,
      "efforts": 9152,
      "Or": 9153,
      "represent": 9154,
      "##ters": 9155,
      "now": 9156,
      "##ings": 9157,
      "##uation": 9158,
      "Ar": 9159,
      "use": 9160,
      "##tain": 9161,
      "Ex": 9162,
      "##ise": 9163,
      "Add": 9164,
      "organizations": 9165,
      "call": 9166,
      "measures": 9167,
      "##eep": 9168,
      "##eth": 9169,
      "num": 9170,
      "##ound": 9171,
      "cooperation": 9172,
      "##ency": 9173,
      "mat": 9174,
      "des": 9175,
      "provision": 9176,
      "23": 9177,
      "##red": 9178,
      "##ateg": 9179,
      "##ized": 9180,
      "Conference": 9181,
      "##ood": 9182,
      "ev": 9183,
      "##na": 9184,
      "##me": 9185,
      "when": 9186,
      "than": 9187,
      "##inc": 9188,
      "##uthor": 9189,
      "economic": 9190,
      "##ration": 9191,
      "22": 9192,
      "es": 9193,
      "##ards": 9194,
      "viol": 9195,
      "ever": 9196,
      "oper": 9197,
      "first": 9198,
      "All": 9199,
      "must": 9200,
      "##led": 9201,
      "##bal": 9202,
      "##sible": 9203,
      "##ruc": 9204,
      "mon": 9205,
      "good": 9206,
      "end": 9207,
      "particip": 9208,
      "how": 9209,
      "##ute": 9210,
      "bec": 9211,
      "##art": 9212,
      "##ov": 9213,
      "respec": 9214,
      "contrib": 9215,
      "members": 9216,
      "set": 9217,
      "##ays": 9218,
      "##ass": 9219,
      "order": 9220,
      "doc": 9221,
      "##arm": 9222,
      "##alth": 9223,
      "appro": 9224,
      "##olog": 9225,
      "Development": 9226,
      "children": 9227,
      "Human": 9228,
      "di": 9229,
      "##ati": 9230,
      "ver": 9231,
      "Rights": 9232,
      "non": 9233,
      "fund": 9234,
      "##aff": 9235,
      "bel": 9236,
      "resources": 9237,
      "make": 9238,
      "##ove": 9239,
      "On": 9240,
      "##king": 9241,
      "##oth": 9242,
      "##ys": 9243,
      "where": 9244,
      "address": 9245,
      "public": 9246,
      "equ": 9247,
      "##itor": 9248,
      "form": 9249,
      "##ote": 9250,
      "##elf": 9251,
      "##enda": 9252,
      "programme": 9253,
      "24": 9254,
      "How": 9255,
      "##agement": 9256,
      "propos": 9257,
      "##ix": 9258,
      "##land": 9259,
      "pur": 9260,
      "But": 9261,
      "##ah": 9262,
      "she": 9263,
      "assistance": 9264,
      "26": 9265,
      "group": 9266,
      "##iod": 9267,
      "1999": 9268,
      "##ause": 9269,
      "Ag": 9270,
      "##itical": 9271,
      "mar": 9272,
      "##ization": 9273,
      "##ivil": 9274,
      "##ention": 9275,
      "got": 9276,
      "##lobal": 9277,
      "##ction": 9278,
      "po": 9279,
      "financial": 9280,
      "ref": 9281,
      "##ning": 9282,
      "think": 9283,
      "number": 9284,
      "##av": 9285,
      "ext": 9286,
      "years": 9287,
      "shall": 9288,
      "present": 9289,
      "ve": 9290,
      "ann": 9291,
      "Group": 9292,
      "accord": 9293,
      "op": 9294,
      "Pres": 9295,
      "##tice": 9296,
      "bu": 9297,
      "##oint": 9298,
      "##wn": 9299,
      "##onment": 9300,
      "provide": 9301,
      "repor": 9302,
      "At": 9303,
      "article": 9304,
      "Special": 9305,
      "##ject": 9306,
      "##ef": 9307,
      "regional": 9308,
      "##ished": 9309,
      "further": 9310,
      "##ordin": 9311,
      "##vir": 9312,
      "##sive": 9313,
      "issues": 9314,
      "##ob": 9315,
      "31": 9316,
      "period": 9317,
      "main": 9318,
      "##own": 9319,
      "They": 9320,
      "##ite": 9321,
      "plan": 9322,
      "author": 9323,
      "##reng": 9324,
      "##ining": 9325,
      "##ieve": 9326,
      "##ug": 9327,
      "##ort": 9328,
      "world": 9329,
      "ensure": 9330,
      "sign": 9331,
      "Am": 9332,
      "want": 9333,
      "##med": 9334,
      "social": 9335,
      "##ved": 9336,
      "special": 9337,
      "Min": 9338,
      "##pt": 9339,
      "##ability": 9340,
      "back": 9341,
      "exper": 9342,
      "President": 9343,
      "relev": 9344,
      "##ean": 9345,
      "commit": 9346,
      "review": 9347,
      "000": 9348,
      "Co": 9349,
      "##vironment": 9350,
      "##ium": 9351,
      "En": 9352,
      "state": 9353,
      "28": 9354,
      "##ication": 9355,
      "27": 9356,
      "There": 9357,
      "docu": 9358,
      "car": 9359,
      "##ib": 9360,
      "developing": 9361,
      "##ince": 9362,
      "item": 9363,
      "##amp": 9364,
      "being": 9365,
      "##loy": 9366,
      "dep": 9367,
      "##act": 9368,
      "said": 9369,
      "##ales": 9370,
      "dem": 9371,
      "cur": 9372,
      "##then": 9373,
      "##ving": 9374,
      "##rengthen": 9375,
      "##ants": 9376,
      "Off": 9377,
      "##ily": 9378,
      "##sib": 9379,
      "ach": 9380,
      "establish": 9381,
      "Oh": 9382,
      "within": 9383,
      "view": 9384,
      "##ks": 9385,
      "##atives": 9386,
      "educ": 9387,
      "##ines": 9388,
      "Eu": 9389,
      "Organiz": 9390,
      "relevant": 9391,
      "##ety": 9392,
      "##row": 9393,
      "Ind": 9394,
      "##ents": 9395,
      "Mar": 9396,
      "##its": 9397,
      "##ender": 9398,
      "##reed": 9399,
      "af": 9400,
      "id": 9401,
      "##rol": 9402,
      "So": 9403,
      "December": 9404,
      "##erg": 9405,
      "##ral": 9406,
      "inst": 9407,
      "services": 9408,
      "aw": 9409,
      "##incip": 9410,
      "way": 9411,
      "##ently": 9412,
      "##gramme": 9413,
      "av": 9414,
      "##other": 9415,
      "before": 9416,
      "##ued": 9417,
      "Europ": 9418,
      "##omes": 9419,
      "Office": 9420,
      "most": 9421,
      "red": 9422,
      "prac": 9423,
      "adopted": 9424,
      "conflic": 9425,
      "every": 9426,
      "##udget": 9427,
      "political": 9428,
      "institution": 9429,
      "adv": 9430,
      "##pons": 9431,
      "programmes": 9432,
      "##pr": 9433,
      "provided": 9434,
      "strengthen": 9435,
      "##ister": 9436,
      "impro": 9437,
      "##ffer": 9438,
      "deleg": 9439,
      "##illion": 9440,
      "##ariat": 9441,
      "capac": 9442,
      "##enn": 9443,
      "addition": 9444,
      "##aj": 9445,
      "party": 9446,
      "##up": 9447,
      "spec": 9448,
      "##gress": 9449,
      "situation": 9450,
      "terror": 9451,
      "civil": 9452,
      "ques": 9453,
      "##ained": 9454,
      "##uch": 9455,
      "def": 9456,
      "##ected": 9457,
      "##urn": 9458,
      "##tim": 9459,
      "##round": 9460,
      "##lu": 9461,
      "29": 9462,
      "look": 9463,
      "##ife": 9464,
      "min": 9465,
      "areas": 9466,
      "60": 9467,
      "action": 9468,
      "held": 9469,
      "##aking": 9470,
      "important": 9471,
      "aff": 9472,
      "high": 9473,
      "taken": 9474,
      "##lar": 9475,
      "related": 9476,
      "community": 9477,
      "##ests": 9478,
      "continue": 9479,
      "health": 9480,
      "##ater": 9481,
      "respect": 9482,
      "##stan": 9483,
      "55": 9484,
      "Rec": 9485,
      "##ext": 9486,
      "parties": 9487,
      "##uclear": 9488,
      "##ulation": 9489,
      "government": 9490,
      "##oura": 9491,
      "##ecess": 9492,
      "based": 9493,
      "very": 9494,
      "##eah": 9495,
      "##ences": 9496,
      "help": 9497,
      "among": 9498,
      "She": 9499,
      "staff": 9500,
      "loc": 9501,
      "Bo": 9502,
      "submit": 9503,
      "##ases": 9504,
      "strateg": 9505,
      "initi": 9506,
      "##minist": 9507,
      "198": 9508,
      "prev": 9509,
      "##entif": 9510,
      "agree": 9511,
      "cour": 9512,
      "global": 9513,
      "##ament": 9514,
      "##iel": 9515,
      "let": 9516,
      "both": 9517,
      "during": 9518,
      "many": 9519,
      "legal": 9520,
      "##icial": 9521,
      "##ropri": 9522,
      "##eb": 9523,
      "management": 9524,
      "build": 9525,
      "say": 9526,
      "##ize": 9527,
      "agenda": 9528,
      "Programme": 9529,
      "long": 9530,
      "Africa": 9531,
      "##ram": 9532,
      "##kay": 9533,
      "protection": 9534,
      "effective": 9535,
      "going": 9536,
      "Organization": 9537,
      "accordance": 9538,
      "cri": 9539,
      "stand": 9540,
      "##ner": 9541,
      "policy": 9542,
      "proble": 9543,
      "discus": 9544,
      "##sition": 9545,
      "persons": 9546,
      "##arian": 9547,
      "necess": 9548,
      "##iation": 9549,
      "##ogn": 9550,
      "##te": 9551,
      "Soc": 9552,
      "after": 9553,
      "education": 9554,
      "appropri": 9555,
      "To": 9556,
      "great": 9557,
      "Prot": 9558,
      "lead": 9559,
      "produc": 9560,
      "##alestin": 9561,
      "##ower": 9562,
      "50": 9563,
      "cre": 9564,
      "Palestin": 9565,
      "princip": 9566,
      "bod": 9567,
      "come": 9568,
      "down": 9569,
      "enc": 9570,
      "##ential": 9571,
      "II": 9572,
      "Work": 9573,
      "##ady": 9574,
      "place": 9575,
      "##elc": 9576,
      "full": 9577,
      "##ield": 9578,
      "##ption": 9579,
      "If": 9580,
      "##rab": 9581,
      "curr": 9582,
      "same": 9583,
      "##ners": 9584,
      "World": 9585,
      "prepar": 9586,
      "does": 9587,
      "following": 9588,
      "##ird": 9589,
      "capacity": 9590,
      "account": 9591,
      "role": 9592,
      "Member": 9593,
      "##ina": 9594,
      "ser": 9595,
      "##eric": 9596,
      "##ivers": 9597,
      "increas": 9598,
      "general": 9599,
      "coordin": 9600,
      "57": 9601,
      "##ilities": 9602,
      "##aim": 9603,
      "##une": 9604,
      "sector": 9605,
      "without": 9606,
      "prior": 9607,
      "bo": 9608,
      "##ris": 9609,
      "working": 9610,
      "May": 9611,
      "2009": 9612,
      "wea": 9613,
      "se": 9614,
      "rece": 9615,
      "Govern": 9616,
      "##ran": 9617,
      "##ework": 9618,
      "access": 9619,
      "three": 9620,
      "##ality": 9621,
      "##rael": 9622,
      "environment": 9623,
      "require": 9624,
      "Israel": 9625,
      "progress": 9626,
      "fam": 9627,
      "##day": 9628,
      "Gu": 9629,
      "##ramework": 9630,
      "budget": 9631,
      "proced": 9632,
      "million": 9633,
      "##ged": 9634,
      "cor": 9635,
      "own": 9636,
      "##ired": 9637,
      "##erc": 9638,
      "##pl": 9639,
      "recommendations": 9640,
      "56": 9641,
      "Economic": 9642,
      "assess": 9643,
      "Well": 9644,
      "occ": 9645,
      "second": 9646,
      "conflict": 9647,
      "Americ": 9648,
      "established": 9649,
      "##ploy": 9650,
      "##iss": 9651,
      "then": 9652,
      "My": 9653,
      "##ked": 9654,
      "sust": 9655,
      "mand": 9656,
      "sm": 9657,
      "58": 9658,
      "New": 9659,
      "##sh": 9660,
      "##onna": 9661,
      "Parties": 9662,
      "##lig": 9663,
      "training": 9664,
      "fun": 9665,
      "##itarian": 9666,
      "ph": 9667,
      "Dep": 9668,
      "even": 9669,
      "ur": 9670,
      "det": 9671,
      "reports": 9672,
      "cond": 9673,
      "coll": 9674,
      "##till": 9675,
      "avail": 9676,
      "appropriate": 9677,
      "Social": 9678,
      "##ainable": 9679,
      "nuclear": 9680,
      "##ather": 9681,
      "case": 9682,
      "specific": 9683,
      "##go": 9684,
      "Chair": 9685,
      "##outh": 9686,
      "document": 9687,
      "African": 9688,
      "201": 9689,
      "possible": 9690,
      "necessary": 9691,
      "indic": 9692,
      "40": 9693,
      "##echan": 9694,
      "Yeah": 9695,
      "invol": 9696,
      "six": 9697,
      "##erman": 9698,
      "##uly": 9699,
      "##ten": 9700,
      "##sibility": 9701,
      "##rad": 9702,
      "control": 9703,
      "gonna": 9704,
      "consult": 9705,
      "##ey": 9706,
      "##iev": 9707,
      "##ath": 9708,
      "express": 9709,
      "upon": 9710,
      "find": 9711,
      "dire": 9712,
      "comple": 9713,
      "because": 9714,
      "##ested": 9715,
      "gender": 9716,
      "ear": 9717,
      "integ": 9718,
      "since": 9719,
      "oblig": 9720,
      "CN": 9721,
      "##ajor": 9722,
      "1998": 9723,
      "June": 9724,
      "neg": 9725,
      "Sh": 9726,
      "med": 9727,
      "##li": 9728,
      "treat": 9729,
      "fe": 9730,
      "##ules": 9731,
      "##riminal": 9732,
      "##hes": 9733,
      "ben": 9734,
      "care": 9735,
      "##ID": 9736,
      "##isl": 9737,
      "Fin": 9738,
      "##ustice": 9739,
      "##ennium": 9740,
      "59": 9741,
      "Pol": 9742,
      "inf": 9743,
      "##ology": 9744,
      "differ": 9745,
      "life": 9746,
      "##ept": 9747,
      "##rimination": 9748,
      "while": 9749,
      "Res": 9750,
      "##irl": 9751,
      "claim": 9752,
      "##ocol": 9753,
      "##thing": 9754,
      "##rug": 9755,
      "violence": 9756,
      "bro": 9757,
      "Do": 9758,
      "remain": 9759,
      "##laration": 9760,
      "still": 9761,
      "##ule": 9762,
      "pop": 9763,
      "dat": 9764,
      "vari": 9765,
      "mechan": 9766,
      "##airs": 9767,
      "recogn": 9768,
      "Arab": 9769,
      "contribution": 9770,
      "provisions": 9771,
      "mission": 9772,
      "real": 9773,
      "##itions": 9774,
      "technical": 9775,
      "Let": 9776,
      "Law": 9777,
      "question": 9778,
      "soci": 9779,
      "##roduc": 9780,
      "deb": 9781,
      "European": 9782,
      "major": 9783,
      "##stand": 9784,
      "each": 9785,
      "##ron": 9786,
      "clear": 9787,
      "##ring": 9788,
      "tal": 9789,
      "##eur": 9790,
      "much": 9791,
      "##overty": 9792,
      "trade": 9793,
      "##ultural": 9794,
      "##ool": 9795,
      "objec": 9796,
      "##encies": 9797,
      "framework": 9798,
      "##ness": 9799,
      "##eeping": 9800,
      "basis": 9801,
      "beh": 9802,
      "issue": 9803,
      "consideration": 9804,
      "jud": 9805,
      "##uck": 9806,
      "Dis": 9807,
      "Cent": 9808,
      "pres": 9809,
      "applic": 9810,
      "som": 9811,
      "institutions": 9812,
      "needs": 9813,
      "foc": 9814,
      "Board": 9815,
      "encoura": 9816,
      "field": 9817,
      "##ined": 9818,
      "##arge": 9819,
      "building": 9820,
      "promo": 9821,
      "##istan": 9822,
      "supp": 9823,
      "give": 9824,
      "too": 9825,
      "##ateral": 9826,
      "##ised": 9827,
      "##alf": 9828,
      "qu": 9829,
      "used": 9830,
      "Fund": 9831,
      "partners": 9832,
      "National": 9833,
      "hand": 9834,
      "delegation": 9835,
      "Cour": 9836,
      "resul": 9837,
      "##ivid": 9838,
      "##ilitary": 9839,
      "##iven": 9840,
      "Working": 9841,
      "61": 9842,
      "##lease": 9843,
      "##ope": 9844,
      "importance": 9845,
      "##allen": 9846,
      "62": 9847,
      "Can": 9848,
      "groups": 9849,
      "##uts": 9850,
      "##ros": 9851,
      "##ale": 9852,
      "girl": 9853,
      "stud": 9854,
      "deter": 9855,
      "resolutions": 9856,
      "act": 9857,
      "##ves": 9858,
      "liv": 9859,
      "##ended": 9860,
      "July": 9861,
      "##ages": 9862,
      "Reg": 9863,
      "##rit": 9864,
      "##sions": 9865,
      "##az": 9866,
      "include": 9867,
      "identif": 9868,
      "available": 9869,
      "Man": 9870,
      "day": 9871,
      "benef": 9872,
      "Ira": 9873,
      "humanitarian": 9874,
      "tell": 9875,
      "Iraq": 9876,
      "four": 9877,
      "concerned": 9878,
      "El": 9879,
      "##ital": 9880,
      "il": 9881,
      "South": 9882,
      "##men": 9883,
      "##uture": 9884,
      "never": 9885,
      "Court": 9886,
      "##unity": 9887,
      "##ething": 9888,
      "##imin": 9889,
      "legisl": 9890,
      "pay": 9891,
      "increase": 9892,
      "##ober": 9893,
      "meetings": 9894,
      "##tif": 9895,
      "mul": 9896,
      "sur": 9897,
      "welc": 9898,
      "##artment": 9899,
      "##ick": 9900,
      "ret": 9901,
      "war": 9902,
      "nat": 9903,
      "##ocra": 9904,
      "happ": 9905,
      "poverty": 9906,
      "note": 9907,
      "##TA": 9908,
      "Union": 9909,
      "policies": 9910,
      "mean": 9911,
      "Don": 9912,
      "val": 9913,
      "##orry": 9914,
      "mod": 9915,
      "means": 9916,
      "cases": 9917,
      "enh": 9918,
      "##irc": 9919,
      "noted": 9920,
      "##ately": 9921,
      "annex": 9922,
      "weapons": 9923,
      "##cept": 9924,
      "last": 9925,
      "Rev": 9926,
      "priv": 9927,
      "##iness": 9928,
      "##apport": 9929,
      "local": 9930,
      "better": 9931,
      "achieve": 9932,
      "Sp": 9933,
      "Come": 9934,
      "grow": 9935,
      "particularly": 9936,
      "Action": 9937,
      "guid": 9938,
      "##chool": 9939,
      "##isting": 9940,
      "monitor": 9941,
      "Sept": 9942,
      "##apporteur": 9943,
      "##IC": 9944,
      "area": 9945,
      "##ait": 9946,
      "future": 9947,
      "##ceed": 9948,
      "September": 9949,
      "considered": 9950,
      "ris": 9951,
      "obs": 9952,
      "spe": 9953,
      "Sub": 9954,
      "##atory": 9955,
      "Women": 9956,
      "reduc": 9957,
      "##ually": 9958,
      "Hey": 9959,
      "nor": 9960,
      "Palestinian": 9961,
      "CO": 9962,
      "understand": 9963,
      "##earch": 9964,
      "focus": 9965,
      "conduc": 9966,
      "54": 9967,
      "##atus": 9968,
      "##ittle": 9969,
      "Secretariat": 9970,
      "improve": 9971,
      "proposed": 9972,
      "##ruction": 9973,
      "submitted": 9974,
      "challen": 9975,
      "promote": 9976,
      "##rec": 9977,
      "comb": 9978,
      "##atic": 9979,
      "##ecu": 9980,
      "Article": 9981,
      "continued": 9982,
      "##ai": 9983,
      "fif": 9984,
      "##epend": 9985,
      "Pl": 9986,
      "hear": 9987,
      "terrorism": 9988,
      "With": 9989,
      "##ason": 9990,
      "##ross": 9991,
      "lim": 9992,
      "##vis": 9993,
      "35": 9994,
      "Su": 9995,
      "##ocratic": 9996,
      "tow": 9997,
      "head": 9998,
      "land": 9999,
      "something": 10000,
      "Ter": 10001,
      "Represent": 10002,
      "employ": 10003,
      "individ": 10004,
      "receiv": 10005,
      "play": 10006,
      "official": 10007,
      "data": 10008,
      "Declaration": 10009,
      "cer": 10010,
      "month": 10011,
      "military": 10012,
      "##armament": 10013,
      "##ying": 10014,
      "opport": 10015,
      "##ouse": 10016,
      "##keeping": 10017,
      "197": 10018,
      "kill": 10019,
      "really": 10020,
      "##ture": 10021,
      "##mber": 10022,
      "##idence": 10023,
      "##sequ": 10024,
      "##less": 10025,
      "society": 10026,
      "Protocol": 10027,
      "##ried": 10028,
      "aim": 10029,
      "put": 10030,
      "##ax": 10031,
      "allow": 10032,
      "open": 10033,
      "##ici": 10034,
      "45": 10035,
      "current": 10036,
      "33": 10037,
      "Oct": 10038,
      "##CC": 10039,
      "34": 10040,
      "##ook": 10041,
      "gen": 10042,
      "##ief": 10043,
      "1997": 10044,
      "Com": 10045,
      "saf": 10046,
      "##tively": 10047,
      "High": 10048,
      "Governments": 10049,
      "participation": 10050,
      "##vember": 10051,
      "November": 10052,
      "Yes": 10053,
      "Ass": 10054,
      "##ience": 10055,
      "##nel": 10056,
      "##ars": 10057,
      "October": 10058,
      "term": 10059,
      "Rapporteur": 10060,
      "Department": 10061,
      "##jects": 10062,
      "Aff": 10063,
      "given": 10064,
      "Nor": 10065,
      "agencies": 10066,
      "God": 10067,
      "Tra": 10068,
      "representative": 10069,
      "32": 10070,
      "might": 10071,
      "developed": 10072,
      "##ger": 10073,
      "##oti": 10074,
      "undert": 10075,
      "purs": 10076,
      "little": 10077,
      "Why": 10078,
      "administ": 10079,
      "individual": 10080,
      "vol": 10081,
      "##tig": 10082,
      "Go": 10083,
      "enti": 10084,
      "decid": 10085,
      "required": 10086,
      "vic": 10087,
      "Serv": 10088,
      "##ock": 10089,
      "determin": 10090,
      "Tr": 10091,
      "63": 10092,
      "##sia": 10093,
      "didn": 10094,
      "bodies": 10095,
      "Mission": 10096,
      "though": 10097,
      "##ends": 10098,
      "Okay": 10099,
      "facilit": 10100,
      "##osed": 10101,
      "instru": 10102,
      "various": 10103,
      "tot": 10104,
      "fl": 10105,
      "##rehen": 10106,
      "##tors": 10107,
      "context": 10108,
      "school": 10109,
      "fact": 10110,
      "rest": 10111,
      "##ternal": 10112,
      "##oney": 10113,
      "found": 10114,
      "##ave": 10115,
      "##ecutive": 10116,
      "reform": 10117,
      "Cons": 10118,
      "vis": 10119,
      "whe": 10120,
      "Jan": 10121,
      "govern": 10122,
      "attention": 10123,
      "levels": 10124,
      "bi": 10125,
      "men": 10126,
      "##izing": 10127,
      "##equ": 10128,
      "called": 10129,
      "Pre": 10130,
      "##eign": 10131,
      "above": 10132,
      "family": 10133,
      "making": 10134,
      "org": 10135,
      "te": 10136,
      "cover": 10137,
      "bus": 10138,
      "##ccess": 10139,
      "dist": 10140,
      "rules": 10141,
      "sustainable": 10142,
      "agreed": 10143,
      "third": 10144,
      "Li": 10145,
      "lea": 10146,
      "See": 10147,
      "##rative": 10148,
      "##ator": 10149,
      "##ators": 10150,
      "towards": 10151,
      "wr": 10152,
      "step": 10153,
      "##DP": 10154,
      "requested": 10155,
      "examp": 10156,
      "Report": 10157,
      "##enth": 10158,
      "##yp": 10159,
      "contained": 10160,
      "Ins": 10161,
      "additional": 10162,
      "##ced": 10163,
      "proper": 10164,
      "##ords": 10165,
      "##ody": 10166,
      "Peace": 10167,
      "##mp": 10168,
      "However": 10169,
      "##sian": 10170,
      "##abor": 10171,
      "##rehensive": 10172,
      "Dem": 10173,
      "taking": 10174,
      "Apr": 10175,
      "signific": 10176,
      "Affairs": 10177,
      "37": 10178,
      "sex": 10179,
      "##ready": 10180,
      "concerning": 10181,
      "operations": 10182,
      "April": 10183,
      "March": 10184,
      "impact": 10185,
      "approach": 10186,
      "discrimination": 10187,
      "change": 10188,
      "mandate": 10189,
      "42": 10190,
      "whether": 10191,
      "Ab": 10192,
      "representatives": 10193,
      "100": 10194,
      "Mon": 10195,
      "statement": 10196,
      "another": 10197,
      "secret": 10198,
      "contrac": 10199,
      "substan": 10200,
      "entit": 10201,
      "che": 10202,
      "member": 10203,
      "private": 10204,
      "bl": 10205,
      "deal": 10206,
      "ra": 10207,
      "negoti": 10208,
      "already": 10209,
      "reason": 10210,
      "38": 10211,
      "1996": 10212,
      "conditions": 10213,
      "believe": 10214,
      "requirements": 10215,
      "39": 10216,
      "best": 10217,
      "relating": 10218,
      "##ees": 10219,
      "la": 10220,
      "Ann": 10221,
      "48": 10222,
      "##irm": 10223,
      "Representative": 10224,
      "invest": 10225,
      "##ned": 10226,
      "project": 10227,
      "force": 10228,
      "##be": 10229,
      "list": 10230,
      "request": 10231,
      "establishment": 10232,
      "small": 10233,
      "##ulations": 10234,
      "##rated": 10235,
      "coun": 10236,
      "##phas": 10237,
      "population": 10238,
      "refer": 10239,
      "##pecially": 10240,
      "Fed": 10241,
      "move": 10242,
      "police": 10243,
      "authorities": 10244,
      "##ists": 10245,
      "sever": 10246,
      "##eal": 10247,
      "##ward": 10248,
      "governmental": 10249,
      "36": 10250,
      "occup": 10251,
      "##aced": 10252,
      "responsibility": 10253,
      "Not": 10254,
      "serious": 10255,
      "perform": 10256,
      "const": 10257,
      "econom": 10258,
      "##istry": 10259,
      "done": 10260,
      "sim": 10261,
      "##omestic": 10262,
      "Where": 10263,
      "##oh": 10264,
      "refl": 10265,
      "success": 10266,
      "##enous": 10267,
      "show": 10268,
      "expec": 10269,
      "##ource": 10270,
      "East": 10271,
      "##mar": 10272,
      "water": 10273,
      "##oy": 10274,
      "##itation": 10275,
      "Minister": 10276,
      "Fr": 10277,
      "These": 10278,
      "Who": 10279,
      "post": 10280,
      "addressed": 10281,
      "free": 10282,
      "China": 10283,
      "53": 10284,
      "##ash": 10285,
      "anal": 10286,
      "##igenous": 10287,
      "##use": 10288,
      "51": 10289,
      "toget": 10290,
      "significant": 10291,
      "together": 10292,
      "##tices": 10293,
      "pros": 10294,
      "eng": 10295,
      "Char": 10296,
      "achiev": 10297,
      "entitled": 10298,
      "threat": 10299,
      "rule": 10300,
      "hold": 10301,
      "doing": 10302,
      "status": 10303,
      "196": 10304,
      "different": 10305,
      "especially": 10306,
      "47": 10307,
      "Mal": 10308,
      "expressed": 10309,
      "Now": 10310,
      "organization": 10311,
      "projects": 10312,
      "##IV": 10313,
      "Sw": 10314,
      "Chairman": 10315,
      "fully": 10316,
      "##ier": 10317,
      "44": 10318,
      "therefore": 10319,
      "##ww": 10320,
      "matter": 10321,
      "##reedom": 10322,
      "Pan": 10323,
      "circ": 10324,
      "return": 10325,
      "##uge": 10326,
      "52": 10327,
      "##tics": 10328,
      "coordination": 10329,
      "decided": 10330,
      "##oss": 10331,
      "traffic": 10332,
      "problem": 10333,
      "why": 10334,
      "obligations": 10335,
      "49": 10336,
      "nex": 10337,
      "food": 10338,
      "www": 10339,
      "domestic": 10340,
      "principles": 10341,
      "old": 10342,
      "##gin": 10343,
      "##uary": 10344,
      "agreement": 10345,
      "Child": 10346,
      "love": 10347,
      "46": 10348,
      "subject": 10349,
      "Act": 10350,
      "43": 10351,
      "Ms": 10352,
      "result": 10353,
      "armed": 10354,
      "41": 10355,
      "took": 10356,
      "total": 10357,
      "bring": 10358,
      "prof": 10359,
      "America": 10360,
      "sent": 10361,
      "1995": 10362,
      "##erial": 10363,
      "increased": 10364,
      "Thank": 10365,
      "next": 10366,
      "##aus": 10367,
      "##isms": 10368,
      "business": 10369,
      "less": 10370,
      "##reg": 10371,
      "justice": 10372,
      "##ergy": 10373,
      "##IDS": 10374,
      "January": 10375,
      "Rus": 10376,
      "won": 10377,
      "##ways": 10378,
      "outs": 10379,
      "key": 10380,
      "direct": 10381,
      "Cor": 10382,
      "Dire": 10383,
      "example": 10384,
      "home": 10385,
      "##amb": 10386,
      "##ialog": 10387,
      "##lements": 10388,
      "design": 10389,
      "problems": 10390,
      "independ": 10391,
      "Sum": 10392,
      "comprehensive": 10393,
      "posi": 10394,
      "Acc": 10395,
      "cos": 10396,
      "criminal": 10397,
      "##titute": 10398,
      "included": 10399,
      "personnel": 10400,
      "expl": 10401,
      "monitoring": 10402,
      "##ional": 10403,
      "Executive": 10404,
      "One": 10405,
      "##ison": 10406,
      "exc": 10407,
      "Advis": 10408,
      "regular": 10409,
      "course": 10410,
      "five": 10411,
      "##ides": 10412,
      "recent": 10413,
      "commitment": 10414,
      "##io": 10415,
      "terms": 10416,
      "strong": 10417,
      "inves": 10418,
      "around": 10419,
      "##ribun": 10420,
      "Are": 10421,
      "peacekeeping": 10422,
      "net": 10423,
      "practices": 10424,
      "enter": 10425,
      "space": 10426,
      "certain": 10427,
      "##olid": 10428,
      "received": 10429,
      "##uce": 10430,
      "##EF": 10431,
      "##ient": 10432,
      "behalf": 10433,
      "When": 10434,
      "##iter": 10435,
      "meet": 10436,
      "##ctor": 10437,
      "thing": 10438,
      "systems": 10439,
      "cred": 10440,
      "proceed": 10441,
      "char": 10442,
      "##ialogue": 10443,
      "contributions": 10444,
      "##idd": 10445,
      "##ians": 10446,
      "existing": 10447,
      "legislation": 10448,
      "fri": 10449,
      "kind": 10450,
      "technology": 10451,
      "sen": 10452,
      "common": 10453,
      "##alling": 10454,
      "emerg": 10455,
      "eval": 10456,
      "mechanisms": 10457,
      "Le": 10458,
      "##ling": 10459,
      "qual": 10460,
      "##self": 10461,
      "##rial": 10462,
      "least": 10463,
      "Inter": 10464,
      "##raz": 10465,
      "##ket": 10466,
      "reporting": 10467,
      "Perman": 10468,
      "Aug": 10469,
      "##pose": 10470,
      "arms": 10471,
      "Permanent": 10472,
      "regarding": 10473,
      "diffic": 10474,
      "strengthening": 10475,
      "standards": 10476,
      "procedures": 10477,
      "##utes": 10478,
      "##ior": 10479,
      "funds": 10480,
      "##IS": 10481,
      "##ream": 10482,
      "##work": 10483,
      "##akes": 10484,
      "money": 10485,
      "Inform": 10486,
      "##eed": 10487,
      "wish": 10488,
      "##pects": 10489,
      "gra": 10490,
      "##ania": 10491,
      "risk": 10492,
      "King": 10493,
      "investig": 10494,
      "Treat": 10495,
      "##ured": 10496,
      "chang": 10497,
      "dest": 10498,
      "pursu": 10499,
      "costs": 10500,
      "August": 10501,
      "##ancing": 10502,
      "Just": 10503,
      "##ppor": 10504,
      "results": 10505,
      "thank": 10506,
      "feel": 10507,
      "Democratic": 10508,
      "##hold": 10509,
      "today": 10510,
      "assoc": 10511,
      "freedom": 10512,
      "relations": 10513,
      "providing": 10514,
      "struc": 10515,
      "wan": 10516,
      "##tims": 10517,
      "HIV": 10518,
      "amount": 10519,
      "##igin": 10520,
      "UNC": 10521,
      "sug": 10522,
      "material": 10523,
      "##atis": 10524,
      "power": 10525,
      "##come": 10526,
      "try": 10527,
      "##rime": 10528,
      "Gen": 10529,
      "1990": 10530,
      "##range": 10531,
      "##mission": 10532,
      "##lands": 10533,
      "secretariat": 10534,
      "service": 10535,
      "emphas": 10536,
      "Some": 10537,
      "yet": 10538,
      "meth": 10539,
      "increasing": 10540,
      "Sc": 10541,
      "Ministry": 10542,
      "prevent": 10543,
      "adoption": 10544,
      "sure": 10545,
      "##II": 10546,
      "previous": 10547,
      "leaders": 10548,
      "His": 10549,
      "shar": 10550,
      "disarmament": 10551,
      "sett": 10552,
      "response": 10553,
      "lack": 10554,
      "deliver": 10555,
      "##ising": 10556,
      "away": 10557,
      "light": 10558,
      "##dom": 10559,
      "always": 10560,
      "Afgh": 10561,
      "elect": 10562,
      "Cont": 10563,
      "happen": 10564,
      "far": 10565,
      "past": 10566,
      "ess": 10567,
      "decisions": 10568,
      "AIDS": 10569,
      "prevention": 10570,
      "growth": 10571,
      "##uted": 10572,
      "##ased": 10573,
      "##gn": 10574,
      "##ER": 10575,
      "##aster": 10576,
      "##lemen": 10577,
      "##illennium": 10578,
      "house": 10579,
      "##leg": 10580,
      "consultations": 10581,
      "introduc": 10582,
      "Director": 10583,
      "Administ": 10584,
      "Bel": 10585,
      "##abour": 10586,
      "##ivision": 10587,
      "##force": 10588,
      "##ending": 10589,
      "##lusion": 10590,
      "1994": 10591,
      "##EP": 10592,
      "Imp": 10593,
      "##onst": 10594,
      "##ada": 10595,
      "cost": 10596,
      "##aged": 10597,
      "##ledge": 10598,
      "bre": 10599,
      "keep": 10600,
      "reported": 10601,
      "adequ": 10602,
      "##iversity": 10603,
      "##ador": 10604,
      "sl": 10605,
      "tre": 10606,
      "assessment": 10607,
      "Look": 10608,
      "Bank": 10609,
      "##ES": 10610,
      "##IN": 10611,
      "##ugees": 10612,
      "actions": 10613,
      "##apan": 10614,
      "Afghan": 10615,
      "due": 10616,
      "Good": 10617,
      "sev": 10618,
      "conclud": 10619,
      "conven": 10620,
      "apprec": 10621,
      "maintain": 10622,
      "challenges": 10623,
      "pot": 10624,
      "dialogue": 10625,
      "become": 10626,
      "joint": 10627,
      "summ": 10628,
      "drug": 10629,
      "##body": 10630,
      "##unt": 10631,
      "Japan": 10632,
      "victims": 10633,
      "Feb": 10634,
      "ent": 10635,
      "##ulture": 10636,
      "indigenous": 10637,
      "##elines": 10638,
      "Be": 10639,
      "Peop": 10640,
      "acts": 10641,
      "##ruary": 10642,
      "method": 10643,
      "February": 10644,
      "needed": 10645,
      "arrange": 10646,
      "priority": 10647,
      "##raft": 10648,
      "transfer": 10649,
      "wee": 10650,
      "Aust": 10651,
      "##atch": 10652,
      "income": 10653,
      "Cl": 10654,
      "conn": 10655,
      "Allah": 10656,
      "cris": 10657,
      "mind": 10658,
      "provides": 10659,
      "initiatives": 10660,
      "night": 10661,
      "leave": 10662,
      "several": 10663,
      "rati": 10664,
      "##ones": 10665,
      "77": 10666,
      "##bs": 10667,
      "##co": 10668,
      "La": 10669,
      "##anda": 10670,
      "analys": 10671,
      "##hing": 10672,
      "##ither": 10673,
      "Other": 10674,
      "documents": 10675,
      "trad": 10676,
      "read": 10677,
      "##ances": 10678,
      "record": 10679,
      "observ": 10680,
      "##FF": 10681,
      "Get": 10682,
      "##ging": 10683,
      "crime": 10684,
      "##ications": 10685,
      "While": 10686,
      "girls": 10687,
      "Plan": 10688,
      "##way": 10689,
      "##unities": 10690,
      "whole": 10691,
      "ground": 10692,
      "ht": 10693,
      "met": 10694,
      "##aid": 10695,
      "##lam": 10696,
      "##ribunal": 10697,
      "exch": 10698,
      "##aken": 10699,
      "UNDP": 10700,
      "name": 10701,
      "Advisory": 10702,
      "anything": 10703,
      "Commissioner": 10704,
      "Offic": 10705,
      "caus": 10706,
      "##app": 10707,
      "peoples": 10708,
      "partnership": 10709,
      "##rate": 10710,
      "suppor": 10711,
      "thought": 10712,
      "US": 10713,
      "requests": 10714,
      "Millennium": 10715,
      "estim": 10716,
      "position": 10717,
      "point": 10718,
      "environmental": 10719,
      "however": 10720,
      "##ons": 10721,
      "foreign": 10722,
      "practice": 10723,
      "broad": 10724,
      "##mes": 10725,
      "date": 10726,
      "##eti": 10727,
      "promotion": 10728,
      "okay": 10729,
      "##ably": 10730,
      "forces": 10731,
      "##uty": 10732,
      "strategy": 10733,
      "Em": 10734,
      "##iate": 10735,
      "link": 10736,
      "##itiz": 10737,
      "Treaty": 10738,
      "Tim": 10739,
      "having": 10740,
      "sw": 10741,
      "matters": 10742,
      "treatment": 10743,
      "##thern": 10744,
      "trafficking": 10745,
      "few": 10746,
      "sorry": 10747,
      "##imate": 10748,
      "Int": 10749,
      "able": 10750,
      "##not": 10751,
      "prepared": 10752,
      "IC": 10753,
      "detail": 10754,
      "things": 10755,
      "##ode": 10756,
      "relig": 10757,
      "discuss": 10758,
      "vote": 10759,
      "##tis": 10760,
      "Agenda": 10761,
      "talk": 10762,
      "##ours": 10763,
      "Panel": 10764,
      "dated": 10765,
      "cultural": 10766,
      "asse": 10767,
      "##tilateral": 10768,
      "procedure": 10769,
      "##ulated": 10770,
      "##ta": 10771,
      "discussion": 10772,
      "hig": 10773,
      "##mary": 10774,
      "application": 10775,
      "##acy": 10776,
      "##lose": 10777,
      "star": 10778,
      "speak": 10779,
      "Kingdom": 10780,
      "##vers": 10781,
      "section": 10782,
      "##ension": 10783,
      "##licit": 10784,
      "clos": 10785,
      "Under": 10786,
      "##ON": 10787,
      "final": 10788,
      "office": 10789,
      "instruments": 10790,
      "##hib": 10791,
      "months": 10792,
      "age": 10793,
      "Please": 10794,
      "##angu": 10795,
      "agreements": 10796,
      "Ser": 10797,
      "##ible": 10798,
      "interest": 10799,
      "Ac": 10800,
      "##veness": 10801,
      "biennium": 10802,
      "purpose": 10803,
      "2010": 10804,
      "Tur": 10805,
      "hope": 10806,
      "Summit": 10807,
      "equality": 10808,
      "property": 10809,
      "##elves": 10810,
      "##eva": 10811,
      "recommended": 10812,
      "Europe": 10813,
      "bri": 10814,
      "##though": 10815,
      "exerc": 10816,
      "Charter": 10817,
      "##oming": 10818,
      "objectives": 10819,
      "##lementing": 10820,
      "##AT": 10821,
      "committed": 10822,
      "500": 10823,
      "investment": 10824,
      "##rain": 10825,
      "living": 10826,
      "self": 10827,
      "turn": 10828,
      "##ression": 10829,
      "treaty": 10830,
      "market": 10831,
      "fail": 10832,
      "research": 10833,
      "text": 10834,
      "fav": 10835,
      "please": 10836,
      "pers": 10837,
      "fifty": 10838,
      "75": 10839,
      "mig": 10840,
      "##af": 10841,
      "forward": 10842,
      "enhance": 10843,
      "Russian": 10844,
      "responsible": 10845,
      "function": 10846,
      "essential": 10847,
      "Agree": 10848,
      "greater": 10849,
      "left": 10850,
      "Information": 10851,
      "Congo": 10852,
      "Fif": 10853,
      "others": 10854,
      "poor": 10855,
      "AC": 10856,
      "Col": 10857,
      "##ana": 10858,
      "proposals": 10859,
      "Service": 10860,
      "cannot": 10861,
      "Terr": 10862,
      "##ticles": 10863,
      "until": 10864,
      "##by": 10865,
      "##eness": 10866,
      "promoting": 10867,
      "##ipment": 10868,
      "70": 10869,
      "days": 10870,
      "##EA": 10871,
      "##cy": 10872,
      "statements": 10873,
      "York": 10874,
      "youn": 10875,
      "continu": 10876,
      "German": 10877,
      "##sid": 10878,
      "laws": 10879,
      "stress": 10880,
      "Geneva": 10881,
      "##HC": 10882,
      "indust": 10883,
      "large": 10884,
      "Annex": 10885,
      "mor": 10886,
      "dev": 10887,
      "##els": 10888,
      "##ien": 10889,
      "camp": 10890,
      "Your": 10891,
      "III": 10892,
      "contain": 10893,
      "involved": 10894,
      "basic": 10895,
      "attack": 10896,
      "Bur": 10897,
      "typ": 10898,
      "effici": 10899,
      "explo": 10900,
      "##rought": 10901,
      "ratif": 10902,
      "##rant": 10903,
      "Israeli": 10904,
      "##ecting": 10905,
      "steps": 10906,
      "sugges": 10907,
      "death": 10908,
      "App": 10909,
      "exam": 10910,
      "##ilateral": 10911,
      "##ght": 10912,
      "body": 10913,
[...]
