{
  "version": "1.0",
  "truncation": null,
  "padding": null,
  "added_tokens": [
    {
      "id": 0,
      "content": "[PAD]",
      "single_word": false,
      "lstrip": false,
      "rstrip": false,
      "normalized": false,
      "special": true
    },
    {
      "id": 1,
      "content": "[UNK]",
      "single_word": false,
      "lstrip": false,
      "rstrip": false,
      "normalized": false,
      "special": true
    },
    {
      "id": 2,
      "content": "[CLS]",
      "single_word": false,
      "lstrip": false,
      "rstrip": false,
      "normalized": false,
      "special": true
    },
    {
      "id": 3,
      "content": "[SEP]",
      "single_word": false,
      "lstrip": false,
      "rstrip": false,
      "normalized": false,
      "special": true
    },
    {
      "id": 4,
      "content": "[MASK]",
      "single_word": false,
      "lstrip": false,
      "rstrip": false,
      "normalized": false,
      "special": true
    }
  ],
  "normalizer": {
    "type": "BertNormalizer",
    "clean_text": true,
    "handle_chinese_chars": true,
    "strip_accents": null,
    "lowercase": false
  },
  "pre_tokenizer": {
    "type": "BertPreTokenizer"
  },
  "post_processor": {
    "type": "TemplateProcessing",
    "single": [
      {
        "SpecialToken": {
          "id": "[CLS]",
          "type_id": 0
        }
      },
      {
        "Sequence": {
          "id": "A",
          "type_id": 0
        }
      },
      {
        "SpecialToken": {
          "id": "[SEP]",
          "type_id": 0
        }
      }
    ],
    "pair": [
      {
        "SpecialToken": {
          "id": "[CLS]",
          "type_id": 0
        }
      },
      {
        "Sequence": {
          "id": "A",
          "type_id": 0
        }
      },
      {
        "SpecialToken": {
          "id": "[SEP]",
          "type_id": 0
        }
      },
      {
        "Sequence": {
          "id": "B",
          "type_id": 1
        }
      },
      {
        "SpecialToken": {
          "id": "[SEP]",
          "type_id": 1
        }
      }
    ],
    "special_tokens": {
      "[CLS]": {
        "id": "[CLS]",
        "ids": [
          2
        ],
        "tokens": [
          "[CLS]"
        ]
      },
      "[SEP]": {
        "id": "[SEP]",
        "ids": [
          3
        ],
        "tokens": [
          "[SEP]"
        ]
      }
    }
  },
  "decoder": {
    "type": "WordPiece",
    "prefix": "##",
    "cleanup": true
  },
  "model": {
    "type": "WordPiece",
    "unk_token": "[UNK]",
    "continuing_subword_prefix": "##",
    "max_input_chars_per_word": 100,
    "vocab": {
      "[PAD]": 0,
      "[UNK]": 1,
      "[CLS]": 2,
      "[SEP]": 3,
      "[MASK]": 4,
      "!": 5,
      "\"": 6,
      "#": 7,
      "$": 8,
      "%": 9,
      "&": 10,
      "'": 11,
      "(": 12,
      ")": 13,
      "*": 14,
      "+": 15,
      ",": 16,
      "-": 17,
      ".": 18,
      "/": 19,
      "0": 20,
      "1": 21,
      "2": 22,
      "3": 23,
      "4": 24,
      "5": 25,
      "6": 26,
      "7": 27,
      "8": 28,
      "9": 29,
      ":": 30,
      ";": 31,
      "<": 32,
      "=": 33,
      ">": 34,
      "?": 35,
      "@": 36,
      "A": 37,
      "B": 38,
      "C": 39,
      "D": 40,
      "E": 41,
      "F": 42,
      "G": 43,
      "H": 44,
      "I": 45,
      "J": 46,
      "K": 47,
      "L": 48,
      "M": 49,
      "N": 50,
      "O": 51,
      "P": 52,
      "Q": 53,
      "R": 54,
      "S": 55,
      "T": 56,
      "U": 57,
      "V": 58,
      "W": 59,
      "X": 60,
      "Y": 61,
      "Z": 62,
      "[": 63,
      "\\": 64,
      "]": 65,
      "^": 66,
      "_": 67,
      "`": 68,
      "a": 69,
      "b": 70,
      "c": 71,
      "d": 72,
      "e": 73,
      "f": 74,
      "g": 75,
      "h": 76,
      "i": 77,
      "j": 78,
      "k": 79,
      "l": 80,
      "m": 81,
      "n": 82,
      "o": 83,
      "p": 84,
      "q": 85,
      "r": 86,
      "s": 87,
      "t": 88,
      "u": 89,
      "v": 90,
      "w": 91,
      "x": 92,
      "y": 93,
      "z": 94,
      "{": 95,
      "|": 96,
      "}": 97,
      "~": 98,
      "¡": 99,
      "¢": 100,
      "£": 101,
      "¤": 102,
      "¥": 103,
      "¦": 104,
      "§": 105,
      "¨": 106,
      "©": 107,
      "ª": 108,
      "«": 109,
      "¬": 110,
      "®": 111,
      "¯": 112,
      "°": 113,
      "±": 114,
      "²": 115,
      "³": 116,
      "´": 117,
      "µ": 118,
      "¶": 119,
      "·": 120,
      "¸": 121,
      "¹": 122,
      "º": 123,
      "»": 124,
      "¼": 125,
      "½": 126,
      "¾": 127,
      "¿": 128,
      "À": 129,
      "Á": 130,
      "Â": 131,
      "Ã": 132,
      "Ä": 133,
      "Å": 134,
      "Æ": 135,
      "Ç": 136,
      "É": 137,
      "Í": 138,
      "Î": 139,
      "Ï": 140,
      "Ð": 141,
      "Ñ": 142,
      "Ó": 143,
      "Ö": 144,
      "×": 145,
      "Ø": 146,
      "Ú": 147,
      "Ü": 148,
      "Þ": 149,
      "ß": 150,
      "à": 151,
      "á": 152,
      "â": 153,
      "ã": 154,
      "ä": 155,
      "å": 156,
      "æ": 157,
      "ç": 158,
      "è": 159,
      "é": 160,
      "ê": 161,
      "ë": 162,
      "ì": 163,
      "í": 164,
      "î": 165,
      "ï": 166,
      "ð": 167,
      "ñ": 168,
      "ò": 169,
      "ó": 170,
      "ô": 171,
      "õ": 172,
      "ö": 173,
      "÷": 174,
      "ø": 175,
      "ù": 176,
      "ú": 177,
      "û": 178,
      "ü": 179,
      "ý": 180,
      "þ": 181,
      "ÿ": 182,
      "Ā": 183,
      "ā": 184,
      "ă": 185,
      "ą": 186,
      "Ć": 187,
      "ć": 188,
      "ċ": 189,
      "Č": 190,
      "č": 191,
      "Ď": 192,
      "ď": 193,
      "Đ": 194,
      "ē": 195,
      "ė": 196,
      "ę": 197,
      "ě": 198,
      "ğ": 199,
      "Ġ": 200,
      "ġ": 201,
      "ĥ": 202,
      "ħ": 203,
      "ĩ": 204,
      "ī": 205,
      "ĭ": 206,
      "İ": 207,
      "ı": 208,
      "Ĵ": 209,
      "Ķ": 210,
      "ķ": 211,
      "Ľ": 212,
      "Ł": 213,
      "ł": 214,
      "ń": 215,
      "ņ": 216,
      "ň": 217,
      "ŋ": 218,
      "Ō": 219,
      "ō": 220,
      "ŏ": 221,
      "ő": 222,
      "œ": 223,
      "Ř": 224,
      "ř": 225,
      "Ś": 226,
      "ś": 227,
      "Ş": 228,
      "ş": 229,
      "Š": 230,
      "š": 231,
      "ţ": 232,
      "ũ": 233,
      "ū": 234,
      "ŭ": 235,
      "ŵ": 236,
      "ź": 237,
      "Ż": 238,
      "ż": 239,
      "Ž": 240,
      "ž": 241,
      "ſ": 242,
      "Ə": 243,
      "ƒ": 244,
      "ƛ": 245,
      "ơ": 246,
      "ư": 247,
      "ǂ": 248,
      "Ǎ": 249,
      "ǎ": 250,
      "ǐ": 251,
      "ǒ": 252,
      "ǖ": 253,
      "ǫ": 254,
      "ȁ": 255,
      "ȍ": 256,
      "ș": 257,
      "ț": 258,
      "ɐ": 259,
      "ɑ": 260,
      "ɒ": 261,
      "ɓ": 262,
      "ɔ": 263,
      "ɕ": 264,
      "ɖ": 265,
      "ɗ": 266,
      "ə": 267,
      "ɚ": 268,
      "ɛ": 269,
      "ɜ": 270,
      "ɟ": 271,
      "ɡ": 272,
      "ɣ": 273,
      "ɥ": 274,
      "ɦ": 275,
      "ɨ": 276,
      "ɪ": 277,
      "ɭ": 278,
      "ɮ": 279,
      "ɯ": 280,
      "ɱ": 281,
      "ɲ": 282,
      "ɳ": 283,
      "ɽ": 284,
      "ɾ": 285,
      "ʀ": 286,
      "ʁ": 287,
      "ʂ": 288,
      "ʃ": 289,
      "ʉ": 290,
      "ʊ": 291,
      "ʋ": 292,
      "ʌ": 293,
      "ʎ": 294,
      "ʏ": 295,
      "ʒ": 296,
      "ʔ": 297,
      "ʕ": 298,
      "ʝ": 299,
      "ʡ": 300,
      "ʧ": 301,
      "ʰ": 302,
      "ʱ": 303,
      "ʲ": 304,
      "ʷ": 305,
      "ʻ": 306,
      "ʼ": 307,
      "ʾ": 308,
      "ʿ": 309,
      "ˆ": 310,
      "ˈ": 311,
      "ˉ": 312,
      "ˊ": 313,
      "ˋ": 314,
      "ˌ": 315,
      "ˎ": 316,
      "ː": 317,
      "˘": 318,
      "˙": 319,
      "˥": 320,
      "˦": 321,
      "˧": 322,
      "˨": 323,
      "˩": 324,
      "́": 325,
      "̃": 326,
      "̈": 327,
      "̓": 328,
      "̚": 329,
      "̝": 330,
      "̞": 331,
      "̠": 332,
      "̡": 333,
      "̥": 334,
      "̧": 335,
      "̩": 336,
      "̪": 337,
      "̬": 338,
      "̮": 339,
      "̯": 340,
      "̱": 341,
      "̹": 342,
      "̺": 343,
      "̼": 344,
      "͜": 345,
      "͠": 346,
      "΄": 347,
      "Ά": 348,
      "·": 349,
      "ΐ": 350,
      "Α": 351,
      "Β": 352,
      "Γ": 353,
      "Δ": 354,
      "Ε": 355,
      "Ζ": 356,
      "Η": 357,
      "Θ": 358,
      "Ι": 359,
      "Κ": 360,
      "Λ": 361,
      "Μ": 362,
      "Ν": 363,
      "Ο": 364,
      "Π": 365,
      "Σ": 366,
      "Τ": 367,
      "Υ": 368,
      "Φ": 369,
      "Χ": 370,
      "Ψ": 371,
      "Ω": 372,
      "ά": 373,
      "έ": 374,
      "ή": 375,
      "ί": 376,
      "α": 377,
      "β": 378,
      "γ": 379,
      "δ": 380,
      "ε": 381,
      "ζ": 382,
      "η": 383,
      "θ": 384,
      "ι": 385,
      "κ": 386,
      "λ": 387,
      "μ": 388,
      "ν": 389,
      "ξ": 390,
      "ο": 391,
      "π": 392,
      "ρ": 393,
      "ς": 394,
      "σ": 395,
      "τ": 396,
      "υ": 397,
      "φ": 398,
      "χ": 399,
      "ψ": 400,
      "ω": 401,
      "ό": 402,
      "ύ": 403,
      "ώ": 404,
      "ϑ": 405,
      "ϕ": 406,
      "Ϝ": 407,
      "ϵ": 408,
      "Ў": 409,
      "А": 410,
      "Б": 411,
      "В": 412,
      "Г": 413,
      "З": 414,
      "К": 415,
      "М": 416,
      "Н": 417,
      "О": 418,
      "П": 419,
      "Р": 420,
      "С": 421,
      "Т": 422,
      "У": 423,
      "Х": 424,
      "Ц": 425,
      "Ч": 426,
      "Ы": 427,
      "Ю": 428,
      "а": 429,
      "б": 430,
      "в": 431,
      "г": 432,
      "д": 433,
      "е": 434,
      "ж": 435,
      "з": 436,
      "и": 437,
      "й": 438,
      "к": 439,
      "л": 440,
      "м": 441,
      "н": 442,
      "о": 443,
      "п": 444,
      "р": 445,
      "с": 446,
      "т": 447,
      "у": 448,
      "ф": 449,
      "ц": 450,
      "ч": 451,
      "ш": 452,
      "ъ": 453,
      "ы": 454,
      "э": 455,
      "я": 456,
      "ё": 457,
      "ў": 458,
      "Ѳ": 459,
      "ғ": 460,
      "қ": 461,
      "Դ": 462,
      "Հ": 463,
      "Պ": 464,
      "Ս": 465,
      "Փ": 466,
      "ա": 467,
      "բ": 468,
      "ե": 469,
      "է": 470,
      "ը": 471,
      "թ": 472,
      "ի": 473,
      "լ": 474,
      "հ": 475,
      "մ": 476,
      "յ": 477,
      "ն": 478,
      "ո": 479,
      "չ": 480,
      "ս": 481,
      "տ": 482,
      "ր": 483,
      "ւ": 484,
      "ք": 485,
      "օ": 486,
      "ֆ": 487,
      "֏": 488,
      "ְ": 489,
      "ִ": 490,
      "ֶ": 491,
      "ַ": 492,
      "ָ": 493,
      "ֹ": 494,
      "ּ": 495,
      "׀": 496,
      "ׁ": 497,
      "א": 498,
      "ב": 499,
      "ג": 500,
      "ד": 501,
      "ה": 502,
      "ו": 503,
      "ז": 504,
      "ח": 505,
      "ט": 506,
      "י": 507,
      "ך": 508,
      "כ": 509,
      "ל": 510,
      "ם": 511,
      "מ": 512,
      "ן": 513,
      "נ": 514,
      "ס": 515,
      "ע": 516,
      "פ": 517,
      "צ": 518,
      "ק": 519,
      "ר": 520,
      "ש": 521,
      "ת": 522,
      "آ": 523,
      "أ": 524,
      "إ": 525,
      "ا": 526,
      "ب": 527,
      "ة": 528,
      "ت": 529,
      "ج": 530,
      "ح": 531,
      "د": 532,
      "ر": 533,
      "ز": 534,
      "س": 535,
      "ش": 536,
      "ص": 537,
      "ع": 538,
      "غ": 539,
      "ـ": 540,
      "ف": 541,
      "ق": 542,
      "ك": 543,
      "ل": 544,
      "م": 545,
      "ن": 546,
      "ه": 547,
      "و": 548,
      "ى": 549,
      "ي": 550,
      "َ": 551,
      "ِ": 552,
      "ّ": 553,
      "ْ": 554,
      "ټ": 555,
      "پ": 556,
      "چ": 557,
      "ک": 558,
      "ھ": 559,
      "ۃ": 560,
      "ی": 561,
      "ं": 562,
      "अ": 563,
      "क": 564,
      "ग": 565,
      "घ": 566,
      "च": 567,
      "ज": 568,
      "ञ": 569,
      "ट": 570,
      "ण": 571,
      "त": 572,
      "थ": 573,
      "द": 574,
      "ध": 575,
      "न": 576,
      "प": 577,
      "ब": 578,
      "भ": 579,
      "म": 580,
      "य": 581,
      "र": 582,
      "ल": 583,
      "व": 584,
      "श": 585,
      "ष": 586,
      "स": 587,
      "ह": 588,
      "ा": 589,
      "ि": 590,
      "ी": 591,
      "ु": 592,
      "ू": 593,
      "ै": 594,
      "ो": 595,
      "्": 596,
      "ক": 597,
      "দ": 598,
      "ভ": 599,
      "র": 600,
      "ল": 601,
      "ো": 602,
      "্": 603,
      "જ": 604,
      "ર": 605,
      "હ": 606,
      "ી": 607,
      "ૂ": 608,
      "ૃ": 609,
      "ଣ": 610,
      "ଳ": 611,
      "௸": 612,
      "ം": 613,
      "ക": 614,
      "ത": 615,
      "ന": 616,
      "പ": 617,
      "മ": 618,
      "യ": 619,
      "ര": 620,
      "റ": 621,
      "ല": 622,
      "ള": 623,
      "വ": 624,
      "ാ": 625,
      "ി": 626,
      "െ": 627,
      "്": 628,
      "ก": 629,
      "ข": 630,
      "ค": 631,
      "ฅ": 632,
      "ง": 633,
      "ช": 634,
      "ซ": 635,
      "ญ": 636,
      "ด": 637,
      "ต": 638,
      "ท": 639,
      "น": 640,
      "บ": 641,
      "พ": 642,
      "ฟ": 643,
      "ม": 644,
      "ย": 645,
      "ร": 646,
      "ฤ": 647,
      "ล": 648,
      "ว": 649,
      "ส": 650,
      "ห": 651,
      "อ": 652,
      "ะ": 653,
      "ั": 654,
      "า": 655,
      "ำ": 656,
      "ิ": 657,
      "ี": 658,
      "ื": 659,
      "ุ": 660,
      "ฺ": 661,
      "เ": 662,
      "โ": 663,
      "ไ": 664,
      "็": 665,
      "่": 666,
      "้": 667,
      "์": 668,
      "ည": 669,
      "တ": 670,
      "န": 671,
      "ပ": 672,
      "ဖ": 673,
      "ရ": 674,
      "လ": 675,
      "ဪ": 676,
      "ိ": 677,
      "ု": 678,
      "ေ": 679,
      "့": 680,
      "း": 681,
      "်": 682,
      "ွ": 683,
      "ှ": 684,
      "Ⴗ": 685,
      "ა": 686,
      "ბ": 687,
      "გ": 688,
      "დ": 689,
      "ვ": 690,
      "თ": 691,
      "ი": 692,
      "კ": 693,
      "ლ": 694,
      "ნ": 695,
      "რ": 696,
      "ტ": 697,
      "უ": 698,
      "შ": 699,
      "ხ": 700,
      "ᄃ": 701,
      "ᄅ": 702,
      "ᄉ": 703,
      "ᄌ": 704,
      "ᅵ": 705,
      "ᒸ": 706,
      "ខ": 707,
      "ង": 708,
      "ជ": 709,
      "ញ": 710,
      "ណ": 711,
      "ធ": 712,
      "ន": 713,
      "ប": 714,
      "ម": 715,
      "រ": 716,
      "ល": 717,
      "វ": 718,
      "ស": 719,
      "ហ": 720,
      "ឡ": 721,
      "អ": 722,
      "ា": 723,
      "ិ": 724,
      "ី": 725,
      "ុ": 726,
      "ូ": 727,
      "ើ": 728,
      "េ": 729,
      "ែ": 730,
      "ៈ": 731,
      "៊": 732,
      "្": 733,
      "ḏ": 734,
      "ḡ": 735,
      "Ḥ": 736,
      "ḥ": 737,
      "ḱ": 738,
      "ḵ": 739,
      "ṇ": 740,
      "ṙ": 741,
      "ṛ": 742,
      "ṣ": 743,
      "ṭ": 744,
      "ạ": 745,
      "ả": 746,
      "ấ": 747,
      "ầ": 748,
      "ậ": 749,
      "ẽ": 750,
      "ế": 751,
      "ề": 752,
      "ễ": 753,
      "ệ": 754,
      "Ỉ": 755,
      "ị": 756,
      "ọ": 757,
      "ố": 758,
      "ồ": 759,
      "ộ": 760,
      "ớ": 761,
      "ụ": 762,
      "ứ": 763,
      "ỳ": 764,
      "ἀ": 765,
      "Ἀ": 766,
      "Ἄ": 767,
      "ἐ": 768,
      "ἔ": 769,
      "Ἑ": 770,
      "ἰ": 771,
      "Ἰ": 772,
      "ὐ": 773,
      "ὰ": 774,
      "ὶ": 775,
      "ᾶ": 776,
      "᾽": 777,
      "ῖ": 778,
      "ῦ": 779,
      "ῶ": 780,
      "‐": 781,
      "‑": 782,
      "‒": 783,
      "–": 784,
      "—": 785,
      "―": 786,
      "‘": 787,
      "’": 788,
      "‚": 789,
      "‛": 790,
      "“": 791,
      "”": 792,
      "„": 793,
      "†": 794,
      "‡": 795,
      "•": 796,
      "…": 797,
      "‧": 798,
      "‰": 799,
      "′": 800,
      "″": 801,
      "‵": 802,
      "‹": 803,
      "›": 804,
      "※": 805,
      "⁄": 806,
      "⁰": 807,
      "₁": 808,
      "₂": 809,
      "₇": 810,
      "₤": 811,
      "₫": 812,
      "€": 813,
      "₹": 814,
      "₽": 815,
      "℃": 816,
      "℅": 817,
      "℉": 818,
      "ℍ": 819,
      "ℓ": 820,
      "№": 821,
      "™": 822,
      "⅓": 823,
      "Ⅰ": 824,
      "Ⅱ": 825,
      "Ⅲ": 826,
      "Ⅳ": 827,
      "Ⅴ": 828,
      "Ⅵ": 829,
      "Ⅶ": 830,
      "Ⅷ": 831,
      "ⅱ": 832,
      "ⅳ": 833,
      "←": 834,
      "↑": 835,
      "→": 836,
      "↓": 837,
      "↔": 838,
      "↗": 839,
      "↵": 840,
      "⇌": 841,
      "⇧": 842,
      "∀": 843,
      "∂": 844,
      "∃": 845,
      "∆": 846,
      "∇": 847,
      "∈": 848,
      "∑": 849,
      "−": 850,
      "∕": 851,
      "∗": 852,
      "∘": 853,
      "∙": 854,
      "√": 855,
      "∞": 856,
      "∠": 857,
      "∥": 858,
      "∧": 859,
      "∨": 860,
      "∪": 861,
      "∮": 862,
      "∶": 863,
      "∼": 864,
      "≈": 865,
      "≠": 866,
      "≡": 867,
      "≤": 868,
      "≥": 869,
      "≫": 870,
      "⊂": 871,
      "⊆": 872,
      "⊇": 873,
      "⊕": 874,
      "⊖": 875,
      "⊗": 876,
      "⊙": 877,
      "⊞": 878,
      "⊥": 879,
      "⊿": 880,
      "⋂": 881,
      "⋅": 882,
      "⋯": 883,
      "⌈": 884,
      "⌉": 885,
      "⌊": 886,
      "⌋": 887,
      "⌘": 888,
      "〈": 889,
      "〉": 890,
      "⏎": 891,
      "①": 892,
      "②": 893,
      "③": 894,
      "④": 895,
      "⑤": 896,
      "⑥": 897,
      "⑦": 898,
      "⑧": 899,
      "⑴": 900,
      "⑵": 901,
      "⑶": 902,
      "⑷": 903,
      "⑸": 904,
      "⑹": 905,
      "⑺": 906,
      "⑻": 907,
      "⑼": 908,
      "⑽": 909,
      "⑾": 910,
      "⒂": 911,
      "⒃": 912,
      "⒅": 913,
      "⒍": 914,
      "⒕": 915,
      "⒖": 916,
      "Ⓥ": 917,
      "─": 918,
      "━": 919,
      "┅": 920,
      "┣": 921,
      "┦": 922,
      "┪": 923,
      "┬": 924,
      "┮": 925,
      "┯": 926,
      "┰": 927,
      "┶": 928,
      "╣": 929,
      "╧": 930,
      "╰": 931,
      "▆": 932,
      "█": 933,
      "■": 934,
      "□": 935,
      "▪": 936,
      "▮": 937,
      "▲": 938,
      "△": 939,
      "▷": 940,
      "▸": 941,
      "▽": 942,
      "◆": 943,
      "◇": 944,
      "○": 945,
      "◎": 946,
      "●": 947,
      "★": 948,
      "☆": 949,
      "☉": 950,
      "☭": 951,
      "☮": 952,
      "♠": 953,
      "♣": 954,
      "♥": 955,
      "♦": 956,
      "♪": 957,
      "♫": 958,
      "♬": 959,
      "♭": 960,
      "♯": 961,
      "♻": 962,
      "⚠": 963,
      "⚳": 964,
      "✌": 965,
      "✎": 966,
      "✏": 967,
      "✔": 968,
      "✨": 969,
      "❊": 970,
      "➥": 971,
      "⟨": 972,
      "⟩": 973,
      "⟪": 974,
      "⟫": 975,
      "⠂": 976,
      "⠄": 977,
      "⠆": 978,
      "⠇": 979,
      "⠐": 980,
      "⠒": 981,
      "⠔": 982,
      "⠕": 983,
      "⠖": 984,
      "⠗": 985,
      "⠛": 986,
      "⠝": 987,
      "⠞": 988,
      "⠠": 989,
      "⠢": 990,
      "⠦": 991,
      "⠨": 992,
      "⠪": 993,
      "⠮": 994,
      "⠯": 995,
      "⠱": 996,
      "⠲": 997,
      "⠴": 998,
      "⠶": 999,
      "⠸": 1000,
      "⠹": 1001,
      "⠼": 1002,
      "⦘": 1003,
      "⦵": 1004,
      "⭐": 1005,
      "ⳇ": 1006,
      "⸨": 1007,
      "、": 1008,
      "。": 1009,
      "〃": 1010,
      "〇": 1011,
      "〈": 1012,
      "〉": 1013,
      "《": 1014,
      "》": 1015,
      "「": 1016,
      "」": 1017,
      "『": 1018,
      "』": 1019,
      "【": 1020,
      "】": 1021,
      "〔": 1022,
      "〕": 1023,
      "〖": 1024,
      "〗": 1025,
      "〜": 1026,
      "〝": 1027,
      "〞": 1028,
      "あ": 1029,
      "ぃ": 1030,
      "い": 1031,
      "う": 1032,
      "ぇ": 1033,
      "お": 1034,
      "か": 1035,
      "が": 1036,
      "き": 1037,
      "く": 1038,
      "ぐ": 1039,
      "げ": 1040,
      "こ": 1041,
      "ご": 1042,
      "さ": 1043,
      "し": 1044,
      "じ": 1045,
      "す": 1046,
      "ず": 1047,
      "ぜ": 1048,
      "そ": 1049,
      "だ": 1050,
      "ち": 1051,
      "ぢ": 1052,
      "つ": 1053,
      "づ": 1054,
      "で": 1055,
      "と": 1056,
      "な": 1057,
      "に": 1058,
      "ね": 1059,
      "の": 1060,
      "は": 1061,
      "ば": 1062,
      "ぱ": 1063,
      "ひ": 1064,
      "び": 1065,
      "ぶ": 1066,
      "ぺ": 1067,
      "ほ": 1068,
      "ま": 1069,
      "み": 1070,
      "む": 1071,
      "め": 1072,
      "も": 1073,
      "ゅ": 1074,
      "よ": 1075,
      "ら": 1076,
      "り": 1077,
      "る": 1078,
      "ゐ": 1079,
      "ゑ": 1080,
      "を": 1081,
      "ん": 1082,
      "゜": 1083,
      "ゞ": 1084,
      "ア": 1085,
      "イ": 1086,
      "ウ": 1087,
      "ェ": 1088,
      "エ": 1089,
      "カ": 1090,
      "ガ": 1091,
      "キ": 1092,
      "グ": 1093,
      "ケ": 1094,
      "ゴ": 1095,
      "ザ": 1096,
      "シ": 1097,
      "ジ": 1098,
      "セ": 1099,
      "ゼ": 1100,
      "ソ": 1101,
      "タ": 1102,
      "ダ": 1103,
      "チ": 1104,
      "ッ": 1105,
      "デ": 1106,
      "ド": 1107,
      "ネ": 1108,
      "ノ": 1109,
      "ハ": 1110,
      "バ": 1111,
      "パ": 1112,
      "ヒ": 1113,
      "ビ": 1114,
      "フ": 1115,
      "ミ": 1116,
      "ム": 1117,
      "ャ": 1118,
      "ユ": 1119,
      "ラ": 1120,
      "ル": 1121,
      "レ": 1122,
      "ロ": 1123,
      "ン": 1124,
      "ヴ": 1125,
      "ヶ": 1126,
      "・": 1127,
      "ー": 1128,
      "ㄆ": 1129,
      "ㄇ": 1130,
      "ㄍ": 1131,
      "ㄐ": 1132,
      "ㄑ": 1133,
      "ㄒ": 1134,
      "ㄓ": 1135,
      "ㄔ": 1136,
      "ㄗ": 1137,
      "ㄘ": 1138,
      "ㄛ": 1139,
      "ㄜ": 1140,
      "ㄞ": 1141,
      "ㄟ": 1142,
      "ㄠ": 1143,
      "ㄢ": 1144,
      "ㄣ": 1145,
      "ㄤ": 1146,
      "ㄧ": 1147,
      "ㄨ": 1148,
      "ㄩ": 1149,
      "㈠": 1150,
      "㈡": 1151,
      "㈢": 1152,
      "㈣": 1153,
      "㈤": 1154,
      "㈥": 1155,
      "㈦": 1156,
      "㈧": 1157,
      "㈨": 1158,
      "㈩": 1159,
      "㍘": 1160,
      "㎝": 1161,
      "㎡": 1162,
      "㏄": 1163,
      "㏑": 1164,
      "㐋": 1165,
      "㐓": 1166,
      "㖞": 1167,
      "㖠": 1168,
      "㗎": 1169,
      "㞰": 1170,
      "㤰": 1171,
      "㦱": 1172,
      "㭎": 1173,
      "㳧": 1174,
      "㴲": 1175,
      "㵵": 1176,
      "㶎": 1177,
      "㸋": 1178,
      "㹢": 1179,
      "㹴": 1180,
      "㺢": 1181,
      "䆛": 1182,
      "䇓": 1183,
      "䇲": 1184,
      "䐜": 1185,
      "䡙": 1186,
      "䪰": 1187,
      "䴘": 1188,
      "䴙": 1189,
      "䵀": 1190,
      "䵂": 1191,
      "䵑": 1192,
      "一": 1193,
      "丁": 1194,
      "七": 1195,
      "丄": 1196,
      "丅": 1197,
      "万": 1198,
      "丈": 1199,
      "三": 1200,
      "上": 1201,
      "下": 1202,
      "丌": 1203,
      "不": 1204,
      "与": 1205,
      "丏": 1206,
      "丐": 1207,
      "丑": 1208,
      "专": 1209,
      "且": 1210,
      "丕": 1211,
      "世": 1212,
      "丗": 1213,
      "丘": 1214,
      "丙": 1215,
      "业": 1216,
      "丛": 1217,
      "东": 1218,
      "丝": 1219,
      "丞": 1220,
      "丟": 1221,
      "両": 1222,
      "丢": 1223,
      "丣": 1224,
      "两": 1225,
      "严": 1226,
      "並": 1227,
      "丧": 1228,
      "丨": 1229,
      "个": 1230,
      "丫": 1231,
      "丬": 1232,
      "中": 1233,
      "丯": 1234,
      "丰": 1235,
      "串": 1236,
      "临": 1237,
      "丵": 1238,
      "丶": 1239,
      "丸": 1240,
      "丹": 1241,
      "为": 1242,
      "主": 1243,
      "丽": 1244,
      "举": 1245,
      "乂": 1246,
      "乃": 1247,
      "久": 1248,
      "么": 1249,
      "义": 1250,
      "之": 1251,
      "乌": 1252,
      "乍": 1253,
      "乎": 1254,
      "乏": 1255,
      "乐": 1256,
      "乒": 1257,
      "乓": 1258,
      "乔": 1259,
      "乖": 1260,
      "乘": 1261,
      "乙": 1262,
      "乜": 1263,
      "九": 1264,
      "乞": 1265,
      "也": 1266,
      "习": 1267,
      "乡": 1268,
      "书": 1269,
      "乩": 1270,
      "买": 1271,
      "乱": 1272,
      "乳": 1273,
      "乾": 1274,
      "亂": 1275,
      "了": 1276,
      "亇": 1277,
      "予": 1278,
      "争": 1279,
      "亊": 1280,
      "事": 1281,
      "二": 1282,
      "于": 1283,
      "亏": 1284,
      "云": 1285,
      "互": 1286,
      "亓": 1287,
      "五": 1288,
      "井": 1289,
      "亘": 1290,
      "亚": 1291,
      "些": 1292,
      "亞": 1293,
      "亟": 1294,
      "亡": 1295,
      "亢": 1296,
      "交": 1297,
      "亥": 1298,
      "亦": 1299,
      "产": 1300,
      "亨": 1301,
      "亩": 1302,
      "享": 1303,
      "京": 1304,
      "亭": 1305,
      "亮": 1306,
      "亲": 1307,
      "亳": 1308,
      "亵": 1309,
      "人": 1310,
      "亻": 1311,
      "亽": 1312,
      "亿": 1313,
      "什": 1314,
      "仁": 1315,
      "仃": 1316,
      "仄": 1317,
      "仅": 1318,
      "仆": 1319,
      "仇": 1320,
      "今": 1321,
      "介": 1322,
      "仍": 1323,
      "从": 1324,
      "仑": 1325,
      "仓": 1326,
      "仔": 1327,
      "仕": 1328,
      "他": 1329,
      "仗": 1330,
      "付": 1331,
      "仙": 1332,
      "仝": 1333,
      "仞": 1334,
      "仟": 1335,
      "仡": 1336,
      "代": 1337,
      "令": 1338,
      "以": 1339,
      "仧": 1340,
      "仨": 1341,
      "仪": 1342,
      "们": 1343,
      "仰": 1344,
      "仲": 1345,
      "仳": 1346,
      "仵": 1347,
      "件": 1348,
      "价": 1349,
      "任": 1350,
      "份": 1351,
      "仿": 1352,
      "企": 1353,
      "伃": 1354,
      "伉": 1355,
      "伊": 1356,
      "伍": 1357,
      "伎": 1358,
      "伏": 1359,
      "伐": 1360,
      "休": 1361,
      "伕": 1362,
      "众": 1363,
      "优": 1364,
      "伙": 1365,
      "会": 1366,
      "伛": 1367,
      "伝": 1368,
      "伞": 1369,
      "伟": 1370,
      "传": 1371,
      "伤": 1372,
      "伥": 1373,
      "伦": 1374,
      "伧": 1375,
      "伪": 1376,
      "伫": 1377,
      "伯": 1378,
      "估": 1379,
      "伱": 1380,
      "伲": 1381,
      "伴": 1382,
      "伶": 1383,
      "伸": 1384,
      "伺": 1385,
      "似": 1386,
      "伽": 1387,
      "佃": 1388,
      "但": 1389,
      "佈": 1390,
      "佉": 1391,
      "位": 1392,
      "低": 1393,
      "住": 1394,
      "佐": 1395,
      "佑": 1396,
      "体": 1397,
      "佔": 1398,
      "何": 1399,
      "佗": 1400,
      "佘": 1401,
      "余": 1402,
      "佚": 1403,
      "佛": 1404,
      "作": 1405,
      "佝": 1406,
      "佞": 1407,
      "佟": 1408,
      "你": 1409,
      "佢": 1410,
      "佣": 1411,
      "佤": 1412,
      "佥": 1413,
      "佧": 1414,
      "佩": 1415,
      "佬": 1416,
      "佯": 1417,
      "佰": 1418,
      "佳": 1419,
      "併": 1420,
      "佷": 1421,
      "佻": 1422,
      "佼": 1423,
      "佽": 1424,
      "使": 1425,
      "侃": 1426,
      "侄": 1427,
      "侅": 1428,
      "侈": 1429,
      "侉": 1430,
      "例": 1431,
      "侍": 1432,
      "侏": 1433,
      "侑": 1434,
      "侔": 1435,
      "侗": 1436,
      "侘": 1437,
      "侚": 1438,
      "供": 1439,
      "侜": 1440,
      "依": 1441,
      "侞": 1442,
      "侠": 1443,
      "侣": 1444,
      "侥": 1445,
      "侦": 1446,
      "侧": 1447,
      "侨": 1448,
      "侩": 1449,
      "侪": 1450,
      "侬": 1451,
      "侮": 1452,
      "侯": 1453,
      "侵": 1454,
      "侶": 1455,
      "便": 1456,
      "俀": 1457,
      "促": 1458,
      "俄": 1459,
      "俅": 1460,
      "俊": 1461,
      "俋": 1462,
      "俎": 1463,
      "俏": 1464,
      "俐": 1465,
      "俑": 1466,
      "俗": 1467,
      "俘": 1468,
      "俚": 1469,
      "保": 1470,
      "俞": 1471,
      "俟": 1472,
      "俠": 1473,
      "信": 1474,
      "俣": 1475,
      "俦": 1476,
      "俨": 1477,
      "俩": 1478,
      "俪": 1479,
      "俫": 1480,
      "俭": 1481,
      "修": 1482,
      "俯": 1483,
      "俰": 1484,
      "俱": 1485,
      "俳": 1486,
      "俴": 1487,
      "俵": 1488,
      "俶": 1489,
      "俸": 1490,
      "俺": 1491,
      "俾": 1492,
      "倆": 1493,
      "倉": 1494,
      "倌": 1495,
      "倍": 1496,
      "倏": 1497,
      "們": 1498,
      "倒": 1499,
      "倔": 1500,
      "倖": 1501,
      "倘": 1502,
      "候": 1503,
      "倚": 1504,
      "倛": 1505,
      "倜": 1506,
      "借": 1507,
      "倡": 1508,
      "倢": 1509,
      "値": 1510,
      "倦": 1511,
      "倧": 1512,
      "倨": 1513,
      "倩": 1514,
      "倪": 1515,
      "倫": 1516,
      "倬": 1517,
      "倭": 1518,
      "倮": 1519,
      "倰": 1520,
      "倳": 1521,
      "倶": 1522,
      "债": 1523,
      "倻": 1524,
      "值": 1525,
      "倾": 1526,
      "偁": 1527,
      "偃": 1528,
      "偆": 1529,
      "假": 1530,
      "偈": 1531,
      "偉": 1532,
      "偌": 1533,
      "偎": 1534,
      "偏": 1535,
      "偕": 1536,
      "做": 1537,
      "停": 1538,
      "健": 1539,
      "偲": 1540,
      "側": 1541,
      "偵": 1542,
      "偶": 1543,
      "偷": 1544,
      "偸": 1545,
      "偻": 1546,
      "偽": 1547,
      "偿": 1548,
      "傀": 1549,
      "傅": 1550,
      "傈": 1551,
      "傍": 1552,
      "傑": 1553,
      "傘": 1554,
      "備": 1555,
      "傢": 1556,
      "傣": 1557,
      "傥": 1558,
      "傧": 1559,
      "储": 1560,
      "傩": 1561,
      "傪": 1562,
      "催": 1563,
      "傭": 1564,
      "傲": 1565,
      "傳": 1566,
      "債": 1567,
      "傷": 1568,
      "傹": 1569,
      "傻": 1570,
      "傾": 1571,
      "僅": 1572,
      "働": 1573,
      "像": 1574,
      "僕": 1575,
      "僖": 1576,
      "僚": 1577,
      "僧": 1578,
      "僭": 1579,
      "僮": 1580,
      "僰": 1581,
      "僱": 1582,
      "僳": 1583,
      "僵": 1584,
      "僸": 1585,
      "價": 1586,
      "僻": 1587,
      "儀": 1588,
      "億": 1589,
      "儅": 1590,
      "儆": 1591,
      "儋": 1592,
      "儒": 1593,
      "儘": 1594,
      "償": 1595,
      "儡": 1596,
      "優": 1597,
      "儲": 1598,
      "儿": 1599,
      "兀": 1600,
      "允": 1601,
      "元": 1602,
      "兄": 1603,
      "充": 1604,
      "兆": 1605,
      "兇": 1606,
      "先": 1607,
      "光": 1608,
      "兊": 1609,
      "克": 1610,
      "免": 1611,
      "兑": 1612,
      "兒": 1613,
      "兔": 1614,
      "兖": 1615,
      "党": 1616,
      "兜": 1617,
      "兢": 1618,
      "入": 1619,
      "內": 1620,
      "全": 1621,
      "兩": 1622,
      "八": 1623,
      "公": 1624,
      "六": 1625,
      "兮": 1626,
      "兰": 1627,
      "共": 1628,
      "兲": 1629,
      "关": 1630,
      "兴": 1631,
      "兵": 1632,
      "其": 1633,
      "具": 1634,
      "典": 1635,
      "兹": 1636,
      "养": 1637,
      "兼": 1638,
      "兽": 1639,
      "冀": 1640,
      "冂": 1641,
      "内": 1642,
      "円": 1643,
      "冇": 1644,
      "冈": 1645,
      "冉": 1646,
      "冊": 1647,
      "册": 1648,
      "再": 1649,
      "冑": 1650,
      "冒": 1651,
      "冕": 1652,
      "冖": 1653,
      "冗": 1654,
      "写": 1655,
      "冚": 1656,
      "军": 1657,
      "农": 1658,
      "冝": 1659,
      "冠": 1660,
      "冢": 1661,
      "冤": 1662,
      "冥": 1663,
      "冧": 1664,
      "冬": 1665,
      "冯": 1666,
      "冰": 1667,
      "冲": 1668,
      "决": 1669,
      "冴": 1670,
      "况": 1671,
      "冶": 1672,
      "冷": 1673,
      "冻": 1674,
      "冼": 1675,
      "冽": 1676,
      "净": 1677,
      "凄": 1678,
      "准": 1679,
      "凇": 1680,
      "凉": 1681,
      "凋": 1682,
      "凌": 1683,
      "减": 1684,
      "凑": 1685,
      "凖": 1686,
      "凛": 1687,
      "凝": 1688,
      "几": 1689,
      "凡": 1690,
      "凤": 1691,
      "処": 1692,
      "凫": 1693,
      "凭": 1694,
      "凯": 1695,
      "凰": 1696,
      "凱": 1697,
      "凳": 1698,
      "凶": 1699,
      "凸": 1700,
      "凹": 1701,
      "出": 1702,
      "击": 1703,
      "凼": 1704,
      "函": 1705,
      "凿": 1706,
      "刀": 1707,
      "刁": 1708,
      "刃": 1709,
      "分": 1710,
      "切": 1711,
      "刈": 1712,
      "刉": 1713,
      "刊": 1714,
      "刋": 1715,
      "刍": 1716,
      "刎": 1717,
      "刑": 1718,
      "划": 1719,
      "刖": 1720,
      "列": 1721,
      "刘": 1722,
      "则": 1723,
      "刚": 1724,
      "创": 1725,
      "初": 1726,
      "删": 1727,
      "判": 1728,
      "別": 1729,
      "刨": 1730,
      "利": 1731,
      "别": 1732,
      "刭": 1733,
      "刮": 1734,
      "到": 1735,
      "制": 1736,
      "刷": 1737,
      "券": 1738,
      "刹": 1739,
      "刺": 1740,
      "刻": 1741,
      "刽": 1742,
      "剀": 1743,
      "剁": 1744,
      "剂": 1745,
      "剃": 1746,
      "則": 1747,
      "剉": 1748,
      "削": 1749,
      "剌": 1750,
      "前": 1751,
      "剎": 1752,
      "剐": 1753,
      "剑": 1754,
      "剒": 1755,
      "剔": 1756,
      "剕": 1757,
      "剖": 1758,
      "剛": 1759,
      "剜": 1760,
      "剝": 1761,
      "剞": 1762,
      "剤": 1763,
      "剥": 1764,
      "剧": 1765,
      "剩": 1766,
      "剪": 1767,
      "副": 1768,
      "割": 1769,
      "創": 1770,
      "剷": 1771,
      "剽": 1772,
      "剿": 1773,
      "劀": 1774,
      "劂": 1775,
      "劃": 1776,
      "劇": 1777,
      "劈": 1778,
      "劉": 1779,
      "劍": 1780,
      "劑": 1781,
      "力": 1782,
      "劝": 1783,
      "办": 1784,
      "功": 1785,
      "加": 1786,
      "务": 1787,
      "劢": 1788,
      "劣": 1789,
      "动": 1790,
      "助": 1791,
      "努": 1792,
      "劫": 1793,
      "劭": 1794,
      "励": 1795,
      "劲": 1796,
      "劳": 1797,
      "劵": 1798,
      "劾": 1799,
      "势": 1800,
      "勃": 1801,
      "勇": 1802,
      "勉": 1803,
      "勋": 1804,
      "勐": 1805,
      "勒": 1806,
      "動": 1807,
      "勘": 1808,
      "務": 1809,
      "勚": 1810,
      "勛": 1811,
      "勝": 1812,
      "勞": 1813,
      "募": 1814,
      "勢": 1815,
      "勤": 1816,
      "勰": 1817,
      "勵": 1818,
      "勸": 1819,
      "勺": 1820,
      "勻": 1821,
      "勾": 1822,
      "勿": 1823,
      "匀": 1824,
      "包": 1825,
      "匆": 1826,
      "匈": 1827,
      "匍": 1828,
      "匐": 1829,
      "匕": 1830,
      "化": 1831,
      "北": 1832,
      "匙": 1833,
      "匝": 1834,
      "匠": 1835,
      "匡": 1836,
      "匣": 1837,
      "匦": 1838,
      "匩": 1839,
      "匪": 1840,
      "匮": 1841,
      "匯": 1842,
      "匹": 1843,
      "区": 1844,
      "医": 1845,
      "匼": 1846,
      "匾": 1847,
      "匿": 1848,
      "區": 1849,
      "十": 1850,
      "千": 1851,
      "卅": 1852,
      "升": 1853,
      "午": 1854,
      "卉": 1855,
      "半": 1856,
      "卍": 1857,
      "华": 1858,
      "协": 1859,
      "卑": 1860,
      "卒": 1861,
      "卓": 1862,
      "協": 1863,
      "单": 1864,
      "卖": 1865,
      "南": 1866,
      "卙": 1867,
      "博": 1868,
      "卜": 1869,
      "卞": 1870,
      "卟": 1871,
      "占": 1872,
      "卡": 1873,
      "卢": 1874,
      "卣": 1875,
      "卤": 1876,
      "卦": 1877,
      "卧": 1878,
      "卫": 1879,
      "卮": 1880,
      "卯": 1881,
      "印": 1882,
      "危": 1883,
      "即": 1884,
      "却": 1885,
      "卵": 1886,
      "卷": 1887,
      "卸": 1888,
      "卻": 1889,
      "卽": 1890,
      "卿": 1891,
      "厂": 1892,
      "厄": 1893,
      "厅": 1894,
      "历": 1895,
      "厉": 1896,
      "压": 1897,
      "厌": 1898,
      "厍": 1899,
      "厓": 1900,
      "厕": 1901,
      "厘": 1902,
      "厚": 1903,
      "厝": 1904,
      "原": 1905,
      "厢": 1906,
      "厥": 1907,
      "厦": 1908,
      "厨": 1909,
      "厩": 1910,
      "厭": 1911,
      "厮": 1912,
      "厲": 1913,
      "厷": 1914,
      "去": 1915,
      "县": 1916,
      "叁": 1917,
      "参": 1918,
      "參": 1919,
      "又": 1920,
      "叉": 1921,
      "及": 1922,
      "友": 1923,
      "双": 1924,
      "反": 1925,
      "収": 1926,
      "发": 1927,
      "叔": 1928,
      "取": 1929,
      "受": 1930,
      "变": 1931,
      "叙": 1932,
      "叛": 1933,
      "叟": 1934,
      "叠": 1935,
      "叡": 1936,
      "叢": 1937,
      "口": 1938,
      "古": 1939,
      "句": 1940,
      "另": 1941,
      "叨": 1942,
      "叩": 1943,
      "只": 1944,
      "叫": 1945,
      "召": 1946,
      "叭": 1947,
      "叮": 1948,
      "可": 1949,
      "台": 1950,
      "叱": 1951,
      "史": 1952,
      "右": 1953,
      "叴": 1954,
      "叵": 1955,
      "叶": 1956,
      "号": 1957,
      "司": 1958,
      "叹": 1959,
      "叻": 1960,
      "叼": 1961,
      "叽": 1962,
      "吁": 1963,
      "吃": 1964,
      "各": 1965,
      "吆": 1966,
      "合": 1967,
      "吉": 1968,
      "吊": 1969,
      "吋": 1970,
      "同": 1971,
      "名": 1972,
      "后": 1973,
      "吏": 1974,
      "吐": 1975,
      "向": 1976,
      "吒": 1977,
      "吓": 1978,
      "吔": 1979,
      "吕": 1980,
      "吖": 1981,
      "吗": 1982,
      "君": 1983,
      "吝": 1984,
      "吞": 1985,
      "吟": 1986,
      "吠": 1987,
      "吡": 1988,
      "吥": 1989,
      "否": 1990,
      "吧": 1991,
      "吨": 1992,
      "吩": 1993,
      "含": 1994,
      "听": 1995,
      "吭": 1996,
      "吮": 1997,
      "启": 1998,
      "吱": 1999,
      "吲": 2000,
      "吳": 2001,
      "吴": 2002,
      "吵": 2003,
      "吶": 2004,
      "吸": 2005,
      "吹": 2006,
      "吻": 2007,
      "吼": 2008,
      "吽": 2009,
      "吾": 2010,
      "呀": 2011,
      "呁": 2012,
      "呂": 2013,
      "呃": 2014,
      "呆": 2015,
      "呈": 2016,
      "告": 2017,
      "呋": 2018,
      "呎": 2019,
      "呐": 2020,
      "呑": 2021,
      "呒": 2022,
      "呓": 2023,
      "呔": 2024,
      "呕": 2025,
      "呖": 2026,
      "呗": 2027,
      "员": 2028,
      "呛": 2029,
      "呜": 2030,
      "呢": 2031,
      "呣": 2032,
      "呤": 2033,
      "呦": 2034,
      "呧": 2035,
      "周": 2036,
      "呫": 2037,
      "呯": 2038,
      "呱": 2039,
      "呲": 2040,
      "味": 2041,
      "呴": 2042,
      "呵": 2043,
      "呶": 2044,
      "呷": 2045,
      "呸": 2046,
      "呻": 2047,
      "呼": 2048,
      "命": 2049,
      "呾": 2050,
      "咀": 2051,
      "咁": 2052,
      "咂": 2053,
      "咄": 2054,
      "咆": 2055,
      "咋": 2056,
      "和": 2057,
      "咎": 2058,
      "咏": 2059,
      "咐": 2060,
      "咒": 2061,
      "咔": 2062,
      "咕": 2063,
      "咖": 2064,
      "咗": 2065,
      "咙": 2066,
      "咚": 2067,
      "咛": 2068,
      "咜": 2069,
      "咝": 2070,
      "咣": 2071,
      "咤": 2072,
      "咦": 2073,
      "咧": 2074,
      "咨": 2075,
      "咩": 2076,
      "咪": 2077,
      "咫": 2078,
      "咬": 2079,
      "咭": 2080,
      "咯": 2081,
      "咱": 2082,
      "咲": 2083,
      "咳": 2084,
      "咸": 2085,
      "咻": 2086,
      "咽": 2087,
      "咿": 2088,
      "哀": 2089,
      "品": 2090,
      "哂": 2091,
      "哄": 2092,
      "哆": 2093,
      "哇": 2094,
      "哈": 2095,
      "哉": 2096,
      "哋": 2097,
      "哌": 2098,
      "响": 2099,
      "哎": 2100,
      "哏": 2101,
      "哐": 2102,
      "哑": 2103,
      "哒": 2104,
      "哓": 2105,
      "哔": 2106,
      "哗": 2107,
      "哚": 2108,
      "哝": 2109,
      "哞": 2110,
      "哟": 2111,
      "員": 2112,
      "哥": 2113,
      "哦": 2114,
      "哧": 2115,
      "哨": 2116,
      "哩": 2117,
      "哪": 2118,
      "哭": 2119,
      "哮": 2120,
      "哲": 2121,
      "哺": 2122,
      "哼": 2123,
      "哽": 2124,
      "唁": 2125,
      "唆": 2126,
      "唇": 2127,
      "唉": 2128,
      "唏": 2129,
      "唐": 2130,
      "唑": 2131,
      "唒": 2132,
      "唔": 2133,
      "唗": 2134,
      "唛": 2135,
      "唠": 2136,
      "唢": 2137,
      "唤": 2138,
      "唧": 2139,
      "唬": 2140,
      "售": 2141,
      "唯": 2142,
      "唰": 2143,
      "唱": 2144,
      "唳": 2145,
      "唵": 2146,
      "唷": 2147,
      "唸": 2148,
      "唾": 2149,
      "唿": 2150,
      "啁": 2151,
      "啃": 2152,
      "啄": 2153,
      "商": 2154,
      "啉": 2155,
      "啊": 2156,
      "啋": 2157,
      "啎": 2158,
      "問": 2159,
      "啐": 2160,
      "啕": 2161,
      "啖": 2162,
      "啜": 2163,
      "啝": 2164,
      "啟": 2165,
      "啡": 2166,
      "啤": 2167,
      "啥": 2168,
      "啦": 2169,
      "啧": 2170,
      "啩": 2171,
      "啪": 2172,
      "啫": 2173,
      "啬": 2174,
      "啭": 2175,
      "啮": 2176,
      "啰": 2177,
      "啱": 2178,
      "啲": 2179,
      "啵": 2180,
      "啶": 2181,
      "啷": 2182,
      "啸": 2183,
      "啻": 2184,
      "啼": 2185,
      "啾": 2186,
      "喀": 2187,
      "喁": 2188,
      "喂": 2189,
      "喃": 2190,
      "善": 2191,
      "喆": 2192,
      "喇": 2193,
      "喈": 2194,
      "喉": 2195,
      "喊": 2196,
      "喋": 2197,
      "喌": 2198,
      "喏": 2199,
      "喑": 2200,
      "喔": 2201,
      "喘": 2202,
      "喙": 2203,
      "喚": 2204,
      "喜": 2205,
      "喝": 2206,
      "喟": 2207,
      "喧": 2208,
      "喨": 2209,
      "喪": 2210,
      "喬": 2211,
      "喭": 2212,
      "單": 2213,
      "喱": 2214,
      "喲": 2215,
      "喳": 2216,
      "喵": 2217,
      "喷": 2218,
      "喹": 2219,
      "喺": 2220,
      "喻": 2221,
      "喽": 2222,
      "嗄": 2223,
      "嗅": 2224,
      "嗉": 2225,
      "嗌": 2226,
      "嗎": 2227,
      "嗐": 2228,
      "嗑": 2229,
      "嗒": 2230,
      "嗓": 2231,
      "嗔": 2232,
      "嗖": 2233,
      "嗜": 2234,
      "嗝": 2235,
      "嗡": 2236,
      "嗣": 2237,
      "嗤": 2238,
      "嗥": 2239,
      "嗦": 2240,
      "嗨": 2241,
      "嗪": 2242,
      "嗫": 2243,
      "嗬": 2244,
      "嗯": 2245,
      "嗱": 2246,
      "嗲": 2247,
      "嗳": 2248,
      "嗵": 2249,
      "嗷": 2250,
      "嗽": 2251,
      "嗾": 2252,
      "嘀": 2253,
      "嘁": 2254,
      "嘅": 2255,
      "嘆": 2256,
      "嘈": 2257,
      "嘉": 2258,
      "嘌": 2259,
      "嘎": 2260,
      "嘏": 2261,
      "嘔": 2262,
      "嘗": 2263,
      "嘘": 2264,
      "嘚": 2265,
      "嘛": 2266,
      "嘞": 2267,
      "嘟": 2268,
      "嘢": 2269,
      "嘣": 2270,
      "嘤": 2271,
      "嘦": 2272,
      "嘧": 2273,
      "嘬": 2274,
      "嘭": 2275,
      "嘱": 2276,
      "嘲": 2277,
      "嘴": 2278,
      "嘶": 2279,
      "嘹": 2280,
      "嘻": 2281,
      "嘿": 2282,
      "噁": 2283,
      "噉": 2284,
      "噌": 2285,
      "噎": 2286,
      "噐": 2287,
      "噓": 2288,
      "噔": 2289,
      "噗": 2290,
      "噘": 2291,
      "噙": 2292,
      "噜": 2293,
      "噢": 2294,
      "噤": 2295,
      "器": 2296,
      "噩": 2297,
      "噪": 2298,
      "噫": 2299,
      "噬": 2300,
      "噱": 2301,
      "噵": 2302,
      "噶": 2303,
      "噸": 2304,
      "噻": 2305,
      "噼": 2306,
      "嚅": 2307,
      "嚇": 2308,
      "嚎": 2309,
      "嚏": 2310,
      "嚒": 2311,
      "嚓": 2312,
      "嚟": 2313,
      "嚣": 2314,
      "嚥": 2315,
      "嚯": 2316,
      "嚴": 2317,
      "嚷": 2318,
      "嚼": 2319,
      "囊": 2320,
      "囍": 2321,
      "囓": 2322,
      "囔": 2323,
      "囖": 2324,
      "囗": 2325,
      "囘": 2326,
      "囚": 2327,
      "四": 2328,
      "囝": 2329,
      "回": 2330,
      "囟": 2331,
      "因": 2332,
      "囡": 2333,
      "团": 2334,
      "団": 2335,
      "囤": 2336,
      "囧": 2337,
      "囪": 2338,
      "囫": 2339,
      "囬": 2340,
      "园": 2341,
      "囮": 2342,
      "囯": 2343,
      "困": 2344,
      "囱": 2345,
      "围": 2346,
      "囵": 2347,
      "囷": 2348,
      "囹": 2349,
      "固": 2350,
      "国": 2351,
      "图": 2352,
      "囿": 2353,
      "圃": 2354,
      "圄": 2355,
      "圆": 2356,
      "圈": 2357,
      "圌": 2358,
      "圍": 2359,
      "園": 2360,
      "圓": 2361,
      "圖": 2362,
      "團": 2363,
      "圜": 2364,
      "圝": 2365,
      "土": 2366,
      "圣": 2367,
      "在": 2368,
      "圩": 2369,
      "圪": 2370,
      "圭": 2371,
      "圮": 2372,
      "地": 2373,
      "圳": 2374,
      "圴": 2375,
      "圶": 2376,
      "圸": 2377,
      "圹": 2378,
      "场": 2379,
      "圻": 2380,
      "圾": 2381,
      "址": 2382,
      "坂": 2383,
      "均": 2384,
      "坊": 2385,
      "坍": 2386,
      "坎": 2387,
      "坏": 2388,
      "坐": 2389,
      "坑": 2390,
      "块": 2391,
      "坚": 2392,
      "坛": 2393,
      "坜": 2394,
      "坝": 2395,
      "坞": 2396,
      "坟": 2397,
      "坠": 2398,
      "坡": 2399,
      "坤": 2400,
      "坦": 2401,
      "坨": 2402,
      "坩": 2403,
      "坪": 2404,
      "坭": 2405,
      "坯": 2406,
      "坰": 2407,
      "坳": 2408,
      "坴": 2409,
      "坷": 2410,
      "坻": 2411,
      "垀": 2412,
      "垂": 2413,
      "垃": 2414,
      "垄": 2415,
      "垅": 2416,
      "垆": 2417,
      "型": 2418,
      "垒": 2419,
      "垛": 2420,
      "垠": 2421,
      "垢": 2422,
      "垣": 2423,
      "垤": 2424,
      "垦": 2425,
      "垩": 2426,
      "垫": 2427,
      "垭": 2428,
      "垮": 2429,
      "垸": 2430,
      "埂": 2431,
      "埃": 2432,
      "埈": 2433,
      "埋": 2434,
      "埌": 2435,
      "城": 2436,
      "埔": 2437,
      "埕": 2438,
      "埗": 2439,
      "埙": 2440,
      "埚": 2441,
      "埜": 2442,
      "埝": 2443,
      "域": 2444,
      "埠": 2445,
      "埤": 2446,
      "埭": 2447,
      "埲": 2448,
      "埵": 2449,
      "執": 2450,
      "埸": 2451,
      "培": 2452,
      "基": 2453,
      "埻": 2454,
      "埼": 2455,
      "堀": 2456,
      "堂": 2457,
      "堃": 2458,
      "堅": 2459,
      "堆": 2460,
      "堇": 2461,
      "堈": 2462,
      "堉": 2463,
      "堋": 2464,
      "堍": 2465,
      "堐": 2466,
      "堑": 2467,
      "堕": 2468,
      "堙": 2469,
      "堡": 2470,
      "堤": 2471,
      "堪": 2472,
      "堰": 2473,
      "報": 2474,
      "場": 2475,
      "堵": 2476,
      "堿": 2477,
      "塊": 2478,
      "塌": 2479,
      "塍": 2480,
      "塑": 2481,
      "塔": 2482,
      "塗": 2483,
      "塘": 2484,
      "塚": 2485,
      "塞": 2486,
      "塢": 2487,
      "塩": 2488,
      "填": 2489,
      "塬": 2490,
      "塵": 2491,
      "塹": 2492,
      "塾": 2493,
      "墁": 2494,
      "境": 2495,
      "墅": 2496,
      "墉": 2497,
      "墒": 2498,
      "墓": 2499,
      "増": 2500,
      "墘": 2501,
      "墙": 2502,
      "墜": 2503,
      "增": 2504,
      "墟": 2505,
      "墨": 2506,
      "墩": 2507,
      "墬": 2508,
      "墳": 2509,
      "墹": 2510,
      "墿": 2511,
      "壁": 2512,
      "壅": 2513,
      "壆": 2514,
      "壇": 2515,
      "壑": 2516,
      "壓": 2517,
      "壕": 2518,
      "壘": 2519,
      "壞": 2520,
      "壤": 2521,
      "士": 2522,
      "壬": 2523,
      "壮": 2524,
      "壯": 2525,
      "声": 2526,
      "壳": 2527,
      "壶": 2528,
      "壸": 2529,
      "壹": 2530,
      "壺": 2531,
      "壽": 2532,
      "处": 2533,
      "备": 2534,
      "変": 2535,
      "复": 2536,
      "夏": 2537,
      "夔": 2538,
      "夕": 2539,
      "外": 2540,
      "夙": 2541,
      "多": 2542,
      "夛": 2543,
      "夜": 2544,
      "够": 2545,
      "夠": 2546,
      "夢": 2547,
      "夤": 2548,
      "夥": 2549,
      "大": 2550,
      "天": 2551,
      "太": 2552,
      "夫": 2553,
      "夭": 2554,
      "央": 2555,
      "夯": 2556,
      "失": 2557,
      "头": 2558,
      "夷": 2559,
      "夸": 2560,
      "夹": 2561,
      "夺": 2562,
      "夾": 2563,
      "奀": 2564,
      "奁": 2565,
      "奂": 2566,
      "奄": 2567,
      "奇": 2568,
      "奈": 2569,
      "奉": 2570,
      "奋": 2571,
      "奌": 2572,
      "奎": 2573,
      "奏": 2574,
      "契": 2575,
      "奓": 2576,
      "奔": 2577,
      "奕": 2578,
      "奖": 2579,
      "套": 2580,
      "奘": 2581,
      "奚": 2582,
      "奠": 2583,
      "奢": 2584,
      "奤": 2585,
      "奥": 2586,
      "奧": 2587,
      "奪": 2588,
      "奬": 2589,
      "奮": 2590,
      "女": 2591,
      "奴": 2592,
      "奶": 2593,
      "奸": 2594,
      "她": 2595,
      "奻": 2596,
      "好": 2597,
      "奾": 2598,
      "妁": 2599,
      "如": 2600,
      "妃": 2601,
      "妄": 2602,
      "妆": 2603,
      "妇": 2604,
      "妈": 2605,
      "妊": 2606,
      "妍": 2607,
      "妏": 2608,
      "妒": 2609,
      "妓": 2610,
      "妖": 2611,
      "妗": 2612,
      "妙": 2613,
      "妝": 2614,
      "妞": 2615,
      "妢": 2616,
      "妥": 2617,
      "妦": 2618,
      "妨": 2619,
      "妩": 2620,
      "妪": 2621,
      "妫": 2622,
      "妮": 2623,
      "妯": 2624,
      "妲": 2625,
      "妳": 2626,
      "妹": 2627,
      "妺": 2628,
      "妻": 2629,
      "妾": 2630,
      "姆": 2631,
      "姊": 2632,
      "始": 2633,
      "姐": 2634,
      "姑": 2635,
      "姓": 2636,
      "委": 2637,
      "姗": 2638,
      "姘": 2639,
      "姚": 2640,
      "姜": 2641,
      "姝": 2642,
      "姣": 2643,
      "姥": 2644,
      "姦": 2645,
      "姨": 2646,
      "姪": 2647,
      "姬": 2648,
      "姹": 2649,
      "姻": 2650,
      "姿": 2651,
      "威": 2652,
      "娃": 2653,
      "娄": 2654,
      "娅": 2655,
      "娆": 2656,
      "娇": 2657,
      "娈": 2658,
      "娉": 2659,
      "娊": 2660,
      "娑": 2661,
      "娓": 2662,
      "娘": 2663,
      "娛": 2664,
      "娜": 2665,
      "娟": 2666,
      "娠": 2667,
      "娣": 2668,
      "娥": 2669,
      "娩": 2670,
      "娱": 2671,
      "娲": 2672,
      "娴": 2673,
      "娶": 2674,
      "娸": 2675,
      "娼": 2676,
      "娿": 2677,
      "婀": 2678,
      "婆": 2679,
      "婉": 2680,
      "婊": 2681,
      "婓": 2682,
      "婕": 2683,
      "婚": 2684,
      "婢": 2685,
      "婥": 2686,
      "婦": 2687,
      "婧": 2688,
      "婪": 2689,
      "婴": 2690,
      "婵": 2691,
      "婶": 2692,
      "婷": 2693,
      "婺": 2694,
      "婿": 2695,
      "媒": 2696,
      "媕": 2697,
      "媚": 2698,
      "媛": 2699,
      "媞": 2700,
      "媤": 2701,
      "媪": 2702,
      "媲": 2703,
      "媳": 2704,
      "媼": 2705,
      "媽": 2706,
      "媾": 2707,
      "嫁": 2708,
      "嫂": 2709,
      "嫉": 2710,
      "嫌": 2711,
      "嫔": 2712,
      "嫖": 2713,
      "嫘": 2714,
      "嫚": 2715,
      "嫡": 2716,
      "嫣": 2717,
      "嫦": 2718,
      "嫩": 2719,
      "嫫": 2720,
      "嫭": 2721,
      "嫲": 2722,
      "嬅": 2723,
      "嬉": 2724,
      "嬑": 2725,
      "嬖": 2726,
      "嬗": 2727,
      "嬛": 2728,
      "嬰": 2729,
      "嬲": 2730,
      "嬴": 2731,
      "嬷": 2732,
      "孀": 2733,
      "子": 2734,
      "孑": 2735,
      "孒": 2736,
      "孔": 2737,
      "孕": 2738,
      "字": 2739,
      "存": 2740,
      "孙": 2741,
      "孚": 2742,
      "孛": 2743,
      "孜": 2744,
      "孝": 2745,
      "孟": 2746,
      "孢": 2747,
      "季": 2748,
      "孤": 2749,
      "学": 2750,
      "孩": 2751,
      "孪": 2752,
      "孫": 2753,
      "孬": 2754,
      "孰": 2755,
      "孱": 2756,
      "孳": 2757,
      "孵": 2758,
      "學": 2759,
      "孺": 2760,
      "孽": 2761,
      "宁": 2762,
      "它": 2763,
      "宅": 2764,
      "宇": 2765,
      "守": 2766,
      "安": 2767,
      "宋": 2768,
      "完": 2769,
      "宎": 2770,
      "宏": 2771,
      "宒": 2772,
      "宓": 2773,
      "宕": 2774,
      "宗": 2775,
      "官": 2776,
      "宙": 2777,
      "定": 2778,
      "宛": 2779,
      "宜": 2780,
      "宝": 2781,
      "实": 2782,
      "宠": 2783,
      "审": 2784,
      "客": 2785,
      "宣": 2786,
      "室": 2787,
      "宥": 2788,
      "宦": 2789,
      "宪": 2790,
      "宫": 2791,
      "宮": 2792,
      "宰": 2793,
      "害": 2794,
      "宴": 2795,
      "宵": 2796,
      "家": 2797,
      "宸": 2798,
      "容": 2799,
      "宽": 2800,
      "宾": 2801,
      "宿": 2802,
      "寀": 2803,
      "寁": 2804,
      "寂": 2805,
      "寃": 2806,
      "寄": 2807,
      "寅": 2808,
      "密": 2809,
      "寇": 2810,
      "富": 2811,
      "寐": 2812,
      "寒": 2813,
      "寓": 2814,
      "寘": 2815,
      "寛": 2816,
      "寝": 2817,
      "寞": 2818,
      "察": 2819,
      "寡": 2820,
      "寤": 2821,
      "寥": 2822,
      "實": 2823,
      "寧": 2824,
      "寨": 2825,
      "審": 2826,
      "寫": 2827,
      "寬": 2828,
      "寮": 2829,
      "寯": 2830,
      "寰": 2831,
      "寳": 2832,
      "寵": 2833,
      "寶": 2834,
      "寸": 2835,
      "对": 2836,
      "寺": 2837,
      "寻": 2838,
      "导": 2839,
      "対": 2840,
      "寿": 2841,
      "封": 2842,
      "射": 2843,
      "尅": 2844,
      "将": 2845,
      "將": 2846,
      "專": 2847,
      "尉": 2848,
      "尊": 2849,
      "尋": 2850,
      "對": 2851,
      "導": 2852,
      "小": 2853,
      "尐": 2854,
      "少": 2855,
      "尒": 2856,
      "尓": 2857,
      "尔": 2858,
      "尕": 2859,
      "尖": 2860,
      "尘": 2861,
      "尙": 2862,
      "尚": 2863,
      "尝": 2864,
      "尢": 2865,
      "尤": 2866,
      "尥": 2867,
      "尧": 2868,
      "尨": 2869,
      "尬": 2870,
      "就": 2871,
      "尴": 2872,
      "尸": 2873,
      "尹": 2874,
      "尺": 2875,
      "尻": 2876,
      "尼": 2877,
      "尽": 2878,
      "尾": 2879,
      "尿": 2880,
      "局": 2881,
      "屁": 2882,
      "层": 2883,
      "屃": 2884,
      "屄": 2885,
      "居": 2886,
      "屆": 2887,
      "屈": 2888,
      "屉": 2889,
      "届": 2890,
      "屋": 2891,
      "屌": 2892,
      "屍": 2893,
      "屎": 2894,
      "屏": 2895,
      "屐": 2896,
      "屑": 2897,
      "展": 2898,
      "屙": 2899,
      "属": 2900,
      "屠": 2901,
      "屡": 2902,
      "屣": 2903,
      "層": 2904,
      "履": 2905,
      "屦": 2906,
      "屬": 2907,
      "屯": 2908,
      "山": 2909,
      "屹": 2910,
      "屺": 2911,
      "屿": 2912,
      "岁": 2913,
      "岂": 2914,
      "岆": 2915,
      "岈": 2916,
      "岌": 2917,
      "岐": 2918,
      "岑": 2919,
      "岔": 2920,
      "岖": 2921,
      "岗": 2922,
      "岘": 2923,
      "岙": 2924,
      "岚": 2925,
      "岛": 2926,
      "岜": 2927,
      "岡": 2928,
      "岢": 2929,
      "岣": 2930,
      "岩": 2931,
      "岫": 2932,
      "岬": 2933,
      "岭": 2934,
      "岱": 2935,
      "岳": 2936,
      "岷": 2937,
      "岸": 2938,
      "岺": 2939,
      "岿": 2940,
      "峁": 2941,
      "峄": 2942,
      "峇": 2943,
      "峈": 2944,
      "峋": 2945,
      "峒": 2946,
      "峓": 2947,
      "峕": 2948,
      "峙": 2949,
      "峟": 2950,
      "峡": 2951,
      "峣": 2952,
      "峤": 2953,
      "峥": 2954,
      "峦": 2955,
      "峨": 2956,
      "峩": 2957,
      "峪": 2958,
      "峭": 2959,
      "峰": 2960,
      "島": 2961,
      "峻": 2962,
      "崀": 2963,
      "崁": 2964,
      "崂": 2965,
      "崃": 2966,
      "崄": 2967,
      "崆": 2968,
      "崇": 2969,
      "崋": 2970,
      "崎": 2971,
      "崔": 2972,
      "崖": 2973,
      "崙": 2974,
      "崛": 2975,
      "崤": 2976,
      "崧": 2977,
      "崩": 2978,
      "崭": 2979,
      "崮": 2980,
      "崴": 2981,
      "崽": 2982,
      "崾": 2983,
      "嵇": 2984,
      "嵊": 2985,
      "嵋": 2986,
      "嵌": 2987,
      "嵗": 2988,
      "嵘": 2989,
      "嵛": 2990,
      "嵩": 2991,
      "嵬": 2992,
      "嵯": 2993,
      "嵴": 2994,
      "嵵": 2995,
      "嶂": 2996,
      "嶇": 2997,
      "嶋": 2998,
      "嶙": 2999,
      "嶼": 3000,
      "巃": 3001,
      "巅": 3002,
      "巍": 3003,
      "巓": 3004,
      "川": 3005,
      "州": 3006,
      "巠": 3007,
      "巡": 3008,
      "巢": 3009,
      "工": 3010,
      "左": 3011,
      "巧": 3012,
      "巨": 3013,
      "巩": 3014,
      "巫": 3015,
      "差": 3016,
      "巯": 3017,
      "己": 3018,
      "已": 3019,
      "巳": 3020,
      "巴": 3021,
      "巷": 3022,
      "巻": 3023,
      "巽": 3024,
      "巾": 3025,
      "巿": 3026,
      "帀": 3027,
      "币": 3028,
      "市": 3029,
      "布": 3030,
      "帅": 3031,
      "帆": 3032,
      "师": 3033,
      "希": 3034,
      "帐": 3035,
      "帑": 3036,
      "帕": 3037,
      "帖": 3038,
      "帘": 3039,
      "帙": 3040,
      "帚": 3041,
      "帛": 3042,
      "帜": 3043,
      "帝": 3044,
      "帣": 3045,
      "帥": 3046,
      "带": 3047,
      "帧": 3048,
      "師": 3049,
      "帬": 3050,
      "席": 3051,
      "帮": 3052,
      "帳": 3053,
      "帶": 3054,
      "帷": 3055,
      "常": 3056,
      "帼": 3057,
      "帽": 3058,
      "幂": 3059,
      "幄": 3060,
      "幅": 3061,
      "幌": 3062,
      "幔": 3063,
      "幕": 3064,
      "幗": 3065,
      "幛": 3066,
      "幡": 3067,
      "幢": 3068,
      "幣": 3069,
      "幫": 3070,
      "干": 3071,
      "平": 3072,
      "年": 3073,
      "并": 3074,
      "幷": 3075,
      "幸": 3076,
      "幹": 3077,
      "幺": 3078,
      "幻": 3079,
      "幼": 3080,
      "幽": 3081,
      "幾": 3082,
      "广": 3083,
      "広": 3084,
      "庄": 3085,
      "庆": 3086,
      "庇": 3087,
      "床": 3088,
      "庋": 3089,
      "序": 3090,
      "庐": 3091,
      "库": 3092,
      "应": 3093,
      "底": 3094,
      "庖": 3095,
      "店": 3096,
      "庙": 3097,
      "庚": 3098,
      "府": 3099,
      "庞": 3100,
      "废": 3101,
      "庠": 3102,
      "庥": 3103,
      "度": 3104,
      "座": 3105,
      "庫": 3106,
      "庭": 3107,
      "庵": 3108,
      "庶": 3109,
      "康": 3110,
      "庸": 3111,
      "庾": 3112,
      "廁": 3113,
      "廇": 3114,
      "廉": 3115,
      "廊": 3116,
      "廋": 3117,
      "廌": 3118,
      "廑": 3119,
      "廓": 3120,
      "廖": 3121,
      "廚": 3122,
      "廛": 3123,
      "廠": 3124,
      "廢": 3125,
      "廣": 3126,
      "廨": 3127,
      "廪": 3128,
      "廳": 3129,
      "延": 3130,
      "廷": 3131,
      "廸": 3132,
      "建": 3133,
      "廻": 3134,
      "廿": 3135,
      "开": 3136,
      "弁": 3137,
      "异": 3138,
      "弃": 3139,
      "弄": 3140,
      "弇": 3141,
      "弈": 3142,
      "弊": 3143,
      "弋": 3144,
      "弌": 3145,
      "式": 3146,
      "弑": 3147,
      "弓": 3148,
      "弔": 3149,
      "引": 3150,
      "弗": 3151,
      "弘": 3152,
      "弛": 3153,
      "弟": 3154,
      "张": 3155,
      "弢": 3156,
      "弥": 3157,
      "弦": 3158,
      "弧": 3159,
      "弩": 3160,
      "弭": 3161,
      "弯": 3162,
      "弱": 3163,
      "張": 3164,
      "強": 3165,
      "弹": 3166,
      "强": 3167,
      "弼": 3168,
      "彀": 3169,
      "彈": 3170,
      "彌": 3171,
      "归": 3172,
      "当": 3173,
      "录": 3174,
      "彗": 3175,
      "彝": 3176,
      "彡": 3177,
      "形": 3178,
      "彤": 3179,
      "彥": 3180,
      "彦": 3181,
      "彩": 3182,
      "彪": 3183,
      "彬": 3184,
      "彭": 3185,
      "彰": 3186,
      "影": 3187,
      "彶": 3188,
      "彷": 3189,
      "彸": 3190,
      "役": 3191,
      "彻": 3192,
      "彼": 3193,
      "彿": 3194,
      "往": 3195,
      "征": 3196,
      "径": 3197,
      "待": 3198,
      "徆": 3199,
      "徇": 3200,
      "很": 3201,
      "徉": 3202,
      "徊": 3203,
      "律": 3204,
      "徐": 3205,
      "徑": 3206,
      "徒": 3207,
      "従": 3208,
      "徕": 3209,
      "徖": 3210,
      "得": 3211,
      "徘": 3212,
      "徙": 3213,
      "徜": 3214,
      "從": 3215,
      "御": 3216,
      "徨": 3217,
      "復": 3218,
      "循": 3219,
      "徬": 3220,
      "微": 3221,
      "徳": 3222,
      "徵": 3223,
      "德": 3224,
      "徹": 3225,
      "徼": 3226,
      "徽": 3227,
      "心": 3228,
      "必": 3229,
      "忆": 3230,
      "忌": 3231,
      "忍": 3232,
      "忏": 3233,
      "忐": 3234,
      "忑": 3235,
      "忒": 3236,
      "忖": 3237,
      "志": 3238,
      "忘": 3239,
      "忙": 3240,
      "忝": 3241,
      "忠": 3242,
      "忡": 3243,
      "忤": 3244,
      "忧": 3245,
      "忪": 3246,
      "快": 3247,
      "忭": 3248,
      "忱": 3249,
      "忳": 3250,
      "念": 3251,
      "忷": 3252,
      "忸": 3253,
      "忻": 3254,
      "忽": 3255,
      "忾": 3256,
      "忿": 3257,
      "怀": 3258,
      "态": 3259,
      "怂": 3260,
      "怄": 3261,
      "怅": 3262,
      "怆": 3263,
      "怉": 3264,
      "怍": 3265,
      "怎": 3266,
      "怏": 3267,
      "怒": 3268,
      "怓": 3269,
      "怔": 3270,
      "怕": 3271,
      "怖": 3272,
      "怙": 3273,
      "怜": 3274,
      "思": 3275,
      "怠": 3276,
      "怡": 3277,
      "怢": 3278,
      "急": 3279,
      "怦": 3280,
      "性": 3281,
      "怨": 3282,
      "怩": 3283,
      "怪": 3284,
      "怯": 3285,
      "怵": 3286,
      "总": 3287,
      "怼": 3288,
      "恀": 3289,
      "恁": 3290,
      "恂": 3291,
      "恃": 3292,
      "恅": 3293,
      "恆": 3294,
      "恋": 3295,
      "恍": 3296,
      "恏": 3297,
      "恐": 3298,
      "恒": 3299,
      "恕": 3300,
      "恙": 3301,
      "恚": 3302,
      "恠": 3303,
      "恢": 3304,
      "恣": 3305,
      "恤": 3306,
      "恥": 3307,
      "恨": 3308,
      "恩": 3309,
      "恪": 3310,
      "恫": 3311,
      "恬": 3312,
      "恭": 3313,
      "息": 3314,
      "恰": 3315,
      "恳": 3316,
      "恴": 3317,
      "恶": 3318,
      "恸": 3319,
      "恹": 3320,
      "恺": 3321,
      "恻": 3322,
      "恼": 3323,
      "恽": 3324,
      "恿": 3325,
      "悄": 3326,
      "悉": 3327,
      "悌": 3328,
      "悍": 3329,
      "悒": 3330,
      "悔": 3331,
      "悖": 3332,
      "悚": 3333,
      "悛": 3334,
      "悜": 3335,
      "悝": 3336,
      "悟": 3337,
      "悠": 3338,
      "患": 3339,
      "悦": 3340,
      "您": 3341,
      "悫": 3342,
      "悬": 3343,
      "悭": 3344,
      "悯": 3345,
      "悱": 3346,
      "悲": 3347,
      "悳": 3348,
      "悴": 3349,
      "悶": 3350,
      "悸": 3351,
      "悻": 3352,
      "悼": 3353,
      "情": 3354,
      "惆": 3355,
      "惇": 3356,
      "惊": 3357,
      "惋": 3358,
      "惑": 3359,
      "惕": 3360,
      "惗": 3361,
      "惘": 3362,
      "惚": 3363,
      "惜": 3364,
      "惝": 3365,
      "惟": 3366,
      "惠": 3367,
      "惡": 3368,
      "惢": 3369,
      "惦": 3370,
      "惧": 3371,
      "惨": 3372,
      "惩": 3373,
      "惪": 3374,
      "惫": 3375,
      "惬": 3376,
      "惭": 3377,
      "惮": 3378,
      "惯": 3379,
      "惰": 3380,
      "想": 3381,
      "惴": 3382,
      "惶": 3383,
      "惹": 3384,
      "惺": 3385,
      "愁": 3386,
      "愆": 3387,
      "愈": 3388,
      "愉": 3389,
      "愎": 3390,
      "意": 3391,
      "愒": 3392,
      "愕": 3393,
      "愚": 3394,
      "愛": 3395,
      "感": 3396,
      "愠": 3397,
      "愣": 3398,
      "愤": 3399,
      "愦": 3400,
      "愧": 3401,
      "愫": 3402,
      "愿": 3403,
      "慈": 3404,
      "慊": 3405,
      "態": 3406,
      "慌": 3407,
      "慎": 3408,
      "慑": 3409,
      "慕": 3410,
      "慘": 3411,
      "慝": 3412,
      "慢": 3413,
      "慧": 3414,
      "慨": 3415,
      "慮": 3416,
      "慰": 3417,
      "慵": 3418,
      "慶": 3419,
      "慷": 3420,
      "慾": 3421,
      "憋": 3422,
      "憎": 3423,
      "憐": 3424,
      "憔": 3425,
      "憧": 3426,
      "憨": 3427,
      "憩": 3428,
      "憫": 3429,
      "憬": 3430,
      "憲": 3431,
      "憶": 3432,
      "憾": 3433,
      "懂": 3434,
      "懈": 3435,
      "應": 3436,
      "懊": 3437,
      "懋": 3438,
      "懑": 3439,
      "懒": 3440,
      "懦": 3441,
      "懧": 3442,
      "懲": 3443,
      "懵": 3444,
      "懷": 3445,
      "懹": 3446,
      "懼": 3447,
      "懽": 3448,
      "懿": 3449,
      "戀": 3450,
      "戈": 3451,
      "戊": 3452,
      "戋": 3453,
      "戌": 3454,
      "戍": 3455,
      "戎": 3456,
      "戏": 3457,
      "成": 3458,
      "我": 3459,
      "戒": 3460,
      "戓": 3461,
      "戕": 3462,
      "或": 3463,
      "戗": 3464,
      "战": 3465,
      "戚": 3466,
      "戛": 3467,
      "戟": 3468,
      "戡": 3469,
      "截": 3470,
      "戮": 3471,
      "戰": 3472,
      "戲": 3473,
      "戳": 3474,
      "戴": 3475,
      "戶": 3476,
      "户": 3477,
      "戽": 3478,
      "戾": 3479,
      "房": 3480,
      "所": 3481,
      "扁": 3482,
      "扂": 3483,
      "扃": 3484,
      "扇": 3485,
      "扈": 3486,
      "扉": 3487,
      "手": 3488,
      "才": 3489,
      "扎": 3490,
      "扑": 3491,
      "扒": 3492,
      "打": 3493,
      "扔": 3494,
      "托": 3495,
      "扛": 3496,
      "扞": 3497,
      "扢": 3498,
      "扣": 3499,
      "扦": 3500,
      "执": 3501,
      "扩": 3502,
      "扪": 3503,
      "扫": 3504,
      "扬": 3505,
      "扭": 3506,
      "扮": 3507,
      "扯": 3508,
      "扰": 3509,
      "扳": 3510,
      "扶": 3511,
      "批": 3512,
      "扼": 3513,
      "扽": 3514,
      "找": 3515,
      "承": 3516,
      "技": 3517,
      "抄": 3518,
      "抉": 3519,
      "把": 3520,
      "抑": 3521,
      "抒": 3522,
      "抓": 3523,
      "投": 3524,
      "抖": 3525,
      "抗": 3526,
      "折": 3527,
      "抚": 3528,
      "抛": 3529,
      "抟": 3530,
      "抠": 3531,
      "抡": 3532,
      "抢": 3533,
      "护": 3534,
      "报": 3535,
      "抨": 3536,
      "披": 3537,
      "抬": 3538,
      "抱": 3539,
      "抳": 3540,
      "抵": 3541,
      "抹": 3542,
      "抺": 3543,
      "押": 3544,
      "抽": 3545,
      "抿": 3546,
      "拂": 3547,
      "拄": 3548,
      "担": 3549,
      "拆": 3550,
      "拇": 3551,
      "拈": 3552,
      "拉": 3553,
      "拋": 3554,
      "拌": 3555,
      "拍": 3556,
      "拎": 3557,
      "拐": 3558,
      "拒": 3559,
      "拓": 3560,
      "拔": 3561,
      "拖": 3562,
      "拗": 3563,
      "拘": 3564,
      "拙": 3565,
      "拚": 3566,
      "招": 3567,
      "拜": 3568,
      "拟": 3569,
      "拢": 3570,
      "拣": 3571,
      "拥": 3572,
      "拦": 3573,
      "拧": 3574,
      "拨": 3575,
      "择": 3576,
      "括": 3577,
      "拭": 3578,
      "拮": 3579,
      "拯": 3580,
      "拱": 3581,
      "拳": 3582,
      "拴": 3583,
      "拶": 3584,
      "拷": 3585,
      "拸": 3586,
      "拼": 3587,
      "拽": 3588,
      "拾": 3589,
      "拿": 3590,
      "持": 3591,
      "挂": 3592,
      "指": 3593,
      "挈": 3594,
      "按": 3595,
      "挎": 3596,
      "挑": 3597,
      "挖": 3598,
      "挚": 3599,
      "挛": 3600,
      "挝": 3601,
      "挞": 3602,
      "挟": 3603,
      "挠": 3604,
      "挡": 3605,
      "挢": 3606,
      "挣": 3607,
      "挤": 3608,
      "挥": 3609,
      "挨": 3610,
      "挪": 3611,
      "挫": 3612,
      "振": 3613,
      "挲": 3614,
      "挹": 3615,
      "挺": 3616,
      "挽": 3617,
      "捂": 3618,
      "捅": 3619,
      "捆": 3620,
      "捈": 3621,
      "捉": 3622,
      "捋": 3623,
      "捌": 3624,
      "捍": 3625,
      "捎": 3626,
      "捏": 3627,
      "捐": 3628,
      "捕": 3629,
      "捞": 3630,
      "损": 3631,
      "捡": 3632,
      "换": 3633,
      "捣": 3634,
      "捧": 3635,
      "捨": 3636,
      "捩": 3637,
      "捬": 3638,
      "捭": 3639,
      "据": 3640,
      "捯": 3641,
      "捱": 3642,
      "捲": 3643,
      "捶": 3644,
      "捷": 3645,
      "捺": 3646,
      "捻": 3647,
      "掀": 3648,
      "掂": 3649,
      "掃": 3650,
      "掇": 3651,
      "授": 3652,
      "掉": 3653,
      "掌": 3654,
      "掍": 3655,
      "掏": 3656,
      "掐": 3657,
      "排": 3658,
      "掖": 3659,
      "掗": 3660,
      "掘": 3661,
      "掙": 3662,
      "掛": 3663,
      "掠": 3664,
      "採": 3665,
      "探": 3666,
      "掣": 3667,
      "接": 3668,
      "控": 3669,
      "推": 3670,
      "掩": 3671,
      "措": 3672,
      "掬": 3673,
      "掮": 3674,
      "掰": 3675,
      "掲": 3676,
      "掳": 3677,
      "掴": 3678,
      "掷": 3679,
      "掸": 3680,
      "掺": 3681,
      "掼": 3682,
      "掾": 3683,
      "揀": 3684,
      "揄": 3685,
      "揆": 3686,
      "揉": 3687,
      "揍": 3688,
      "描": 3689,
      "提": 3690,
      "插": 3691,
      "揖": 3692,
      "揚": 3693,
      "換": 3694,
      "揠": 3695,
      "握": 3696,
      "揣": 3697,
      "揥": 3698,
      "揩": 3699,
      "揪": 3700,
      "揭": 3701,
      "揮": 3702,
      "援": 3703,
      "揵": 3704,
      "揶": 3705,
      "揸": 3706,
      "揽": 3707,
      "揾": 3708,
      "揿": 3709,
      "搀": 3710,
      "搁": 3711,
      "搂": 3712,
      "搅": 3713,
      "搆": 3714,
      "搋": 3715,
      "損": 3716,
      "搏": 3717,
      "搐": 3718,
      "搓": 3719,
      "搔": 3720,
      "搖": 3721,
      "搜": 3722,
      "搞": 3723,
      "搠": 3724,
      "搡": 3725,
      "搥": 3726,
      "搦": 3727,
      "搧": 3728,
      "搪": 3729,
      "搬": 3730,
      "搭": 3731,
      "搶": 3732,
      "携": 3733,
      "搽": 3734,
      "摀": 3735,
      "摁": 3736,
      "摃": 3737,
      "摄": 3738,
      "摅": 3739,
      "摆": 3740,
      "摇": 3741,
      "摈": 3742,
      "摊": 3743,
      "摒": 3744,
      "摔": 3745,
      "摖": 3746,
      "摘": 3747,
      "摞": 3748,
      "摧": 3749,
      "摩": 3750,
      "摫": 3751,
      "摰": 3752,
      "摸": 3753,
      "摹": 3754,
      "摺": 3755,
      "撂": 3756,
      "撃": 3757,
      "撅": 3758,
      "撇": 3759,
      "撐": 3760,
      "撑": 3761,
      "撒": 3762,
      "撕": 3763,
      "撘": 3764,
      "撙": 3765,
      "撞": 3766,
      "撢": 3767,
      "撤": 3768,
      "撥": 3769,
      "撧": 3770,
      "撩": 3771,
      "撫": 3772,
      "撬": 3773,
      "播": 3774,
      "撮": 3775,
      "撰": 3776,
      "撲": 3777,
      "撵": 3778,
      "撷": 3779,
      "撸": 3780,
      "撺": 3781,
      "撼": 3782,
      "撿": 3783,
      "擀": 3784,
      "擁": 3785,
      "擂": 3786,
      "擅": 3787,
      "擇": 3788,
      "擊": 3789,
      "擋": 3790,
      "操": 3791,
      "擎": 3792,
      "擒": 3793,
      "擔": 3794,
      "擘": 3795,
      "據": 3796,
      "擞": 3797,
      "擠": 3798,
      "擢": 3799,
      "擤": 3800,
      "擦": 3801,
      "擬": 3802,
      "擱": 3803,
      "擴": 3804,
      "擺": 3805,
      "擾": 3806,
      "攀": 3807,
      "攒": 3808,
      "攘": 3809,
      "攜": 3810,
      "攝": 3811,
      "攞": 3812,
      "攥": 3813,
      "攫": 3814,
      "支": 3815,
      "收": 3816,
      "攷": 3817,
      "攸": 3818,
      "改": 3819,
      "攻": 3820,
      "放": 3821,
      "政": 3822,
      "敀": 3823,
      "故": 3824,
      "效": 3825,
      "敉": 3826,
      "敌": 3827,
      "敍": 3828,
      "敏": 3829,
      "救": 3830,
      "敕": 3831,
      "敖": 3832,
      "敗": 3833,
      "敘": 3834,
      "教": 3835,
      "敛": 3836,
      "敝": 3837,
      "敞": 3838,
      "敢": 3839,
      "散": 3840,
      "敦": 3841,
      "敫": 3842,
      "敬": 3843,
      "数": 3844,
      "敲": 3845,
      "整": 3846,
      "敵": 3847,
      "敷": 3848,
      "數": 3849,
      "斃": 3850,
      "斄": 3851,
      "文": 3852,
      "斋": 3853,
      "斌": 3854,
      "斎": 3855,
      "斐": 3856,
      "斑": 3857,
      "斓": 3858,
      "斕": 3859,
      "斗": 3860,
      "料": 3861,
      "斛": 3862,
      "斜": 3863,
      "斟": 3864,
      "斡": 3865,
      "斤": 3866,
      "斥": 3867,
      "斧": 3868,
      "斩": 3869,
      "斫": 3870,
      "斬": 3871,
      "断": 3872,
      "斯": 3873,
      "新": 3874,
      "斲": 3875,
      "斷": 3876,
      "方": 3877,
      "於": 3878,
      "施": 3879,
      "旁": 3880,
      "旅": 3881,
      "旋": 3882,
      "旌": 3883,
      "旎": 3884,
      "族": 3885,
      "旒": 3886,
      "旖": 3887,
      "旗": 3888,
      "无": 3889,
      "既": 3890,
      "日": 3891,
      "旦": 3892,
      "旧": 3893,
      "旨": 3894,
      "早": 3895,
      "旬": 3896,
      "旭": 3897,
      "旮": 3898,
      "旯": 3899,
      "旰": 3900,
      "旱": 3901,
      "旳": 3902,
      "时": 3903,
      "旷": 3904,
      "旺": 3905,
      "旻": 3906,
      "旼": 3907,
      "昀": 3908,
      "昂": 3909,
      "昃": 3910,
      "昄": 3911,
      "昆": 3912,
      "昉": 3913,
      "昊": 3914,
      "昌": 3915,
      "明": 3916,
      "昏": 3917,
      "昒": 3918,
      "易": 3919,
      "昔": 3920,
      "昕": 3921,
      "昙": 3922,
      "昜": 3923,
      "星": 3924,
      "映": 3925,
      "昢": 3926,
      "春": 3927,
      "昧": 3928,
      "昨": 3929,
      "昪": 3930,
      "昫": 3931,
      "昭": 3932,
      "是": 3933,
      "昰": 3934,
      "昱": 3935,
      "昴": 3936,
      "昵": 3937,
      "昶": 3938,
      "昼": 3939,
      "昽": 3940,
      "显": 3941,
      "晁": 3942,
      "晃": 3943,
      "晉": 3944,
      "晋": 3945,
      "晌": 3946,
      "晏": 3947,
      "晒": 3948,
      "晓": 3949,
      "晔": 3950,
      "晕": 3951,
      "晖": 3952,
      "晗": 3953,
      "晚": 3954,
      "晟": 3955,
      "晢": 3956,
      "晤": 3957,
      "晦": 3958,
      "晨": 3959,
      "普": 3960,
      "景": 3961,
      "晰": 3962,
      "晳": 3963,
      "晴": 3964,
      "晶": 3965,
      "晷": 3966,
      "智": 3967,
      "晾": 3968,
      "暂": 3969,
      "暄": 3970,
      "暇": 3971,
      "暈": 3972,
      "暋": 3973,
      "暌": 3974,
      "暑": 3975,
      "暖": 3976,
      "暗": 3977,
      "暝": 3978,
      "暠": 3979,
      "暢": 3980,
      "暧": 3981,
      "暨": 3982,
      "暫": 3983,
      "暮": 3984,
      "暱": 3985,
      "暴": 3986,
      "暸": 3987,
      "暹": 3988,
      "暻": 3989,
      "曆": 3990,
      "曉": 3991,
      "曙": 3992,
      "曜": 3993,
      "曝": 3994,
      "曦": 3995,
      "曩": 3996,
      "曬": 3997,
      "曰": 3998,
      "曲": 3999,
      "曳": 4000,
      "更": 4001,
      "曷": 4002,
      "曹": 4003,
      "曺": 4004,
      "曻": 4005,
      "曼": 4006,
      "曽": 4007,
      "曾": 4008,
      "替": 4009,
      "最": 4010,
      "月": 4011,
      "有": 4012,
      "朊": 4013,
      "朋": 4014,
      "服": 4015,
      "朐": 4016,
      "朔": 4017,
      "朕": 4018,
      "朗": 4019,
      "望": 4020,
      "朝": 4021,
      "朞": 4022,
      "期": 4023,
      "朢": 4024,
      "朦": 4025,
      "木": 4026,
      "朩": 4027,
      "未": 4028,
      "末": 4029,
      "本": 4030,
      "札": 4031,
      "朮": 4032,
      "术": 4033,
      "朱": 4034,
      "朴": 4035,
      "朵": 4036,
      "机": 4037,
      "朼": 4038,
      "朽": 4039,
      "杀": 4040,
      "杂": 4041,
      "权": 4042,
      "杅": 4043,
      "杆": 4044,
      "杈": 4045,
      "杉": 4046,
      "杌": 4047,
      "李": 4048,
      "杏": 4049,
      "材": 4050,
      "村": 4051,
      "杓": 4052,
      "杖": 4053,
      "杜": 4054,
      "杞": 4055,
      "束": 4056,
      "杠": 4057,
      "条": 4058,
      "来": 4059,
      "杨": 4060,
      "杪": 4061,
      "杭": 4062,
      "杯": 4063,
      "杰": 4064,
      "東": 4065,
      "杳": 4066,
      "杵": 4067,
      "杷": 4068,
      "杸": 4069,
      "杻": 4070,
      "松": 4071,
      "板": 4072,
      "极": 4073,
      "构": 4074,
      "枇": 4075,
      "枉": 4076,
      "析": 4077,
      "枑": 4078,
      "枕": 4079,
      "林": 4080,
      "枘": 4081,
      "枙": 4082,
      "枚": 4083,
      "果": 4084,
      "枝": 4085,
      "枞": 4086,
      "枢": 4087,
      "枣": 4088,
      "枥": 4089,
      "枧": 4090,
      "枪": 4091,
      "枫": 4092,
      "枭": 4093,
      "枯": 4094,
      "枰": 4095,
      "枱": 4096,
      "枳": 4097,
      "架": 4098,
      "枷": 4099,
      "枸": 4100,
      "枽": 4101,
      "柁": 4102,
      "柄": 4103,
      "柆": 4104,
      "柏": 4105,
      "某": 4106,
      "柑": 4107,
      "柒": 4108,
      "染": 4109,
      "柔": 4110,
      "柘": 4111,
      "柚": 4112,
      "柜": 4113,
      "柞": 4114,
      "柠": 4115,
      "柢": 4116,
      "查": 4117,
      "柩": 4118,
      "柬": 4119,
      "柯": 4120,
      "柰": 4121,
      "柱": 4122,
      "柲": 4123,
      "柳": 4124,
      "柴": 4125,
      "柸": 4126,
      "柽": 4127,
      "柿": 4128,
      "栀": 4129,
      "栃": 4130,
      "栄": 4131,
      "栅": 4132,
      "标": 4133,
      "栈": 4134,
      "栉": 4135,
      "栊": 4136,
      "栋": 4137,
      "栎": 4138,
      "栏": 4139,
      "树": 4140,
      "栒": 4141,
      "栓": 4142,
      "栖": 4143,
      "栗": 4144,
      "栝": 4145,
      "校": 4146,
      "栩": 4147,
      "株": 4148,
      "栱": 4149,
      "栲": 4150,
      "样": 4151,
      "核": 4152,
      "根": 4153,
      "栻": 4154,
      "格": 4155,
      "栽": 4156,
      "栾": 4157,
      "桀": 4158,
      "桁": 4159,
      "桂": 4160,
      "桃": 4161,
      "桅": 4162,
      "框": 4163,
      "案": 4164,
      "桉": 4165,
      "桌": 4166,
      "桎": 4167,
      "桐": 4168,
      "桑": 4169,
      "桓": 4170,
      "桔": 4171,
      "桜": 4172,
      "桠": 4173,
      "桡": 4174,
      "桢": 4175,
      "档": 4176,
      "桤": 4177,
      "桥": 4178,
      "桦": 4179,
      "桧": 4180,
      "桨": 4181,
      "桩": 4182,
      "桫": 4183,
      "桯": 4184,
      "桲": 4185,
      "桶": 4186,
      "桷": 4187,
      "桽": 4188,
      "桿": 4189,
      "梁": 4190,
      "梃": 4191,
      "梅": 4192,
      "梆": 4193,
      "梉": 4194,
      "梏": 4195,
      "梑": 4196,
      "梒": 4197,
      "梓": 4198,
      "梗": 4199,
      "條": 4200,
      "梠": 4201,
      "梢": 4202,
      "梣": 4203,
      "梦": 4204,
      "梧": 4205,
      "梨": 4206,
      "梭": 4207,
      "梯": 4208,
      "械": 4209,
      "梳": 4210,
      "梵": 4211,
      "梶": 4212,
      "梿": 4213,
      "检": 4214,
      "棂": 4215,
      "棄": 4216,
      "棉": 4217,
      "棋": 4218,
      "棍": 4219,
      "棒": 4220,
      "棕": 4221,
      "棘": 4222,
      "棚": 4223,
      "棠": 4224,
      "棣": 4225,
      "棪": 4226,
      "森": 4227,
      "棰": 4228,
      "棱": 4229,
      "棲": 4230,
      "棵": 4231,
      "棹": 4232,
      "棺": 4233,
      "棼": 4234,
      "椁": 4235,
      "椄": 4236,
      "椅": 4237,
      "椇": 4238,
      "椋": 4239,
      "植": 4240,
      "椎": 4241,
      "椐": 4242,
      "椒": 4243,
      "椤": 4244,
      "椪": 4245,
      "椭": 4246,
      "椰": 4247,
      "椴": 4248,
      "椹": 4249,
      "椽": 4250,
      "椿": 4251,
      "楂": 4252,
      "楊": 4253,
      "楔": 4254,
      "楚": 4255,
      "楛": 4256,
      "楝": 4257,
      "楞": 4258,
      "楠": 4259,
      "楢": 4260,
      "楣": 4261,
      "楤": 4262,
      "楦": 4263,
      "楫": 4264,
      "楬": 4265,
      "楮": 4266,
      "極": 4267,
      "楷": 4268,
      "楸": 4269,
      "楹": 4270,
      "楼": 4271,
      "榀": 4272,
      "概": 4273,
      "榄": 4274,
      "榅": 4275,
      "榆": 4276,
      "榇": 4277,
      "榈": 4278,
      "榉": 4279,
      "榍": 4280,
      "榑": 4281,
      "榔": 4282,
      "榕": 4283,
      "榖": 4284,
      "榛": 4285,
      "榜": 4286,
      "榥": 4287,
      "榧": 4288,
      "榨": 4289,
      "榫": 4290,
      "榭": 4291,
      "榮": 4292,
      "榴": 4293,
      "榷": 4294,
      "榻": 4295,
      "槁": 4296,
      "槃": 4297,
      "構": 4298,
      "槌": 4299,
      "槍": 4300,
      "槎": 4301,
      "槐": 4302,
      "槓": 4303,
      "様": 4304,
      "槛": 4305,
      "槟": 4306,
      "槠": 4307,
      "槪": 4308,
      "槭": 4309,
      "槲": 4310,
      "槽": 4311,
      "槿": 4312,
      "樁": 4313,
      "樂": 4314,
      "樊": 4315,
      "樋": 4316,
      "樑": 4317,
      "樓": 4318,
      "樘": 4319,
      "標": 4320,
      "樟": 4321,
      "模": 4322,
      "樣": 4323,
      "樨": 4324,
      "横": 4325,
      "樯": 4326,
      "樱": 4327,
      "樵": 4328,
      "樹": 4329,
      "樽": 4330,
      "樾": 4331,
      "橄": 4332,
      "橇": 4333,
      "橋": 4334,
      "橐": 4335,
      "橘": 4336,
      "橙": 4337,
      "橛": 4338,
      "機": 4339,
      "橡": 4340,
      "橥": 4341,
      "橦": 4342,
      "橫": 4343,
      "橱": 4344,
      "橵": 4345,
      "橹": 4346,
      "橼": 4347,
      "橾": 4348,
      "檀": 4349,
      "檃": 4350,
      "檄": 4351,
      "檎": 4352,
      "檐": 4353,
      "檔": 4354,
      "檗": 4355,
      "檞": 4356,
      "檢": 4357,
      "檩": 4358,
      "檫": 4359,
      "檬": 4360,
      "檯": 4361,
      "檳": 4362,
      "櫃": 4363,
      "櫈": 4364,
      "櫕": 4365,
      "櫚": 4366,
      "欄": 4367,
      "權": 4368,
      "欑": 4369,
      "欠": 4370,
      "次": 4371,
      "欢": 4372,
      "欣": 4373,
      "欤": 4374,
      "欧": 4375,
      "欰": 4376,
      "欲": 4377,
      "欴": 4378,
      "欸": 4379,
      "欹": 4380,
      "欺": 4381,
      "欽": 4382,
      "款": 4383,
      "歃": 4384,
      "歆": 4385,
      "歇": 4386,
      "歉": 4387,
      "歌": 4388,
      "歐": 4389,
      "歙": 4390,
      "歛": 4391,
      "歠": 4392,
      "歡": 4393,
      "止": 4394,
      "正": 4395,
      "此": 4396,
      "步": 4397,
      "武": 4398,
      "歧": 4399,
      "歩": 4400,
      "歪": 4401,
      "歲": 4402,
      "歳": 4403,
      "歷": 4404,
      "歸": 4405,
      "歹": 4406,
      "死": 4407,
      "歼": 4408,
      "殁": 4409,
      "殃": 4410,
      "殄": 4411,
      "殆": 4412,
      "殇": 4413,
      "殉": 4414,
      "殊": 4415,
      "残": 4416,
      "殒": 4417,
      "殓": 4418,
      "殖": 4419,
      "殘": 4420,
      "殚": 4421,
      "殡": 4422,
      "殴": 4423,
      "段": 4424,
      "殷": 4425,
      "殺": 4426,
      "殿": 4427,
      "毀": 4428,
      "毁": 4429,
      "毂": 4430,
      "毅": 4431,
      "毋": 4432,
      "母": 4433,
      "毎": 4434,
      "每": 4435,
      "毒": 4436,
      "毓": 4437,
      "比": 4438,
      "毕": 4439,
      "毖": 4440,
      "毗": 4441,
      "毘": 4442,
      "毙": 4443,
      "毛": 4444,
      "毡": 4445,
      "毫": 4446,
      "毬": 4447,
      "毯": 4448,
      "毳": 4449,
      "毽": 4450,
      "氄": 4451,
      "氅": 4452,
      "氆": 4453,
      "氇": 4454,
      "氎": 4455,
      "氏": 4456,
      "氐": 4457,
      "民": 4458,
      "氓": 4459,
      "气": 4460,
      "氖": 4461,
      "氘": 4462,
      "氙": 4463,
      "氚": 4464,
      "氛": 4465,
      "氟": 4466,
      "氡": 4467,
      "氢": 4468,
      "氣": 4469,
      "氤": 4470,
      "氦": 4471,
      "氧": 4472,
      "氨": 4473,
      "氩": 4474,
      "氪": 4475,
      "氫": 4476,
      "氮": 4477,
      "氯": 4478,
      "氰": 4479,
      "氲": 4480,
      "水": 4481,
      "氶": 4482,
      "永": 4483,
      "氺": 4484,
      "氽": 4485,
      "氾": 4486,
      "汀": 4487,
      "汁": 4488,
      "求": 4489,
      "汆": 4490,
      "汇": 4491,
      "汉": 4492,
      "汊": 4493,
      "汐": 4494,
      "汔": 4495,
      "汕": 4496,
      "汗": 4497,
      "汛": 4498,
      "汜": 4499,
      "汝": 4500,
      "汞": 4501,
      "江": 4502,
      "池": 4503,
      "污": 4504,
      "汤": 4505,
      "汨": 4506,
      "汩": 4507,
      "汪": 4508,
      "汭": 4509,
      "汰": 4510,
      "汲": 4511,
      "汴": 4512,
      "汶": 4513,
      "汸": 4514,
      "汹": 4515,
      "決": 4516,
      "汽": 4517,
      "汾": 4518,
      "沁": 4519,
      "沂": 4520,
      "沃": 4521,
      "沅": 4522,
      "沆": 4523,
      "沇": 4524,
      "沈": 4525,
      "沉": 4526,
      "沌": 4527,
      "沏": 4528,
      "沐": 4529,
      "沒": 4530,
      "沓": 4531,
      "沖": 4532,
      "沙": 4533,
      "沛": 4534,
      "沟": 4535,
      "没": 4536,
      "沢": 4537,
      "沣": 4538,
      "沤": 4539,
      "沥": 4540,
      "沦": 4541,
      "沧": 4542,
      "沪": 4543,
      "沫": 4544,
      "沬": 4545,
      "沭": 4546,
      "沮": 4547,
      "沱": 4548,
      "河": 4549,
      "沵": 4550,
      "沸": 4551,
      "油": 4552,
      "治": 4553,
      "沼": 4554,
      "沽": 4555,
      "沾": 4556,
      "沿": 4557,
      "況": 4558,
      "泄": 4559,
      "泅": 4560,
      "泉": 4561,
      "泊": 4562,
      "泌": 4563,
      "泍": 4564,
      "泐": 4565,
      "泓": 4566,
      "泔": 4567,
      "法": 4568,
      "泗": 4569,
      "泚": 4570,
      "泛": 4571,
      "泞": 4572,
      "泠": 4573,
      "泡": 4574,
      "波": 4575,
      "泣": 4576,
      "泥": 4577,
      "注": 4578,
      "泪": 4579,
      "泫": 4580,
      "泭": 4581,
      "泮": 4582,
      "泯": 4583,
      "泰": 4584,
      "泱": 4585,
      "泳": 4586,
      "泵": 4587,
      "泷": 4588,
      "泸": 4589,
      "泻": 4590,
      "泼": 4591,
      "泽": 4592,
      "泾": 4593,
      "洁": 4594,
      "洄": 4595,
      "洊": 4596,
      "洋": 4597,
      "洌": 4598,
      "洏": 4599,
      "洐": 4600,
      "洒": 4601,
      "洗": 4602,
      "洘": 4603,
      "洙": 4604,
      "洛": 4605,
      "洞": 4606,
      "津": 4607,
      "洧": 4608,
      "洩": 4609,
      "洪": 4610,
      "洫": 4611,
      "洮": 4612,
      "洱": 4613,
      "洲": 4614,
      "洵": 4615,
      "活": 4616,
      "洼": 4617,
      "洽": 4618,
      "派": 4619,
      "流": 4620,
      "浃": 4621,
      "浅": 4622,
      "浆": 4623,
      "浇": 4624,
      "浈": 4625,
      "浉": 4626,
      "浊": 4627,
      "测": 4628,
      "济": 4629,
      "浏": 4630,
      "浐": 4631,
      "浑": 4632,
      "浒": 4633,
      "浓": 4634,
      "浔": 4635,
      "浙": 4636,
      "浚": 4637,
      "浛": 4638,
      "浜": 4639,
      "浠": 4640,
      "浡": 4641,
      "浣": 4642,
      "浦": 4643,
      "浩": 4644,
      "浪": 4645,
      "浬": 4646,
      "浮": 4647,
      "浯": 4648,
      "浴": 4649,
      "浵": 4650,
      "海": 4651,
      "浸": 4652,
      "浼": 4653,
      "涂": 4654,
      "涅": 4655,
      "消": 4656,
      "涉": 4657,
      "涌": 4658,
      "涎": 4659,
      "涐": 4660,
      "涓": 4661,
      "涔": 4662,
      "涕": 4663,
      "涙": 4664,
      "涚": 4665,
      "涛": 4666,
      "涝": 4667,
      "涞": 4668,
      "涟": 4669,
      "涠": 4670,
      "涡": 4671,
      "涣": 4672,
      "涤": 4673,
      "润": 4674,
      "涧": 4675,
      "涨": 4676,
      "涩": 4677,
      "涪": 4678,
      "涮": 4679,
      "涯": 4680,
      "液": 4681,
      "涴": 4682,
      "涵": 4683,
      "涸": 4684,
      "涼": 4685,
      "涿": 4686,
      "淀": 4687,
      "淄": 4688,
      "淅": 4689,
      "淆": 4690,
      "淇": 4691,
      "淉": 4692,
      "淋": 4693,
      "淌": 4694,
      "淏": 4695,
      "淑": 4696,
      "淖": 4697,
      "淘": 4698,
      "淙": 4699,
      "淚": 4700,
      "淝": 4701,
      "淞": 4702,
      "淠": 4703,
      "淡": 4704,
      "淤": 4705,
      "淦": 4706,
      "淨": 4707,
      "淩": 4708,
      "淫": 4709,
      "淬": 4710,
      "淮": 4711,
      "深": 4712,
      "淲": 4713,
      "淳": 4714,
      "混": 4715,
      "淸": 4716,
      "淹": 4717,
      "淺": 4718,
      "添": 4719,
      "淼": 4720,
      "渀": 4721,
      "清": 4722,
      "渊": 4723,
      "渌": 4724,
      "渍": 4725,
      "渎": 4726,
      "渐": 4727,
      "渔": 4728,
      "渗": 4729,
      "渚": 4730,
      "減": 4731,
      "渝": 4732,
      "渠": 4733,
      "渡": 4734,
      "渣": 4735,
      "渤": 4736,
      "渥": 4737,
      "渧": 4738,
      "温": 4739,
      "渫": 4740,
      "測": 4741,
      "渭": 4742,
      "港": 4743,
      "渰": 4744,
      "渲": 4745,
      "渴": 4746,
      "游": 4747,
      "渺": 4748,
      "渾": 4749,
      "湃": 4750,
      "湄": 4751,
      "湊": 4752,
      "湍": 4753,
      "湎": 4754,
      "湔": 4755,
      "湖": 4756,
      "湘": 4757,
      "湛": 4758,
      "湜": 4759,
      "湟": 4760,
      "湫": 4761,
      "湮": 4762,
      "湲": 4763,
      "湳": 4764,
      "湾": 4765,
      "湿": 4766,
      "満": 4767,
      "溃": 4768,
      "溅": 4769,
      "溇": 4770,
      "溉": 4771,
      "溏": 4772,
      "源": 4773,
      "準": 4774,
      "溘": 4775,
      "溜": 4776,
      "溞": 4777,
      "溢": 4778,
      "溥": 4779,
      "溦": 4780,
      "溧": 4781,
      "溪": 4782,
      "溫": 4783,
      "溯": 4784,
      "溱": 4785,
      "溴": 4786,
      "溶": 4787,
      "溺": 4788,
      "溻": 4789,
      "溼": 4790,
      "滁": 4791,
      "滂": 4792,
      "滅": 4793,
      "滇": 4794,
      "滋": 4795,
      "滑": 4796,
      "滓": 4797,
      "滔": 4798,
      "滕": 4799,
      "滗": 4800,
      "滘": 4801,
      "滙": 4802,
      "滚": 4803,
      "滞": 4804,
      "滟": 4805,
      "满": 4806,
      "滢": 4807,
      "滤": 4808,
      "滥": 4809,
      "滦": 4810,
      "滨": 4811,
      "滩": 4812,
      "滪": 4813,
      "滴": 4814,
      "滹": 4815,
      "滾": 4816,
      "滿": 4817,
      "漁": 4818,
      "漂": 4819,
      "漆": 4820,
      "漉": 4821,
      "漏": 4822,
      "漓": 4823,
      "演": 4824,
      "漕": 4825,
      "漠": 4826,
      "漢": 4827,
      "漩": 4828,
      "漪": 4829,
      "漫": 4830,
      "漬": 4831,
      "漯": 4832,
      "漱": 4833,
      "漳": 4834,
      "漸": 4835,
      "漾": 4836,
      "漿": 4837,
      "潆": 4838,
      "潇": 4839,
      "潋": 4840,
      "潍": 4841,
      "潑": 4842,
      "潔": 4843,
      "潘": 4844,
      "潛": 4845,
      "潜": 4846,
      "潞": 4847,
      "潟": 4848,
      "潢": 4849,
      "潦": 4850,
      "潭": 4851,
      "潮": 4852,
      "潰": 4853,
      "潴": 4854,
      "潸": 4855,
      "潺": 4856,
      "潼": 4857,
      "澄": 4858,
      "澈": 4859,
      "澋": 4860,
      "澍": 4861,
      "澎": 4862,
      "澜": 4863,
      "澡": 4864,
      "澤": 4865,
      "澧": 4866,
      "澳": 4867,
      "澹": 4868,
      "激": 4869,
      "濃": 4870,
      "濑": 4871,
      "濒": 4872,
      "濕": 4873,
      "濙": 4874,
      "濛": 4875,
      "濞": 4876,
      "濟": 4877,
      "濠": 4878,
      "濡": 4879,
      "濫": 4880,
      "濬": 4881,
      "濮": 4882,
      "濯": 4883,
      "濱": 4884,
      "濾": 4885,
      "瀆": 4886,
      "瀑": 4887,
      "瀕": 4888,
      "瀚": 4889,
      "瀛": 4890,
      "瀣": 4891,
      "瀬": 4892,
      "瀹": 4893,
      "灌": 4894,
      "灏": 4895,
      "灞": 4896,
      "火": 4897,
      "灭": 4898,
      "灯": 4899,
      "灰": 4900,
      "灵": 4901,
      "灶": 4902,
      "灸": 4903,
      "灼": 4904,
      "災": 4905,
      "灾": 4906,
      "灿": 4907,
      "炀": 4908,
      "炆": 4909,
      "炉": 4910,
      "炊": 4911,
      "炎": 4912,
      "炒": 4913,
      "炔": 4914,
      "炕": 4915,
      "炖": 4916,
      "炙": 4917,
      "炜": 4918,
      "炝": 4919,
      "炤": 4920,
      "炫": 4921,
      "炬": 4922,
      "炭": 4923,
      "炮": 4924,
      "炯": 4925,
      "炱": 4926,
      "炳": 4927,
      "炵": 4928,
      "炷": 4929,
      "炸": 4930,
      "点": 4931,
      "炻": 4932,
      "炼": 4933,
      "炽": 4934,
      "烁": 4935,
      "烂": 4936,
      "烃": 4937,
      "烈": 4938,
      "烊": 4939,
      "烋": 4940,
      "烏": 4941,
      "烕": 4942,
      "烘": 4943,
      "烙": 4944,
      "烛": 4945,
      "烜": 4946,
      "烟": 4947,
      "烤": 4948,
      "烦": 4949,
      "烧": 4950,
      "烨": 4951,
      "烩": 4952,
      "烫": 4953,
      "烬": 4954,
      "热": 4955,
      "烯": 4956,
      "烷": 4957,
      "烹": 4958,
      "烺": 4959,
      "烽": 4960,
      "焉": 4961,
      "焊": 4962,
      "焓": 4963,
      "焕": 4964,
      "焖": 4965,
      "焗": 4966,
      "焘": 4967,
      "焙": 4968,
      "焚": 4969,
      "焜": 4970,
      "焦": 4971,
      "焯": 4972,
      "焰": 4973,
      "焱": 4974,
      "然": 4975,
      "煀": 4976,
      "煅": 4977,
      "煊": 4978,
      "煌": 4979,
      "煎": 4980,
      "煖": 4981,
      "煙": 4982,
      "煜": 4983,
      "煞": 4984,
      "煤": 4985,
      "煦": 4986,
      "照": 4987,
      "煨": 4988,
      "煩": 4989,
      "煮": 4990,
      "煲": 4991,
      "煳": 4992,
      "煸": 4993,
      "煺": 4994,
      "煽": 4995,
      "熄": 4996,
      "熊": 4997,
      "熏": 4998,
      "熔": 4999,
      "熘": 5000,
      "熙": 5001,
      "熟": 5002,
      "熠": 5003,
      "熨": 5004,
      "熬": 5005,
      "熱": 5006,
      "熵": 5007,
      "熹": 5008,
      "熺": 5009,
      "燃": 5010,
      "燈": 5011,
      "燊": 5012,
      "燎": 5013,
      "燒": 5014,
      "燔": 5015,
      "燕": 5016,
      "燚": 5017,
      "營": 5018,
      "燠": 5019,
      "燥": 5020,
      "燧": 5021,
      "燨": 5022,
      "燭": 5023,
      "燮": 5024,
      "燻": 5025,
      "燿": 5026,
      "爀": 5027,
      "爆": 5028,
      "爍": 5029,
      "爛": 5030,
      "爪": 5031,
      "爬": 5032,
      "爭": 5033,
      "爰": 5034,
      "爱": 5035,
      "爲": 5036,
      "爵": 5037,
      "父": 5038,
      "爷": 5039,
      "爸": 5040,
      "爹": 5041,
      "爺": 5042,
      "爻": 5043,
      "爽": 5044,
      "爾": 5045,
      "爿": 5046,
      "牀": 5047,
      "牆": 5048,
      "片": 5049,
      "版": 5050,
      "牌": 5051,
      "牍": 5052,
      "牐": 5053,
      "牒": 5054,
      "牖": 5055,
      "牙": 5056,
      "牛": 5057,
      "牝": 5058,
      "牟": 5059,
      "牠": 5060,
      "牡": 5061,
      "牢": 5062,
      "牤": 5063,
      "牦": 5064,
      "牧": 5065,
      "物": 5066,
      "牯": 5067,
      "牲": 5068,
      "牴": 5069,
      "牵": 5070,
      "特": 5071,
      "牺": 5072,
      "牽": 5073,
      "牾": 5074,
      "犀": 5075,
      "犁": 5076,
      "犄": 5077,
      "犊": 5078,
      "犍": 5079,
      "犒": 5080,
      "犛": 5081,
      "犟": 5082,
      "犠": 5083,
      "犬": 5084,
      "犭": 5085,
      "犯": 5086,
      "犰": 5087,
      "状": 5088,
      "犷": 5089,
      "犸": 5090,
      "犹": 5091,
      "狀": 5092,
      "狂": 5093,
      "狄": 5094,
      "狈": 5095,
      "狍": 5096,
      "狎": 5097,
      "狐": 5098,
      "狒": 5099,
      "狓": 5100,
      "狗": 5101,
      "狙": 5102,
      "狞": 5103,
      "狟": 5104,
      "狠": 5105,
      "狡": 5106,
      "狥": 5107,
      "狦": 5108,
      "狨": 5109,
      "狩": 5110,
      "独": 5111,
      "狭": 5112,
      "狮": 5113,
      "狯": 5114,
      "狰": 5115,
      "狱": 5116,
      "狳": 5117,
      "狷": 5118,
      "狸": 5119,
      "狹": 5120,
      "狼": 5121,
      "狽": 5122,
      "猁": 5123,
      "猌": 5124,
      "猎": 5125,
      "猕": 5126,
      "猖": 5127,
      "猗": 5128,
      "猛": 5129,
      "猜": 5130,
      "猝": 5131,
      "猞": 5132,
      "猟": 5133,
      "猡": 5134,
      "猢": 5135,
      "猥": 5136,
      "猩": 5137,
      "猪": 5138,
      "猫": 5139,
      "猬": 5140,
      "猭": 5141,
      "献": 5142,
      "猱": 5143,
      "猴": 5144,
      "猵": 5145,
      "猶": 5146,
      "猾": 5147,
      "猿": 5148,
      "獄": 5149,
      "獍": 5150,
      "獎": 5151,
      "獐": 5152,
      "獒": 5153,
      "獗": 5154,
      "獚": 5155,
      "獠": 5156,
      "獨": 5157,
      "獭": 5158,
      "獲": 5159,
      "獴": 5160,
      "獵": 5161,
      "獸": 5162,
      "獹": 5163,
      "獺": 5164,
      "獻": 5165,
      "獽": 5166,
      "獾": 5167,
      "玃": 5168,
      "玄": 5169,
      "玆": 5170,
      "率": 5171,
      "玉": 5172,
      "玊": 5173,
      "王": 5174,
      "玎": 5175,
      "玑": 5176,
      "玕": 5177,
      "玖": 5178,
      "玙": 5179,
      "玛": 5180,
      "玠": 5181,
      "玡": 5182,
      "玢": 5183,
      "玥": 5184,
      "玦": 5185,
      "玩": 5186,
      "玫": 5187,
      "玮": 5188,
      "环": 5189,
      "现": 5190,
      "玲": 5191,
      "玳": 5192,
      "玶": 5193,
      "玷": 5194,
      "玺": 5195,
      "玻": 5196,
      "玾": 5197,
      "珀": 5198,
      "珂": 5199,
      "珅": 5200,
      "珆": 5201,
      "珇": 5202,
      "珈": 5203,
      "珉": 5204,
      "珊": 5205,
      "珋": 5206,
      "珍": 5207,
      "珏": 5208,
      "珐": 5209,
      "珑": 5210,
      "珗": 5211,
      "珙": 5212,
      "珛": 5213,
      "珞": 5214,
      "珠": 5215,
      "珥": 5216,
      "珨": 5217,
      "珩": 5218,
      "班": 5219,
      "珮": 5220,
      "珲": 5221,
      "珴": 5222,
      "珺": 5223,
      "現": 5224,
      "珿": 5225,
      "球": 5226,
      "琅": 5227,
      "理": 5228,
      "琇": 5229,
      "琉": 5230,
      "琌": 5231,
      "琍": 5232,
      "琏": 5233,
      "琐": 5234,
      "琛": 5235,
      "琢": 5236,
      "琥": 5237,
      "琦": 5238,
      "琨": 5239,
      "琩": 5240,
      "琪": 5241,
      "琬": 5242,
      "琯": 5243,
      "琰": 5244,
      "琳": 5245,
      "琴": 5246,
      "琵": 5247,
      "琶": 5248,
      "琹": 5249,
      "琼": 5250,
      "琾": 5251,
      "瑀": 5252,
      "瑁": 5253,
      "瑄": 5254,
      "瑆": 5255,
      "瑈": 5256,
      "瑌": 5257,
      "瑍": 5258,
      "瑑": 5259,
      "瑕": 5260,
      "瑙": 5261,
      "瑚": 5262,
      "瑛": 5263,
      "瑜": 5264,
      "瑞": 5265,
      "瑟": 5266,
      "瑣": 5267,
      "瑪": 5268,
      "瑯": 5269,
      "瑰": 5270,
      "瑶": 5271,
      "瑼": 5272,
      "瑾": 5273,
      "瑿": 5274,
      "璀": 5275,
      "璃": 5276,
      "璄": 5277,
      "璇": 5278,
      "璋": 5279,
      "璎": 5280,
      "璐": 5281,
      "璗": 5282,
      "璘": 5283,
      "璚": 5284,
      "璜": 5285,
      "璞": 5286,
      "璠": 5287,
      "璣": 5288,
      "璧": 5289,
      "璨": 5290,
      "璩": 5291,
      "璭": 5292,
      "環": 5293,
      "璲": 5294,
      "璶": 5295,
      "璸": 5296,
      "璺": 5297,
      "璻": 5298,
      "璽": 5299,
      "瓁": 5300,
      "瓆": 5301,
      "瓊": 5302,
      "瓙": 5303,
      "瓜": 5304,
      "瓠": 5305,
      "瓢": 5306,
      "瓣": 5307,
      "瓤": 5308,
      "瓦": 5309,
      "瓩": 5310,
      "瓮": 5311,
      "瓯": 5312,
      "瓳": 5313,
      "瓴": 5314,
      "瓶": 5315,
      "瓷": 5316,
      "瓸": 5317,
      "瓿": 5318,
      "甁": 5319,
      "甄": 5320,
      "甐": 5321,
      "甑": 5322,
      "甘": 5323,
      "甙": 5324,
      "甚": 5325,
      "甜": 5326,
      "生": 5327,
      "甡": 5328,
      "產": 5329,
      "甥": 5330,
      "甦": 5331,
      "甧": 5332,
      "用": 5333,
      "甩": 5334,
      "甪": 5335,
      "甫": 5336,
      "甬": 5337,
      "甭": 5338,
      "田": 5339,
      "由": 5340,
      "甲": 5341,
      "申": 5342,
      "电": 5343,
      "男": 5344,
      "甸": 5345,
      "町": 5346,
      "画": 5347,
      "甾": 5348,
      "畀": 5349,
      "畅": 5350,
      "界": 5351,
      "畎": 5352,
      "畏": 5353,
      "畑": 5354,
      "畔": 5355,
      "留": 5356,
      "畚": 5357,
      "畜": 5358,
      "畝": 5359,
      "畠": 5360,
      "畢": 5361,
      "略": 5362,
      "畦": 5363,
      "番": 5364,
      "畫": 5365,
      "畯": 5366,
      "異": 5367,
      "畱": 5368,
      "畲": 5369,
      "畴": 5370,
      "當": 5371,
      "畸": 5372,
      "畹": 5373,
      "畿": 5374,
      "疆": 5375,
      "疇": 5376,
      "疉": 5377,
      "疊": 5378,
      "疋": 5379,
      "疍": 5380,
      "疏": 5381,
      "疑": 5382,
      "疔": 5383,
      "疖": 5384,
      "疗": 5385,
      "疙": 5386,
      "疚": 5387,
      "疝": 5388,
      "疟": 5389,
      "疠": 5390,
      "疡": 5391,
      "疣": 5392,
      "疤": 5393,
      "疥": 5394,
      "疫": 5395,
      "疭": 5396,
      "疮": 5397,
      "疯": 5398,
      "疱": 5399,
      "疲": 5400,
      "疳": 5401,
      "疴": 5402,
      "疵": 5403,
      "疸": 5404,
      "疹": 5405,
      "疼": 5406,
      "疽": 5407,
      "疾": 5408,
      "痁": 5409,
      "痂": 5410,
      "痄": 5411,
      "病": 5412,
      "症": 5413,
      "痈": 5414,
      "痉": 5415,
      "痊": 5416,
      "痍": 5417,
      "痒": 5418,
      "痔": 5419,
      "痕": 5420,
      "痖": 5421,
      "痘": 5422,
      "痙": 5423,
      "痚": 5424,
      "痛": 5425,
      "痜": 5426,
      "痞": 5427,
      "痠": 5428,
      "痢": 5429,
      "痣": 5430,
      "痤": 5431,
      "痧": 5432,
      "痨": 5433,
      "痪": 5434,
      "痫": 5435,
      "痰": 5436,
      "痱": 5437,
      "痲": 5438,
      "痳": 5439,
      "痴": 5440,
      "痷": 5441,
      "痹": 5442,
      "痼": 5443,
      "痿": 5444,
      "瘀": 5445,
      "瘁": 5446,
      "瘂": 5447,
      "瘅": 5448,
      "瘊": 5449,
      "瘋": 5450,
      "瘌": 5451,
      "瘗": 5452,
      "瘘": 5453,
      "瘙": 5454,
      "瘛": 5455,
      "瘜": 5456,
      "瘟": 5457,
      "瘠": 5458,
      "瘢": 5459,
      "瘤": 5460,
      "瘦": 5461,
      "瘧": 5462,
      "瘩": 5463,
      "瘪": 5464,
      "瘫": 5465,
      "瘴": 5466,
      "瘸": 5467,
      "瘾": 5468,
      "瘿": 5469,
      "癀": 5470,
      "療": 5471,
      "癃": 5472,
      "癊": 5473,
      "癌": 5474,
      "癎": 5475,
      "癒": 5476,
      "癔": 5477,
      "癖": 5478,
      "癘": 5479,
      "癜": 5480,
      "癞": 5481,
      "癡": 5482,
      "癣": 5483,
      "癫": 5484,
      "癬": 5485,
      "癱": 5486,
      "癸": 5487,
      "発": 5488,
      "登": 5489,
      "發": 5490,
      "白": 5491,
      "百": 5492,
      "癿": 5493,
      "皂": 5494,
      "皃": 5495,
      "的": 5496,
      "皆": 5497,
      "皇": 5498,
      "皈": 5499,
      "皊": 5500,
      "皋": 5501,
      "皎": 5502,
      "皑": 5503,
      "皒": 5504,
      "皓": 5505,
      "皖": 5506,
      "皘": 5507,
      "皙": 5508,
      "皮": 5509,
      "皱": 5510,
      "皲": 5511,
      "皴": 5512,
      "皿": 5513,
      "盂": 5514,
      "盅": 5515,
      "盆": 5516,
      "盈": 5517,
      "盉": 5518,
      "益": 5519,
      "盍": 5520,
      "盎": 5521,
      "盏": 5522,
      "盐": 5523,
      "监": 5524,
      "盒": 5525,
      "盓": 5526,
      "盔": 5527,
      "盖": 5528,
      "盗": 5529,
      "盘": 5530,
      "盛": 5531,
      "盞": 5532,
      "盟": 5533,
      "盡": 5534,
      "盢": 5535,
      "監": 5536,
      "盤": 5537,
      "盥": 5538,
      "盧": 5539,
      "目": 5540,
      "盯": 5541,
      "盱": 5542,
      "盲": 5543,
      "直": 5544,
      "相": 5545,
      "盹": 5546,
      "盼": 5547,
      "盽": 5548,
      "盾": 5549,
      "盿": 5550,
      "省": 5551,
      "眃": 5552,
      "眇": 5553,
      "眈": 5554,
      "眉": 5555,
      "眊": 5556,
      "看": 5557,
      "県": 5558,
      "眏": 5559,
      "眒": 5560,
      "眔": 5561,
      "眕": 5562,
      "眖": 5563,
      "眙": 5564,
      "眞": 5565,
      "真": 5566,
      "眠": 5567,
      "眣": 5568,
      "眦": 5569,
      "眨": 5570,
      "眩": 5571,
      "眬": 5572,
      "眭": 5573,
      "眯": 5574,
      "眳": 5575,
      "眵": 5576,
      "眶": 5577,
      "眷": 5578,
      "眸": 5579,
      "眺": 5580,
      "眻": 5581,
      "眼": 5582,
      "眾": 5583,
      "着": 5584,
      "睁": 5585,
      "睃": 5586,
      "睇": 5587,
      "睐": 5588,
      "睑": 5589,
      "睚": 5590,
      "睛": 5591,
      "睜": 5592,
      "睟": 5593,
      "睡": 5594,
      "睢": 5595,
      "督": 5596,
      "睥": 5597,
      "睦": 5598,
      "睨": 5599,
      "睪": 5600,
      "睫": 5601,
      "睬": 5602,
      "睲": 5603,
      "睹": 5604,
      "睺": 5605,
      "睼": 5606,
      "睽": 5607,
      "睾": 5608,
      "睿": 5609,
      "瞄": 5610,
      "瞅": 5611,
      "瞋": 5612,
      "瞌": 5613,
      "瞎": 5614,
      "瞑": 5615,
      "瞒": 5616,
      "瞞": 5617,
      "瞟": 5618,
      "瞠": 5619,
      "瞢": 5620,
      "瞥": 5621,
      "瞧": 5622,
      "瞩": 5623,
      "瞪": 5624,
      "瞬": 5625,
      "瞭": 5626,
      "瞰": 5627,
      "瞳": 5628,
      "瞴": 5629,
      "瞷": 5630,
      "瞻": 5631,
      "瞽": 5632,
      "瞿": 5633,
      "矍": 5634,
      "矗": 5635,
      "矛": 5636,
      "矜": 5637,
      "矢": 5638,
      "矣": 5639,
      "知": 5640,
      "矩": 5641,
      "矪": 5642,
      "矫": 5643,
      "短": 5644,
      "矮": 5645,
      "石": 5646,
      "矶": 5647,
      "矸": 5648,
      "矹": 5649,
      "矽": 5650,
      "矾": 5651,
      "矿": 5652,
      "砀": 5653,
      "码": 5654,
      "砂": 5655,
      "砃": 5656,
      "砆": 5657,
      "砉": 5658,
      "砋": 5659,
      "砌": 5660,
      "砍": 5661,
      "砐": 5662,
      "砑": 5663,
      "砒": 5664,
      "砓": 5665,
      "研": 5666,
      "砖": 5667,
      "砘": 5668,
      "砙": 5669,
      "砚": 5670,
      "砛": 5671,
      "砜": 5672,
      "砝": 5673,
      "砞": 5674,
      "砟": 5675,
      "砣": 5676,
      "砥": 5677,
      "砦": 5678,
      "砧": 5679,
      "砩": 5680,
      "砫": 5681,
      "砬": 5682,
      "砭": 5683,
      "砰": 5684,
      "砱": 5685,
      "砲": 5686,
      "破": 5687,
      "砵": 5688,
      "砷": 5689,
      "砸": 5690,
      "砹": 5691,
      "砺": 5692,
      "砻": 5693,
      "砼": 5694,
      "砾": 5695,
      "础": 5696,
      "硂": 5697,
      "硄": 5698,
      "硅": 5699,
      "硉": 5700,
      "硌": 5701,
      "硎": 5702,
      "硏": 5703,
      "硐": 5704,
      "硑": 5705,
      "硒": 5706,
      "硓": 5707,
      "硕": 5708,
      "硖": 5709,
      "硗": 5710,
      "硝": 5711,
      "硪": 5712,
      "硫": 5713,
      "硬": 5714,
      "确": 5715,
      "硷": 5716,
      "硼": 5717,
      "碁": 5718,
      "碇": 5719,
      "碉": 5720,
      "碊": 5721,
      "碌": 5722,
      "碍": 5723,
      "碎": 5724,
      "碏": 5725,
      "碑": 5726,
      "碓": 5727,
      "碔": 5728,
      "碗": 5729,
      "碘": 5730,
      "碚": 5731,
      "碛": 5732,
      "碜": 5733,
      "碞": 5734,
      "碟": 5735,
      "碡": 5736,
      "碣": 5737,
      "碦": 5738,
      "碧": 5739,
      "碩": 5740,
      "碭": 5741,
      "碰": 5742,
      "碱": 5743,
      "碲": 5744,
      "碳": 5745,
      "碴": 5746,
      "碹": 5747,
      "確": 5748,
      "碼": 5749,
      "碾": 5750,
      "磁": 5751,
      "磅": 5752,
      "磊": 5753,
      "磋": 5754,
      "磐": 5755,
      "磕": 5756,
      "磙": 5757,
      "磡": 5758,
      "磨": 5759,
      "磬": 5760,
      "磱": 5761,
      "磷": 5762,
      "磺": 5763,
      "礁": 5764,
      "礎": 5765,
      "礙": 5766,
      "礚": 5767,
      "礛": 5768,
      "礟": 5769,
      "礢": 5770,
      "礦": 5771,
      "礧": 5772,
      "礴": 5773,
      "礹": 5774,
      "示": 5775,
      "礻": 5776,
      "礼": 5777,
      "社": 5778,
      "祀": 5779,
      "祁": 5780,
      "祂": 5781,
      "祆": 5782,
      "祇": 5783,
      "祈": 5784,
      "祉": 5785,
      "祍": 5786,
      "祐": 5787,
      "祑": 5788,
      "祒": 5789,
      "祖": 5790,
      "祗": 5791,
      "祘": 5792,
      "祚": 5793,
      "祛": 5794,
      "祜": 5795,
      "祝": 5796,
      "神": 5797,
      "祟": 5798,
      "祠": 5799,
      "祡": 5800,
      "祢": 5801,
      "祥": 5802,
      "票": 5803,
      "祭": 5804,
      "祯": 5805,
      "祷": 5806,
      "祸": 5807,
      "祺": 5808,
      "祼": 5809,
      "祾": 5810,
      "禀": 5811,
      "禁": 5812,
      "禄": 5813,
      "禅": 5814,
      "禊": 5815,
      "禍": 5816,
      "福": 5817,
      "禔": 5818,
      "禗": 5819,
      "禦": 5820,
      "禧": 5821,
      "禮": 5822,
      "禰": 5823,
      "禱": 5824,
      "禲": 5825,
      "禳": 5826,
      "禹": 5827,
      "禺": 5828,
      "离": 5829,
      "禽": 5830,
      "禾": 5831,
      "秀": 5832,
      "私": 5833,
      "秂": 5834,
      "秃": 5835,
      "秅": 5836,
      "秆": 5837,
      "秈": 5838,
      "秉": 5839,
      "秋": 5840,
      "种": 5841,
      "秏": 5842,
      "科": 5843,
      "秒": 5844,
      "秕": 5845,
      "秘": 5846,
      "租": 5847,
      "秣": 5848,
      "秤": 5849,
      "秦": 5850,
      "秧": 5851,
      "秨": 5852,
      "秩": 5853,
      "秪": 5854,
      "秭": 5855,
      "积": 5856,
      "称": 5857,
      "秶": 5858,
      "秸": 5859,
      "移": 5860,
      "秽": 5861,
      "秾": 5862,
      "稀": 5863,
      "稃": 5864,
      "稅": 5865,
      "程": 5866,
      "稍": 5867,
      "税": 5868,
      "稑": 5869,
      "稓": 5870,
      "稔": 5871,
      "稗": 5872,
      "稚": 5873,
      "稞": 5874,
      "稠": 5875,
      "稣": 5876,
      "稦": 5877,
      "稬": 5878,
      "種": 5879,
      "稰": 5880,
      "稱": 5881,
      "稲": 5882,
      "稳": 5883,
      "稷": 5884,
      "稸": 5885,
      "稹": 5886,
      "稻": 5887,
      "稼": 5888,
      "稽": 5889,
      "稿": 5890,
      "穆": 5891,
      "穌": 5892,
      "積": 5893,
      "穎": 5894,
      "穑": 5895,
      "穕": 5896,
      "穗": 5897,
      "穝": 5898,
      "穦": 5899,
      "穧": 5900,
      "穩": 5901,
      "穫": 5902,
      "穰": 5903,
      "穴": 5904,
      "究": 5905,
      "穷": 5906,
      "穹": 5907,
      "空": 5908,
      "穿": 5909,
      "突": 5910,
      "窃": 5911,
      "窄": 5912,
      "窈": 5913,
      "窍": 5914,
      "窑": 5915,
      "窒": 5916,
      "窕": 5917,
      "窖": 5918,
      "窗": 5919,
      "窘": 5920,
      "窜": 5921,
      "窝": 5922,
      "窟": 5923,
      "窠": 5924,
      "窢": 5925,
      "窣": 5926,
      "窥": 5927,
      "窦": 5928,
      "窨": 5929,
      "窭": 5930,
      "窮": 5931,
      "窰": 5932,
      "窱": 5933,
      "窸": 5934,
      "窾": 5935,
      "窿": 5936,
      "竇": 5937,
      "竊": 5938,
      "立": 5939,
      "竒": 5940,
      "竕": 5941,
      "竖": 5942,
      "竘": 5943,
      "站": 5944,
      "竜": 5945,
      "竞": 5946,
      "竟": 5947,
      "章": 5948,
      "竡": 5949,
      "竣": 5950,
      "童": 5951,
      "竭": 5952,
      "端": 5953,
      "競": 5954,
      "竹": 5955,
      "竺": 5956,
      "竽": 5957,
      "竿": 5958,
      "笃": 5959,
      "笄": 5960,
      "笆": 5961,
      "笈": 5962,
      "笋": 5963,
      "笏": 5964,
      "笐": 5965,
      "笑": 5966,
      "笓": 5967,
      "笔": 5968,
      "笕": 5969,
      "笙": 5970,
      "笛": 5971,
      "笞": 5972,
      "笠": 5973,
      "笢": 5974,
      "笤": 5975,
      "符": 5976,
      "笨": 5977,
      "笩": 5978,
      "第": 5979,
      "笭": 5980,
      "笱": 5981,
      "笲": 5982,
      "笴": 5983,
      "笵": 5984,
      "笺": 5985,
      "笻": 5986,
      "笼": 5987,
      "笾": 5988,
      "笿": 5989,
      "筁": 5990,
      "筅": 5991,
      "筆": 5992,
      "等": 5993,
      "筋": 5994,
      "筏": 5995,
      "筐": 5996,
      "筑": 5997,
      "筒": 5998,
      "答": 5999,
      "策": 6000,
      "筘": 6001,
      "筛": 6002,
      "筜": 6003,
      "筝": 6004,
      "筠": 6005,
      "筦": 6006,
      "筮": 6007,
      "筱": 6008,
      "筲": 6009,
      "筴": 6010,
      "筵": 6011,
      "筷": 6012,
      "筹": 6013,
      "筻": 6014,
      "筼": 6015,
      "筽": 6016,
      "签": 6017,
      "筿": 6018,
      "简": 6019,
      "箅": 6020,
      "箍": 6021,
      "箔": 6022,
      "箕": 6023,
      "算": 6024,
      "箜": 6025,
      "箝": 6026,
      "管": 6027,
      "箦": 6028,
      "箧": 6029,
      "箨": 6030,
      "箩": 6031,
      "箫": 6032,
      "箭": 6033,
      "箱": 6034,
      "箴": 6035,
      "箸": 6036,
      "節": 6037,
      "篁": 6038,
      "範": 6039,
      "篅": 6040,
      "篆": 6041,
      "篇": 6042,
      "築": 6043,
      "篌": 6044,
      "篑": 6045,
      "篓": 6046,
      "篙": 6047,
      "篝": 6048,
      "篡": 6049,
      "篤": 6050,
      "篦": 6051,
      "篪": 6052,
      "篮": 6053,
      "篱": 6054,
      "篷": 6055,
      "篾": 6056,
      "簀": 6057,
      "簇": 6058,
      "簈": 6059,
      "簌": 6060,
      "簕": 6061,
      "簘": 6062,
      "簜": 6063,
      "簟": 6064,
      "簡": 6065,
      "簧": 6066,
      "簪": 6067,
      "簫": 6068,
      "簸": 6069,
      "簽": 6070,
      "簿": 6071,
      "籀": 6072,
      "籁": 6073,
      "籃": 6074,
      "籊": 6075,
      "籌": 6076,
      "籍": 6077,
      "籐": 6078,
      "籟": 6079,
      "籠": 6080,
      "米": 6081,
      "籴": 6082,
      "籵": 6083,
      "籹": 6084,
      "类": 6085,
      "籼": 6086,
      "籽": 6087,
      "粄": 6088,
      "粉": 6089,
      "粑": 6090,
      "粒": 6091,
      "粕": 6092,
      "粗": 6093,
      "粘": 6094,
      "粟": 6095,
      "粤": 6096,
      "粥": 6097,
      "粧": 6098,
      "粪": 6099,
      "粮": 6100,
      "粱": 6101,
      "粲": 6102,
      "粳": 6103,
      "粹": 6104,
      "粻": 6105,
      "粼": 6106,
      "粽": 6107,
      "精": 6108,
      "粿": 6109,
      "糁": 6110,
      "糃": 6111,
      "糅": 6112,
      "糊": 6113,
      "糌": 6114,
      "糍": 6115,
      "糑": 6116,
      "糕": 6117,
      "糖": 6118,
      "糗": 6119,
      "糙": 6120,
      "糜": 6121,
      "糞": 6122,
      "糟": 6123,
      "糠": 6124,
      "糨": 6125,
      "糬": 6126,
      "糯": 6127,
      "糵": 6128,
      "糷": 6129,
      "糸": 6130,
      "系": 6131,
      "糾": 6132,
      "紀": 6133,
      "約": 6134,
      "紅": 6135,
      "紆": 6136,
      "紇": 6137,
      "紈": 6138,
      "紊": 6139,
      "紋": 6140,
      "納": 6141,
      "紐": 6142,
      "純": 6143,
      "紙": 6144,
      "級": 6145,
      "素": 6146,
      "索": 6147,
      "紦": 6148,
      "紧": 6149,
      "紫": 6150,
      "紮": 6151,
      "累": 6152,
      "細": 6153,
      "紹": 6154,
      "紿": 6155,
      "終": 6156,
      "絃": 6157,
      "組": 6158,
      "絋": 6159,
      "結": 6160,
      "絔": 6161,
      "絕": 6162,
      "絘": 6163,
      "絞": 6164,
      "絡": 6165,
      "給": 6166,
      "絬": 6167,
      "絮": 6168,
      "統": 6169,
      "絲": 6170,
      "絵": 6171,
      "絿": 6172,
      "綁": 6173,
      "綄": 6174,
      "經": 6175,
      "継": 6176,
      "綜": 6177,
      "綞": 6178,
      "綟": 6179,
      "綠": 6180,
      "綢": 6181,
      "綦": 6182,
      "維": 6183,
      "綮": 6184,
      "網": 6185,
      "綴": 6186,
      "綷": 6187,
      "綼": 6188,
      "綾": 6189,
      "緊": 6190,
      "緋": 6191,
      "緍": 6192,
      "緑": 6193,
      "緒": 6194,
      "緓": 6195,
      "線": 6196,
      "緝": 6197,
      "緞": 6198,
      "締": 6199,
      "緣": 6200,
      "編": 6201,
      "緩": 6202,
      "緫": 6203,
      "練": 6204,
      "縂": 6205,
      "縛": 6206,
      "縣": 6207,
      "縤": 6208,
      "縫": 6209,
      "縮": 6210,
      "縱": 6211,
      "縳": 6212,
      "縷": 6213,
      "總": 6214,
      "績": 6215,
      "繁": 6216,
      "繄": 6217,
      "繇": 6218,
      "織": 6219,
      "繙": 6220,
      "繞": 6221,
      "繦": 6222,
      "繧": 6223,
      "繪": 6224,
      "繫": 6225,
      "繰": 6226,
      "繳": 6227,
      "繷": 6228,
      "繻": 6229,
      "繼": 6230,
      "纂": 6231,
      "續": 6232,
      "纖": 6233,
      "纠": 6234,
      "纡": 6235,
      "红": 6236,
      "纣": 6237,
      "纤": 6238,
      "纥": 6239,
      "约": 6240,
      "级": 6241,
      "纨": 6242,
      "纪": 6243,
      "纫": 6244,
      "纬": 6245,
      "纭": 6246,
      "纯": 6247,
      "纰": 6248,
      "纱": 6249,
      "纲": 6250,
      "纳": 6251,
      "纵": 6252,
      "纶": 6253,
      "纷": 6254,
      "纸": 6255,
      "纹": 6256,
      "纺": 6257,
      "纽": 6258,
      "纾": 6259,
      "线": 6260,
      "绀": 6261,
      "练": 6262,
      "组": 6263,
      "绅": 6264,
      "细": 6265,
      "织": 6266,
      "终": 6267,
      "绉": 6268,
      "绊": 6269,
      "绋": 6270,
      "绌": 6271,
      "绍": 6272,
      "绎": 6273,
      "经": 6274,
      "绐": 6275,
      "绑": 6276,
      "绒": 6277,
      "结": 6278,
      "绔": 6279,
      "绕": 6280,
      "绗": 6281,
      "绘": 6282,
      "给": 6283,
      "绚": 6284,
      "绛": 6285,
      "络": 6286,
      "绝": 6287,
      "绞": 6288,
      "统": 6289,
      "绡": 6290,
      "绢": 6291,
      "绣": 6292,
      "绥": 6293,
      "绦": 6294,
      "继": 6295,
      "绨": 6296,
      "绩": 6297,
      "绪": 6298,
      "绫": 6299,
      "续": 6300,
      "绮": 6301,
      "绯": 6302,
      "绰": 6303,
      "绳": 6304,
      "维": 6305,
      "绵": 6306,
      "绶": 6307,
      "绷": 6308,
      "绸": 6309,
      "绺": 6310,
      "绻": 6311,
      "综": 6312,
      "绽": 6313,
      "绾": 6314,
      "绿": 6315,
      "缀": 6316,
      "缁": 6317,
      "缂": 6318,
      "缃": 6319,
      "缄": 6320,
      "缅": 6321,
      "缆": 6322,
      "缇": 6323,
      "缈": 6324,
      "缉": 6325,
      "缋": 6326,
      "缌": 6327,
      "缍": 6328,
      "缎": 6329,
      "缏": 6330,
      "缐": 6331,
      "缒": 6332,
      "缓": 6333,
      "缔": 6334,
      "缕": 6335,
      "编": 6336,
      "缗": 6337,
      "缘": 6338,
      "缙": 6339,
      "缚": 6340,
      "缛": 6341,
      "缜": 6342,
      "缝": 6343,
      "缟": 6344,
      "缠": 6345,
      "缡": 6346,
      "缢": 6347,
      "缣": 6348,
      "缤": 6349,
      "缥": 6350,
      "缦": 6351,
      "缧": 6352,
      "缨": 6353,
      "缩": 6354,
      "缪": 6355,
      "缫": 6356,
      "缬": 6357,
      "缭": 6358,
      "缮": 6359,
      "缯": 6360,
      "缰": 6361,
      "缱": 6362,
      "缳": 6363,
      "缴": 6364,
      "缵": 6365,
      "缶": 6366,
      "缷": 6367,
      "缸": 6368,
      "缺": 6369,
      "罁": 6370,
      "罂": 6371,
      "罄": 6372,
      "罅": 6373,
      "罇": 6374,
      "罊": 6375,
      "罋": 6376,
      "罏": 6377,
      "罐": 6378,
      "网": 6379,
      "罔": 6380,
      "罕": 6381,
      "罖": 6382,
      "罗": 6383,
      "罘": 6384,
      "罙": 6385,
      "罚": 6386,
      "罟": 6387,
      "罡": 6388,
      "罢": 6389,
      "罣": 6390,
      "罤": 6391,
      "罨": 6392,
      "罩": 6393,
      "罪": 6394,
      "罫": 6395,
      "罭": 6396,
      "置": 6397,
      "罰": 6398,
      "署": 6399,
      "罴": 6400,
      "罵": 6401,
      "罷": 6402,
      "罸": 6403,
      "罹": 6404,
      "罺": 6405,
      "罻": 6406,
      "罽": 6407,
      "罾": 6408,
      "罿": 6409,
      "羁": 6410,
      "羂": 6411,
      "羅": 6412,
      "羇": 6413,
      "羈": 6414,
      "羉": 6415,
      "羊": 6416,
      "羌": 6417,
      "美": 6418,
      "羏": 6419,
      "羑": 6420,
      "羒": 6421,
      "羓": 6422,
      "羔": 6423,
      "羕": 6424,
      "羘": 6425,
      "羙": 6426,
      "羚": 6427,
      "羛": 6428,
      "羜": 6429,
      "羝": 6430,
      "羞": 6431,
      "羟": 6432,
      "羡": 6433,
      "群": 6434,
      "羧": 6435,
      "義": 6436,
      "羫": 6437,
      "羬": 6438,
      "羭": 6439,
      "羮": 6440,
      "羯": 6441,
      "羰": 6442,
      "羲": 6443,
      "羳": 6444,
      "羶": 6445,
      "羷": 6446,
      "羸": 6447,
      "羹": 6448,
      "羽": 6449,
      "羾": 6450,
      "羿": 6451,
      "翀": 6452,
      "翁": 6453,
      "翃": 6454,
      "翅": 6455,
      "翉": 6456,
      "翊": 6457,
      "翋": 6458,
      "翌": 6459,
      "翎": 6460,
      "翑": 6461,
      "習": 6462,
      "翓": 6463,
      "翔": 6464,
      "翕": 6465,
      "翘": 6466,
      "翚": 6467,
      "翛": 6468,
      "翜": 6469,
      "翞": 6470,
      "翟": 6471,
      "翠": 6472,
      "翡": 6473,
      "翣": 6474,
      "翤": 6475,
      "翥": 6476,
      "翦": 6477,
      "翩": 6478,
      "翮": 6479,
      "翯": 6480,
      "翰": 6481,
      "翱": 6482,
      "翳": 6483,
      "翴": 6484,
      "翹": 6485,
      "翺": 6486,
      "翻": 6487,
      "翼": 6488,
      "耀": 6489,
      "老": 6490,
      "考": 6491,
      "耄": 6492,
      "者": 6493,
      "耆": 6494,
      "耋": 6495,
      "而": 6496,
      "耍": 6497,
      "耐": 6498,
      "耒": 6499,
      "耕": 6500,
      "耗": 6501,
      "耘": 6502,
      "耙": 6503,
      "耜": 6504,
      "耞": 6505,
      "耥": 6506,
      "耦": 6507,
      "耧": 6508,
      "耳": 6509,
      "耶": 6510,
      "耷": 6511,
      "耸": 6512,
      "耻": 6513,
      "耽": 6514,
      "耿": 6515,
      "聂": 6516,
      "聃": 6517,
      "聆": 6518,
      "聊": 6519,
      "聋": 6520,
      "职": 6521,
      "聍": 6522,
      "聒": 6523,
      "联": 6524,
      "聕": 6525,
      "聖": 6526,
      "聘": 6527,
      "聚": 6528,
      "聞": 6529,
      "聤": 6530,
      "聩": 6531,
      "聪": 6532,
      "聯": 6533,
      "聰": 6534,
      "聲": 6535,
      "職": 6536,
      "聼": 6537,
      "聽": 6538,
      "聿": 6539,
      "肀": 6540,
      "肃": 6541,
      "肄": 6542,
      "肅": 6543,
      "肆": 6544,
      "肇": 6545,
      "肉": 6546,
      "肋": 6547,
      "肌": 6548,
      "肏": 6549,
      "肓": 6550,
      "肖": 6551,
      "肘": 6552,
      "肚": 6553,
      "肛": 6554,
      "肜": 6555,
      "肝": 6556,
      "肟": 6557,
      "肠": 6558,
      "股": 6559,
      "肢": 6560,
      "肤": 6561,
      "肥": 6562,
      "肩": 6563,
      "肪": 6564,
      "肫": 6565,
      "肮": 6566,
      "肯": 6567,
      "肱": 6568,
      "育": 6569,
      "肴": 6570,
      "肺": 6571,
      "肼": 6572,
      "肽": 6573,
      "肾": 6574,
      "肿": 6575,
      "胀": 6576,
      "胁": 6577,
      "胂": 6578,
      "胃": 6579,
      "胄": 6580,
      "胆": 6581,
      "胊": 6582,
      "背": 6583,
      "胍": 6584,
      "胎": 6585,
      "胔": 6586,
      "胖": 6587,
      "胗": 6588,
      "胚": 6589,
      "胛": 6590,
      "胜": 6591,
      "胝": 6592,
      "胞": 6593,
      "胡": 6594,
      "胣": 6595,
      "胤": 6596,
      "胥": 6597,
      "胧": 6598,
      "胨": 6599,
      "胩": 6600,
      "胪": 6601,
      "胫": 6602,
      "胬": 6603,
      "胭": 6604,
      "胯": 6605,
      "胰": 6606,
      "胱": 6607,
      "胳": 6608,
      "胴": 6609,
      "胶": 6610,
      "胸": 6611,
      "胺": 6612,
      "胼": 6613,
      "能": 6614,
      "脂": 6615,
      "脄": 6616,
      "脅": 6617,
      "脆": 6618,
      "脇": 6619,
      "脈": 6620,
      "脉": 6621,
      "脊": 6622,
      "脋": 6623,
      "脍": 6624,
      "脏": 6625,
      "脐": 6626,
      "脑": 6627,
      "脒": 6628,
      "脓": 6629,
      "脔": 6630,
      "脕": 6631,
      "脖": 6632,
      "脘": 6633,
      "脚": 6634,
      "脢": 6635,
      "脣": 6636,
      "脤": 6637,
      "脩": 6638,
      "脫": 6639,
      "脯": 6640,
      "脰": 6641,
      "脱": 6642,
      "脲": 6643,
      "脷": 6644,
      "脸": 6645,
      "脹": 6646,
      "脾": 6647,
      "腀": 6648,
      "腃": 6649,
      "腆": 6650,
      "腈": 6651,
      "腊": 6652,
      "腋": 6653,
      "腌": 6654,
      "腍": 6655,
      "腐": 6656,
      "腑": 6657,
      "腓": 6658,
      "腔": 6659,
      "腕": 6660,
      "腘": 6661,
      "腙": 6662,
      "腥": 6663,
      "腦": 6664,
      "腧": 6665,
      "腩": 6666,
      "腫": 6667,
      "腭": 6668,
      "腮": 6669,
      "腰": 6670,
      "腱": 6671,
      "腳": 6672,
      "腴": 6673,
      "腶": 6674,
      "腸": 6675,
      "腹": 6676,
      "腺": 6677,
      "腻": 6678,
      "腼": 6679,
      "腾": 6680,
      "腿": 6681,
      "膀": 6682,
      "膂": 6683,
      "膈": 6684,
      "膊": 6685,
      "膏": 6686,
      "膑": 6687,
      "膘": 6688,
      "膛": 6689,
      "膜": 6690,
      "膝": 6691,
      "膞": 6692,
      "膟": 6693,
      "膠": 6694,
      "膦": 6695,
      "膨": 6696,
      "膳": 6697,
      "膹": 6698,
      "膺": 6699,
      "膻": 6700,
      "膽": 6701,
      "臀": 6702,
      "臂": 6703,
      "臃": 6704,
      "臆": 6705,
      "臉": 6706,
      "臊": 6707,
      "臌": 6708,
      "臓": 6709,
      "臘": 6710,
      "臟": 6711,
      "臣": 6712,
      "臥": 6713,
      "臧": 6714,
      "臨": 6715,
      "臩": 6716,
      "自": 6717,
      "臬": 6718,
      "臭": 6719,
      "至": 6720,
      "致": 6721,
      "臸": 6722,
      "臺": 6723,
      "臻": 6724,
      "臼": 6725,
      "臾": 6726,
      "舀": 6727,
      "舂": 6728,
      "舄": 6729,
      "舅": 6730,
      "舆": 6731,
      "興": 6732,
      "舉": 6733,
      "舊": 6734,
      "舌": 6735,
      "舍": 6736,
      "舐": 6737,
      "舒": 6738,
      "舔": 6739,
      "舖": 6740,
      "舛": 6741,
      "舜": 6742,
      "舞": 6743,
      "舟": 6744,
      "舢": 6745,
      "舧": 6746,
      "舨": 6747,
      "航": 6748,
      "舫": 6749,
      "般": 6750,
      "舭": 6751,
      "舯": 6752,
      "舰": 6753,
      "舱": 6754,
      "舴": 6755,
      "舵": 6756,
      "舶": 6757,
      "舷": 6758,
      "船": 6759,
      "舺": 6760,
      "舾": 6761,
      "舿": 6762,
      "艄": 6763,
      "艇": 6764,
      "艉": 6765,
      "艋": 6766,
      "艏": 6767,
      "艘": 6768,
      "艙": 6769,
      "艦": 6770,
      "艮": 6771,
      "良": 6772,
      "艰": 6773,
      "艱": 6774,
      "色": 6775,
      "艳": 6776,
      "艹": 6777,
      "艺": 6778,
      "艽": 6779,
      "艾": 6780,
      "艿": 6781,
      "芀": 6782,
      "节": 6783,
      "芃": 6784,
      "芄": 6785,
      "芈": 6786,
      "芊": 6787,
      "芋": 6788,
      "芍": 6789,
      "芎": 6790,
      "芒": 6791,
      "芘": 6792,
      "芙": 6793,
      "芛": 6794,
      "芜": 6795,
      "芝": 6796,
      "芞": 6797,
      "芠": 6798,
      "芡": 6799,
      "芥": 6800,
      "芦": 6801,
      "芨": 6802,
      "芩": 6803,
      "芪": 6804,
      "芫": 6805,
      "芬": 6806,
      "芭": 6807,
      "芮": 6808,
      "芯": 6809,
      "芰": 6810,
      "花": 6811,
      "芳": 6812,
      "芴": 6813,
      "芷": 6814,
      "芸": 6815,
      "芹": 6816,
      "芺": 6817,
      "芽": 6818,
      "芾": 6819,
      "苀": 6820,
      "苁": 6821,
      "苄": 6822,
      "苇": 6823,
      "苊": 6824,
      "苋": 6825,
      "苌": 6826,
      "苍": 6827,
      "苎": 6828,
      "苏": 6829,
      "苑": 6830,
      "苒": 6831,
      "苓": 6832,
      "苔": 6833,
      "苕": 6834,
      "苗": 6835,
      "苚": 6836,
      "苛": 6837,
      "苜": 6838,
      "苝": 6839,
      "苞": 6840,
      "苟": 6841,
      "苡": 6842,
      "苣": 6843,
      "苤": 6844,
      "若": 6845,
      "苦": 6846,
      "苯": 6847,
      "英": 6848,
      "苷": 6849,
      "苹": 6850,
      "苺": 6851,
      "苻": 6852,
      "茁": 6853,
      "茂": 6854,
      "范": 6855,
      "茄": 6856,
      "茅": 6857,
      "茉": 6858,
      "茍": 6859,
      "茎": 6860,
      "茏": 6861,
      "茔": 6862,
      "茕": 6863,
      "茗": 6864,
      "茚": 6865,
      "茛": 6866,
      "茜": 6867,
      "茧": 6868,
      "茨": 6869,
      "茫": 6870,
      "茬": 6871,
      "茭": 6872,
      "茯": 6873,
      "茱": 6874,
      "茲": 6875,
      "茴": 6876,
      "茵": 6877,
      "茶": 6878,
      "茸": 6879,
      "茹": 6880,
      "茺": 6881,
      "茼": 6882,
      "荀": 6883,
      "荃": 6884,
      "荆": 6885,
      "荇": 6886,
      "草": 6887,
      "荏": 6888,
      "荐": 6889,
      "荑": 6890,
      "荒": 6891,
      "荔": 6892,
      "荖": 6893,
      "荚": 6894,
      "荛": 6895,
      "荜": 6896,
      "荞": 6897,
      "荟": 6898,
      "荠": 6899,
      "荡": 6900,
      "荣": 6901,
      "荤": 6902,
      "荥": 6903,
      "荦": 6904,
      "荧": 6905,
      "荨": 6906,
      "荪": 6907,
      "荫": 6908,
      "药": 6909,
      "荷": 6910,
      "荸": 6911,
      "荻": 6912,
      "荼": 6913,
      "荽": 6914,
      "荾": 6915,
      "莂": 6916,
      "莅": 6917,
      "莆": 6918,
      "莉": 6919,
      "莊": 6920,
      "莎": 6921,
      "莒": 6922,
      "莓": 6923,
      "莘": 6924,
      "莞": 6925,
      "莠": 6926,
      "莨": 6927,
      "莪": 6928,
      "莫": 6929,
      "莰": 6930,
      "莱": 6931,
      "莲": 6932,
      "莳": 6933,
      "莴": 6934,
      "莶": 6935,
      "获": 6936,
      "莹": 6937,
      "莺": 6938,
      "莼": 6939,
      "莽": 6940,
      "菀": 6941,
      "菁": 6942,
      "菂": 6943,
      "菃": 6944,
      "菅": 6945,
      "菇": 6946,
      "菈": 6947,
      "菊": 6948,
      "菌": 6949,
      "菏": 6950,
      "菓": 6951,
      "菔": 6952,
      "菖": 6953,
      "菘": 6954,
      "菜": 6955,
      "菝": 6956,
      "菟": 6957,
      "菠": 6958,
      "菡": 6959,
      "菥": 6960,
      "菩": 6961,
      "菪": 6962,
      "華": 6963,
      "菰": 6964,
      "菱": 6965,
      "菲": 6966,
      "菸": 6967,
      "萁": 6968,
      "萃": 6969,
      "萄": 6970,
      "萊": 6971,
      "萋": 6972,
      "萌": 6973,
      "萍": 6974,
      "萎": 6975,
      "萘": 6976,
      "萜": 6977,
      "萝": 6978,
      "萤": 6979,
      "营": 6980,
      "萦": 6981,
      "萧": 6982,
      "萨": 6983,
      "萩": 6984,
      "萬": 6985,
      "萰": 6986,
      "萱": 6987,
      "萸": 6988,
      "萼": 6989,
      "落": 6990,
      "萿": 6991,
      "葆": 6992,
      "葉": 6993,
      "葌": 6994,
      "著": 6995,
      "葙": 6996,
      "葚": 6997,
      "葛": 6998,
      "葜": 6999,
      "葝": 7000,
      "葡": 7001,
      "董": 7002,
      "葩": 7003,
      "葫": 7004,
      "葬": 7005,
      "葭": 7006,
      "葱": 7007,
      "葳": 7008,
      "葵": 7009,
      "葶": 7010,
      "葸": 7011,
      "葺": 7012,
      "蒂": 7013,
      "蒄": 7014,
      "蒈": 7015,
      "蒉": 7016,
      "蒋": 7017,
      "蒌": 7018,
      "蒎": 7019,
      "蒐": 7020,
      "蒗": 7021,
      "蒙": 7022,
      "蒜": 7023,
      "蒟": 7024,
      "蒡": 7025,
      "蒭": 7026,
      "蒯": 7027,
      "蒲": 7028,
      "蒴": 7029,
      "蒸": 7030,
      "蒺": 7031,
      "蒻": 7032,
      "蒽": 7033,
      "蒿": 7034,
      "蓁": 7035,
      "蓂": 7036,
      "蓄": 7037,
      "蓉": 7038,
      "蓊": 7039,
      "蓋": 7040,
      "蓍": 7041,
      "蓑": 7042,
      "蓓": 7043,
      "蓔": 7044,
      "蓖": 7045,
      "蓝": 7046,
      "蓟": 7047,
      "蓣": 7048,
      "蓥": 7049,
      "蓦": 7050,
      "蓬": 7051,
      "蓮": 7052,
      "蓿": 7053,
      "蔑": 7054,
      "蔓": 7055,
      "蔗": 7056,
      "蔚": 7057,
      "蔡": 7058,
      "蔫": 7059,
      "蔬": 7060,
      "蔭": 7061,
      "蔷": 7062,
      "蔸": 7063,
      "蔺": 7064,
      "蔻": 7065,
      "蔼": 7066,
      "蔽": 7067,
      "蕃": 7068,
      "蕈": 7069,
      "蕉": 7070,
      "蕊": 7071,
      "蕖": 7072,
      "蕙": 7073,
      "蕞": 7074,
      "蕨": 7075,
      "蕩": 7076,
      "蕯": 7077,
      "蕲": 7078,
      "蕴": 7079,
      "蕺": 7080,
      "蕻": 7081,
      "蕾": 7082,
      "薁": 7083,
      "薄": 7084,
      "薇": 7085,
      "薏": 7086,
      "薙": 7087,
      "薛": 7088,
      "薜": 7089,
      "薦": 7090,
      "薨": 7091,
      "薩": 7092,
      "薪": 7093,
      "薮": 7094,
      "薯": 7095,
      "薰": 7096,
      "薳": 7097,
      "薹": 7098,
      "藁": 7099,
      "藉": 7100,
      "藍": 7101,
      "藏": 7102,
      "藐": 7103,
      "藓": 7104,
      "藕": 7105,
      "藜": 7106,
      "藝": 7107,
      "藤": 7108,
      "藥": 7109,
      "藦": 7110,
      "藩": 7111,
      "藻": 7112,
      "藿": 7113,
      "蘅": 7114,
      "蘇": 7115,
      "蘊": 7116,
      "蘑": 7117,
      "蘖": 7118,
      "蘘": 7119,
      "蘭": 7120,
      "蘸": 7121,
      "蘼": 7122,
      "蘿": 7123,
      "虎": 7124,
      "虏": 7125,
      "虐": 7126,
      "虑": 7127,
      "虔": 7128,
      "處": 7129,
      "虚": 7130,
      "虛": 7131,
      "虜": 7132,
      "虞": 7133,
      "號": 7134,
      "虫": 7135,
      "虬": 7136,
      "虱": 7137,
      "虳": 7138,
      "虴": 7139,
      "虹": 7140,
      "虺": 7141,
      "虻": 7142,
      "虼": 7143,
      "虽": 7144,
      "虾": 7145,
      "虿": 7146,
      "蚀": 7147,
      "蚁": 7148,
      "蚂": 7149,
      "蚃": 7150,
      "蚊": 7151,
      "蚋": 7152,
      "蚌": 7153,
      "蚓": 7154,
      "蚔": 7155,
      "蚕": 7156,
      "蚗": 7157,
      "蚚": 7158,
      "蚜": 7159,
      "蚝": 7160,
      "蚣": 7161,
      "蚤": 7162,
      "蚧": 7163,
      "蚩": 7164,
      "蚪": 7165,
      "蚬": 7166,
      "蚯": 7167,
      "蚰": 7168,
      "蚱": 7169,
      "蚳": 7170,
      "蚴": 7171,
      "蚵": 7172,
      "蚶": 7173,
      "蚺": 7174,
      "蚾": 7175,
      "蛀": 7176,
      "蛁": 7177,
      "蛄": 7178,
      "蛆": 7179,
      "蛇": 7180,
      "蛉": 7181,
      "蛊": 7182,
      "蛋": 7183,
      "蛎": 7184,
      "蛏": 7185,
      "蛐": 7186,
      "蛔": 7187,
      "蛙": 7188,
      "蛛": 7189,
      "蛞": 7190,
      "蛟": 7191,
      "蛤": 7192,
      "蛭": 7193,
      "蛮": 7194,
      "蛰": 7195,
      "蛱": 7196,
      "蛲": 7197,
      "蛴": 7198,
      "蛸": 7199,
      "蛹": 7200,
      "蛾": 7201,
      "蜀": 7202,
      "蜂": 7203,
      "蜃": 7204,
      "蜇": 7205,
      "蜈": 7206,
      "蜉": 7207,
      "蜊": 7208,
      "蜍": 7209,
      "蜒": 7210,
      "蜓": 7211,
      "蜕": 7212,
      "蜗": 7213,
      "蜘": 7214,
      "蜚": 7215,
      "蜜": 7216,
      "蜡": 7217,
      "蜢": 7218,
      "蜣": 7219,
      "蜥": 7220,
      "蜰": 7221,
      "蜱": 7222,
      "蜴": 7223,
      "蜷": 7224,
      "蜻": 7225,
      "蜿": 7226,
      "蝇": 7227,
      "蝈": 7228,
      "蝉": 7229,
      "蝌": 7230,
      "蝍": 7231,
      "蝎": 7232,
      "蝓": 7233,
      "蝕": 7234,
      "蝗": 7235,
      "蝙": 7236,
      "蝚": 7237,
      "蝠": 7238,
      "蝣": 7239,
      "蝥": 7240,
      "蝦": 7241,
      "蝨": 7242,
      "蝮": 7243,
      "蝰": 7244,
      "蝴": 7245,
      "蝶": 7246,
      "蝻": 7247,
      "蝼": 7248,
      "蝽": 7249,
      "蝾": 7250,
      "螁": 7251,
      "螂": 7252,
      "螃": 7253,
      "螅": 7254,
      "螈": 7255,
      "螉": 7256,
      "螌": 7257,
      "融": 7258,
      "螒": 7259,
      "螚": 7260,
      "螛": 7261,
      "螝": 7262,
      "螞": 7263,
      "螟": 7264,
      "螠": 7265,
      "螢": 7266,
      "螤": 7267,
      "螨": 7268,
      "螫": 7269,
      "螬": 7270,
      "螭": 7271,
      "螯": 7272,
      "螳": 7273,
      "螺": 7274,
      "螽": 7275,
      "蟀": 7276,
      "蟆": 7277,
      "蟋": 7278,
      "蟑": 7279,
      "蟒": 7280,
      "蟠": 7281,
      "蟥": 7282,
      "蟮": 7283,
      "蟲": 7284,
      "蟹": 7285,
      "蟺": 7286,
      "蟻": 7287,
      "蟼": 7288,
      "蟽": 7289,
      "蟾": 7290,
      "蟿": 7291,
      "蠀": 7292,
      "蠂": 7293,
      "蠅": 7294,
      "蠈": 7295,
      "蠉": 7296,
      "蠊": 7297,
      "蠋": 7298,
      "蠍": 7299,
      "蠓": 7300,
      "蠔": 7301,
      "蠕": 7302,
      "蠖": 7303,
      "蠡": 7304,
      "蠢": 7305,
      "蠲": 7306,
      "蠵": 7307,
      "蠹": 7308,
      "血": 7309,
      "衄": 7310,
      "衅": 7311,
      "行": 7312,
      "衍": 7313,
      "術": 7314,
      "衔": 7315,
      "街": 7316,
      "衙": 7317,
      "衛": 7318,
      "衝": 7319,
      "衞": 7320,
      "衡": 7321,
      "衢": 7322,
      "衣": 7323,
      "补": 7324,
      "表": 7325,
      "衩": 7326,
      "衪": 7327,
      "衫": 7328,
      "衬": 7329,
      "衭": 7330,
      "衮": 7331,
      "衰": 7332,
      "衲": 7333,
      "衵": 7334,
      "衷": 7335,
      "衹": 7336,
      "衾": 7337,
      "袁": 7338,
      "袂": 7339,
      "袄": 7340,
      "袅": 7341,
      "袈": 7342,
      "袋": 7343,
      "袍": 7344,
      "袐": 7345,
      "袒": 7346,
      "袓": 7347,
      "袖": 7348,
      "袗": 7349,
      "袛": 7350,
      "袜": 7351,
      "袢": 7352,
      "袤": 7353,
      "被": 7354,
      "袭": 7355,
      "袮": 7356,
      "袱": 7357,
      "裁": 7358,
      "裂": 7359,
      "装": 7360,
      "裆": 7361,
      "裇": 7362,
      "裋": 7363,
      "裏": 7364,
      "裑": 7365,
      "裒": 7366,
      "裔": 7367,
      "裕": 7368,
      "裘": 7369,
      "裙": 7370,
      "補": 7371,
      "裝": 7372,
      "裟": 7373,
      "裡": 7374,
      "裤": 7375,
      "裥": 7376,
      "裨": 7377,
      "裰": 7378,
      "裱": 7379,
      "裲": 7380,
      "裳": 7381,
      "裴": 7382,
      "裸": 7383,
      "裹": 7384,
      "製": 7385,
      "裾": 7386,
      "褂": 7387,
      "褊": 7388,
      "褐": 7389,
      "褒": 7390,
      "褓": 7391,
      "褔": 7392,
      "褙": 7393,
      "褚": 7394,
      "褛": 7395,
      "褡": 7396,
      "褥": 7397,
      "褦": 7398,
      "褪": 7399,
      "褫": 7400,
      "褲": 7401,
      "褴": 7402,
      "褶": 7403,
      "褻": 7404,
      "襁": 7405,
      "襃": 7406,
      "襄": 7407,
      "襌": 7408,
      "襞": 7409,
      "襟": 7410,
      "襪": 7411,
      "襲": 7412,
      "襻": 7413,
      "西": 7414,
      "要": 7415,
      "覂": 7416,
      "覃": 7417,
      "覆": 7418,
      "見": 7419,
      "規": 7420,
      "覓": 7421,
      "視": 7422,
      "覚": 7423,
      "覜": 7424,
      "覧": 7425,
      "親": 7426,
      "覺": 7427,
      "覽": 7428,
      "觀": 7429,
      "见": 7430,
      "观": 7431,
      "规": 7432,
      "觅": 7433,
      "视": 7434,
      "觇": 7435,
      "览": 7436,
      "觉": 7437,
      "觊": 7438,
      "觋": 7439,
      "觌": 7440,
      "觎": 7441,
      "觏": 7442,
      "觐": 7443,
      "觑": 7444,
      "角": 7445,
      "觔": 7446,
      "觚": 7447,
      "觜": 7448,
      "觞": 7449,
      "解": 7450,
      "觥": 7451,
      "触": 7452,
      "觫": 7453,
      "觯": 7454,
      "觳": 7455,
      "觸": 7456,
      "言": 7457,
      "訂": 7458,
      "訇": 7459,
      "計": 7460,
      "訊": 7461,
      "討": 7462,
      "訓": 7463,
      "託": 7464,
      "記": 7465,
      "訞": 7466,
      "訧": 7467,
      "訪": 7468,
      "設": 7469,
      "許": 7470,
      "訴": 7471,
      "診": 7472,
      "註": 7473,
      "証": 7474,
      "訽": 7475,
      "訾": 7476,
      "詐": 7477,
      "評": 7478,
      "詛": 7479,
      "詞": 7480,
      "詢": 7481,
      "詣": 7482,
      "試": 7483,
      "詩": 7484,
      "詪": 7485,
      "詫": 7486,
      "詭": 7487,
      "話": 7488,
      "該": 7489,
      "詳": 7490,
      "詹": 7491,
      "誅": 7492,
      "誉": 7493,
      "誊": 7494,
      "誌": 7495,
      "認": 7496,
      "誏": 7497,
      "誑": 7498,
      "誓": 7499,
      "誕": 7500,
      "語": 7501,
      "誠": 7502,
      "誤": 7503,
      "誦": 7504,
      "誧": 7505,
      "誨": 7506,
      "説": 7507,
      "誰": 7508,
      "課": 7509,
      "誹": 7510,
      "誼": 7511,
      "調": 7512,
      "諀": 7513,
      "談": 7514,
      "請": 7515,
      "論": 7516,
      "諟": 7517,
      "諡": 7518,
      "諮": 7519,
      "諷": 7520,
      "諸": 7521,
      "諾": 7522,
      "謀": 7523,
      "謂": 7524,
      "謇": 7525,
      "謗": 7526,
      "謙": 7527,
      "講": 7528,
      "謝": 7529,
      "謢": 7530,
      "謬": 7531,
      "謹": 7532,
      "證": 7533,
      "識": 7534,
      "譜": 7535,
      "警": 7536,
      "譫": 7537,
      "譬": 7538,
      "議": 7539,
      "譲": 7540,
      "譴": 7541,
      "護": 7542,
      "譽": 7543,
      "讀": 7544,
      "讃": 7545,
      "讉": 7546,
      "變": 7547,
      "讓": 7548,
      "讚": 7549,
      "计": 7550,
      "订": 7551,
      "讣": 7552,
      "认": 7553,
      "讥": 7554,
      "讦": 7555,
      "讧": 7556,
      "讨": 7557,
      "让": 7558,
      "讪": 7559,
      "讫": 7560,
      "讬": 7561,
      "训": 7562,
      "议": 7563,
      "讯": 7564,
      "记": 7565,
      "讲": 7566,
      "讳": 7567,
      "讴": 7568,
      "讶": 7569,
      "讷": 7570,
      "许": 7571,
      "讹": 7572,
      "论": 7573,
      "讼": 7574,
      "讽": 7575,
      "设": 7576,
      "访": 7577,
      "诀": 7578,
      "证": 7579,
      "诂": 7580,
      "诃": 7581,
      "评": 7582,
      "诅": 7583,
      "识": 7584,
      "诈": 7585,
      "诉": 7586,
      "诊": 7587,
      "诋": 7588,
      "诌": 7589,
      "词": 7590,
      "诏": 7591,
      "译": 7592,
      "诒": 7593,
      "诓": 7594,
      "诔": 7595,
      "试": 7596,
      "诗": 7597,
      "诘": 7598,
      "诙": 7599,
      "诚": 7600,
      "诛": 7601,
      "诜": 7602,
      "话": 7603,
      "诞": 7604,
      "诟": 7605,
      "诠": 7606,
      "诡": 7607,
      "询": 7608,
      "诣": 7609,
      "该": 7610,
      "详": 7611,
      "诧": 7612,
      "诨": 7613,
      "诩": 7614,
      "诪": 7615,
      "诫": 7616,
      "诬": 7617,
      "语": 7618,
      "诮": 7619,
      "误": 7620,
      "诰": 7621,
      "诱": 7622,
      "诲": 7623,
      "诳": 7624,
      "说": 7625,
      "诵": 7626,
      "诶": 7627,
      "请": 7628,
      "诸": 7629,
      "诺": 7630,
      "读": 7631,
      "诽": 7632,
      "课": 7633,
      "诿": 7634,
      "谀": 7635,
      "谁": 7636,
      "谂": 7637,
      "调": 7638,
      "谄": 7639,
      "谅": 7640,
      "谆": 7641,
      "谈": 7642,
      "谊": 7643,
      "谋": 7644,
      "谌": 7645,
      "谍": 7646,
      "谎": 7647,
      "谏": 7648,
      "谐": 7649,
      "谑": 7650,
      "谒": 7651,
      "谓": 7652,
      "谔": 7653,
      "谕": 7654,
      "谗": 7655,
      "谘": 7656,
      "谙": 7657,
      "谚": 7658,
      "谛": 7659,
      "谜": 7660,
      "谟": 7661,
      "谢": 7662,
      "谣": 7663,
      "谤": 7664,
      "谥": 7665,
      "谦": 7666,
      "谧": 7667,
      "谨": 7668,
      "谩": 7669,
      "谪": 7670,
      "谬": 7671,
      "谭": 7672,
      "谯": 7673,
      "谰": 7674,
      "谱": 7675,
      "谲": 7676,
      "谴": 7677,
      "谵": 7678,
      "谶": 7679,
      "谷": 7680,
      "豁": 7681,
      "豆": 7682,
      "豇": 7683,
      "豈": 7684,
      "豉": 7685,
      "豋": 7686,
      "豌": 7687,
      "豐": 7688,
      "豔": 7689,
      "豕": 7690,
      "豚": 7691,
      "象": 7692,
      "豢": 7693,
      "豨": 7694,
      "豪": 7695,
      "豫": 7696,
      "豬": 7697,
      "豸": 7698,
      "豹": 7699,
      "豺": 7700,
      "豻": 7701,
      "豿": 7702,
      "貂": 7703,
      "貅": 7704,
      "貉": 7705,
      "貌": 7706,
      "貍": 7707,
      "貓": 7708,
      "貔": 7709,
      "貘": 7710,
      "貝": 7711,
      "貞": 7712,
      "負": 7713,
      "財": 7714,
      "貢": 7715,
      "貧": 7716,
      "貨": 7717,
      "販": 7718,
      "貫": 7719,
      "責": 7720,
      "貭": 7721,
      "貴": 7722,
      "買": 7723,
      "貸": 7724,
      "費": 7725,
      "貼": 7726,
      "貿": 7727,
      "賀": 7728,
      "資": 7729,
      "賈": 7730,
      "賓": 7731,
      "賜": 7732,
      "賞": 7733,
      "賠": 7734,
      "賢": 7735,
      "賣": 7736,
      "賥": 7737,
      "賦": 7738,
      "質": 7739,
      "賬": 7740,
      "賭": 7741,
      "賴": 7742,
      "賸": 7743,
      "賺": 7744,
      "購": 7745,
      "賽": 7746,
      "贊": 7747,
      "贏": 7748,
      "贖": 7749,
      "贝": 7750,
      "贞": 7751,
      "负": 7752,
      "贡": 7753,
      "财": 7754,
      "责": 7755,
      "贤": 7756,
      "败": 7757,
      "账": 7758,
      "货": 7759,
      "质": 7760,
      "贩": 7761,
      "贪": 7762,
      "贫": 7763,
      "贬": 7764,
      "购": 7765,
      "贮": 7766,
      "贯": 7767,
      "贰": 7768,
      "贱": 7769,
      "贲": 7770,
      "贴": 7771,
      "贵": 7772,
      "贶": 7773,
      "贷": 7774,
      "贸": 7775,
      "费": 7776,
      "贺": 7777,
      "贻": 7778,
      "贼": 7779,
      "贽": 7780,
      "贾": 7781,
      "贿": 7782,
      "赀": 7783,
      "赁": 7784,
      "赂": 7785,
      "赃": 7786,
      "资": 7787,
      "赅": 7788,
      "赈": 7789,
      "赉": 7790,
      "赊": 7791,
      "赋": 7792,
      "赌": 7793,
      "赎": 7794,
      "赏": 7795,
      "赐": 7796,
      "赑": 7797,
      "赒": 7798,
      "赓": 7799,
      "赔": 7800,
      "赖": 7801,
      "赘": 7802,
      "赚": 7803,
      "赛": 7804,
      "赜": 7805,
      "赝": 7806,
      "赞": 7807,
      "赠": 7808,
      "赡": 7809,
      "赢": 7810,
      "赣": 7811,
      "赤": 7812,
      "赦": 7813,
      "赧": 7814,
      "赫": 7815,
      "赭": 7816,
      "走": 7817,
      "赳": 7818,
      "赴": 7819,
      "赵": 7820,
      "赶": 7821,
      "起": 7822,
      "赻": 7823,
      "赽": 7824,
      "趁": 7825,
      "趄": 7826,
      "超": 7827,
      "越": 7828,
      "趋": 7829,
      "趑": 7830,
      "趔": 7831,
      "趕": 7832,
      "趟": 7833,
      "趣": 7834,
      "趨": 7835,
      "足": 7836,
      "趴": 7837,
      "趵": 7838,
      "趸": 7839,
      "趺": 7840,
      "趼": 7841,
      "趾": 7842,
      "趿": 7843,
      "跃": 7844,
      "跄": 7845,
      "跆": 7846,
      "跋": 7847,
      "跌": 7848,
      "跎": 7849,
      "跏": 7850,
      "跐": 7851,
      "跑": 7852,
      "跖": 7853,
      "跗": 7854,
      "跘": 7855,
      "跚": 7856,
      "跛": 7857,
      "距": 7858,
      "跞": 7859,
      "跟": 7860,
      "跡": 7861,
      "跣": 7862,
      "跤": 7863,
      "跥": 7864,
      "跦": 7865,
      "跨": 7866,
      "跩": 7867,
      "跪": 7868,
      "路": 7869,
      "跳": 7870,
      "践": 7871,
      "跶": 7872,
      "跷": 7873,
      "跹": 7874,
      "跺": 7875,
      "跻": 7876,
      "踀": 7877,
      "踉": 7878,
      "踊": 7879,
      "踌": 7880,
      "踏": 7881,
      "踐": 7882,
      "踝": 7883,
      "踞": 7884,
      "踟": 7885,
      "踢": 7886,
      "踨": 7887,
      "踩": 7888,
      "踪": 7889,
      "踮": 7890,
      "踯": 7891,
      "踰": 7892,
      "踱": 7893,
      "踵": 7894,
      "踹": 7895,
      "踽": 7896,
      "蹀": 7897,
      "蹁": 7898,
      "蹂": 7899,
      "蹄": 7900,
      "蹇": 7901,
      "蹈": 7902,
      "蹉": 7903,
      "蹊": 7904,
      "蹋": 7905,
      "蹑": 7906,
      "蹒": 7907,
      "蹙": 7908,
      "蹚": 7909,
      "蹟": 7910,
      "蹤": 7911,
      "蹦": 7912,
      "蹩": 7913,
      "蹬": 7914,
      "蹭": 7915,
      "蹯": 7916,
      "蹰": 7917,
      "蹲": 7918,
      "蹴": 7919,
      "蹶": 7920,
      "蹼": 7921,
      "蹿": 7922,
      "躁": 7923,
      "躅": 7924,
      "躇": 7925,
      "躍": 7926,
      "躏": 7927,
      "躝": 7928,
      "躞": 7929,
      "身": 7930,
      "躬": 7931,
      "躯": 7932,
      "躲": 7933,
      "躶": 7934,
      "躹": 7935,
      "躺": 7936,
      "車": 7937,
      "軌": 7938,
      "軍": 7939,
      "軚": 7940,
      "軟": 7941,
      "軮": 7942,
      "軸": 7943,
      "較": 7944,
      "載": 7945,
      "輒": 7946,
      "輔": 7947,
      "輕": 7948,
      "輙": 7949,
      "輛": 7950,
      "輝": 7951,
      "輩": 7952,
      "輪": 7953,
      "輯": 7954,
      "輸": 7955,
      "輻": 7956,
      "轄": 7957,
      "轉": 7958,
      "轍": 7959,
      "轕": 7960,
      "轟": 7961,
      "车": 7962,
      "轧": 7963,
      "轨": 7964,
      "轩": 7965,
      "轫": 7966,
      "转": 7967,
      "轭": 7968,
      "轮": 7969,
      "软": 7970,
      "轰": 7971,
      "轱": 7972,
      "轲": 7973,
      "轳": 7974,
      "轴": 7975,
      "轶": 7976,
      "轸": 7977,
      "轻": 7978,
      "轼": 7979,
      "载": 7980,
      "轾": 7981,
      "轿": 7982,
      "辂": 7983,
      "较": 7984,
      "辄": 7985,
      "辅": 7986,
      "辆": 7987,
      "辇": 7988,
      "辈": 7989,
      "辉": 7990,
      "辊": 7991,
      "辋": 7992,
      "辍": 7993,
      "辐": 7994,
      "辑": 7995,
      "输": 7996,
      "辔": 7997,
      "辕": 7998,
      "辖": 7999,
      "辗": 8000,
      "辘": 8001,
      "辙": 8002,
      "辚": 8003,
      "辛": 8004,
      "辜": 8005,
      "辞": 8006,
      "辟": 8007,
      "辣": 8008,
      "辦": 8009,
      "辨": 8010,
      "辩": 8011,
      "辫": 8012,
      "辭": 8013,
      "辮": 8014,
      "辯": 8015,
      "辰": 8016,
      "辱": 8017,
      "農": 8018,
      "边": 8019,
      "辺": 8020,
      "辽": 8021,
      "达": 8022,
      "迁": 8023,
      "迂": 8024,
      "迄": 8025,
      "迅": 8026,
      "过": 8027,
      "迈": 8028,
      "迎": 8029,
      "运": 8030,
      "近": 8031,
      "迓": 8032,
      "返": 8033,
      "还": 8034,
      "这": 8035,
      "进": 8036,
      "远": 8037,
      "违": 8038,
      "连": 8039,
      "迟": 8040,
      "迠": 8041,
      "迡": 8042,
      "迢": 8043,
      "迤": 8044,
      "迥": 8045,
      "迦": 8046,
      "迩": 8047,
      "迪": 8048,
      "迫": 8049,
      "迭": 8050,
      "述": 8051,
      "迳": 8052,
      "迴": 8053,
      "迵": 8054,
      "迷": 8055,
      "迸": 8056,
      "迹": 8057,
      "迺": 8058,
      "追": 8059,
      "退": 8060,
      "送": 8061,
      "适": 8062,
      "逃": 8063,
      "逄": 8064,
      "逅": 8065,
      "逆": 8066,
      "选": 8067,
      "逊": 8068,
      "逋": 8069,
      "逍": 8070,
      "逎": 8071,
      "透": 8072,
      "逐": 8073,
      "逑": 8074,
      "递": 8075,
      "途": 8076,
      "逖": 8077,
      "逗": 8078,
      "通": 8079,
      "逛": 8080,
      "逝": 8081,
      "逞": 8082,
      "速": 8083,
      "造": 8084,
      "逡": 8085,
      "逢": 8086,
      "連": 8087,
      "逦": 8088,
      "逨": 8089,
      "逮": 8090,
      "週": 8091,
      "逵": 8092,
      "逶": 8093,
      "逸": 8094,
      "逹": 8095,
      "逻": 8096,
      "逼": 8097,
      "逾": 8098,
      "遁": 8099,
      "遂": 8100,
      "遄": 8101,
      "遇": 8102,
      "遊": 8103,
      "運": 8104,
      "遍": 8105,
      "過": 8106,
      "遏": 8107,
      "遐": 8108,
      "遑": 8109,
      "遒": 8110,
      "道": 8111,
      "達": 8112,
      "違": 8113,
      "遗": 8114,
      "遘": 8115,
      "遙": 8116,
      "遛": 8117,
      "遜": 8118,
      "遞": 8119,
      "遟": 8120,
      "遠": 8121,
      "遢": 8122,
      "遣": 8123,
      "遥": 8124,
      "遨": 8125,
      "適": 8126,
      "遭": 8127,
      "遮": 8128,
      "遯": 8129,
      "遲": 8130,
      "遴": 8131,
      "遵": 8132,
      "遷": 8133,
      "選": 8134,
      "遺": 8135,
      "遽": 8136,
      "避": 8137,
      "邀": 8138,
      "邁": 8139,
      "邂": 8140,
      "邃": 8141,
      "還": 8142,
      "邈": 8143,
      "邉": 8144,
      "邊": 8145,
      "邋": 8146,
      "邏": 8147,
      "邑": 8148,
      "邓": 8149,
      "邕": 8150,
      "邛": 8151,
      "邝": 8152,
      "邡": 8153,
      "邢": 8154,
      "那": 8155,
      "邦": 8156,
      "邪": 8157,
      "邬": 8158,
      "邮": 8159,
      "邯": 8160,
      "邰": 8161,
      "邱": 8162,
      "邵": 8163,
      "邸": 8164,
      "邹": 8165,
      "邺": 8166,
      "邻": 8167,
      "邽": 8168,
      "郁": 8169,
      "郇": 8170,
      "郊": 8171,
      "郎": 8172,
      "郑": 8173,
      "郔": 8174,
      "郗": 8175,
      "郝": 8176,
      "郞": 8177,
      "郡": 8178,
      "郢": 8179,
      "郤": 8180,
      "郥": 8181,
      "郦": 8182,
      "郧": 8183,
      "部": 8184,
      "郪": 8185,
      "郭": 8186,
      "郯": 8187,
      "郴": 8188,
      "郵": 8189,
      "郷": 8190,
      "郸": 8191,
      "都": 8192,
      "郾": 8193,
      "鄂": 8194,
      "鄄": 8195,
      "鄉": 8196,
      "鄙": 8197,
      "鄞": 8198,
      "鄢": 8199,
      "鄧": 8200,
      "鄯": 8201,
      "鄰": 8202,
      "鄱": 8203,
      "酃": 8204,
      "酉": 8205,
      "酊": 8206,
      "酋": 8207,
      "酌": 8208,
      "配": 8209,
      "酎": 8210,
      "酏": 8211,
      "酐": 8212,
      "酒": 8213,
      "酕": 8214,
      "酗": 8215,
      "酘": 8216,
      "酚": 8217,
      "酝": 8218,
      "酞": 8219,
      "酡": 8220,
      "酢": 8221,
      "酣": 8222,
      "酥": 8223,
      "酦": 8224,
      "酩": 8225,
      "酪": 8226,
      "酬": 8227,
      "酮": 8228,
      "酯": 8229,
      "酰": 8230,
      "酱": 8231,
      "酵": 8232,
      "酶": 8233,
      "酷": 8234,
      "酸": 8235,
      "酹": 8236,
      "酽": 8237,
      "酿": 8238,
      "醅": 8239,
      "醇": 8240,
      "醉": 8241,
      "醋": 8242,
      "醌": 8243,
      "醍": 8244,
      "醐": 8245,
      "醑": 8246,
      "醒": 8247,
      "醚": 8248,
      "醛": 8249,
      "醢": 8250,
      "醣": 8251,
      "醪": 8252,
      "醫": 8253,
      "醬": 8254,
      "醮": 8255,
      "醯": 8256,
      "醴": 8257,
      "醺": 8258,
      "釀": 8259,
      "釆": 8260,
      "采": 8261,
      "釉": 8262,
      "释": 8263,
      "釋": 8264,
      "里": 8265,
      "重": 8266,
      "野": 8267,
      "量": 8268,
      "釐": 8269,
      "金": 8270,
      "釘": 8271,
      "釜": 8272,
      "針": 8273,
      "釣": 8274,
      "釬": 8275,
      "釴": 8276,
      "鈍": 8277,
      "鈔": 8278,
      "鈾": 8279,
      "鉀": 8280,
      "鉄": 8281,
      "鉆": 8282,
      "鉑": 8283,
      "鉓": 8284,
      "鉛": 8285,
      "鉨": 8286,
      "鉴": 8287,
      "銀": 8288,
      "銅": 8289,
      "銡": 8290,
      "銮": 8291,
      "銷": 8292,
      "銹": 8293,
      "鋂": 8294,
      "鋪": 8295,
      "鋰": 8296,
      "鋼": 8297,
      "錄": 8298,
      "錘": 8299,
      "錞": 8300,
      "錢": 8301,
      "錦": 8302,
      "錫": 8303,
      "錯": 8304,
      "錾": 8305,
      "鍊": 8306,
      "鍵": 8307,
      "鍾": 8308,
      "鎊": 8309,
      "鎏": 8310,
      "鎔": 8311,
      "鎖": 8312,
      "鎘": 8313,
      "鎚": 8314,
      "鎮": 8315,
      "鏈": 8316,
      "鏊": 8317,
      "鏖": 8318,
      "鏘": 8319,
      "鏡": 8320,
      "鏢": 8321,
      "鏣": 8322,
      "鏻": 8323,
      "鐘": 8324,
      "鐡": 8325,
      "鐵": 8326,
      "鐽": 8327,
      "鑑": 8328,
      "鑫": 8329,
      "鑰": 8330,
      "鑽": 8331,
      "鑿": 8332,
      "钆": 8333,
      "钇": 8334,
      "针": 8335,
      "钉": 8336,
      "钊": 8337,
      "钋": 8338,
      "钌": 8339,
      "钍": 8340,
      "钎": 8341,
      "钏": 8342,
      "钐": 8343,
      "钒": 8344,
      "钓": 8345,
      "钕": 8346,
      "钗": 8347,
      "钙": 8348,
      "钚": 8349,
      "钛": 8350,
      "钜": 8351,
      "钝": 8352,
      "钞": 8353,
      "钟": 8354,
      "钠": 8355,
      "钡": 8356,
      "钢": 8357,
      "钣": 8358,
      "钤": 8359,
      "钥": 8360,
      "钦": 8361,
      "钧": 8362,
      "钨": 8363,
      "钩": 8364,
      "钪": 8365,
      "钫": 8366,
      "钬": 8367,
      "钭": 8368,
      "钮": 8369,
      "钯": 8370,
      "钰": 8371,
      "钱": 8372,
      "钳": 8373,
      "钴": 8374,
      "钵": 8375,
      "钶": 8376,
      "钷": 8377,
      "钸": 8378,
      "钹": 8379,
      "钺": 8380,
      "钻": 8381,
      "钼": 8382,
      "钽": 8383,
      "钾": 8384,
      "铀": 8385,
      "铁": 8386,
      "铂": 8387,
      "铃": 8388,
      "铄": 8389,
      "铅": 8390,
      "铆": 8391,
      "铇": 8392,
      "铈": 8393,
      "铉": 8394,
      "铊": 8395,
      "铋": 8396,
      "铌": 8397,
      "铍": 8398,
      "铎": 8399,
      "铏": 8400,
      "铐": 8401,
      "铑": 8402,
      "铒": 8403,
      "铓": 8404,
      "铕": 8405,
      "铛": 8406,
      "铜": 8407,
      "铝": 8408,
      "铟": 8409,
      "铠": 8410,
      "铡": 8411,
      "铢": 8412,
      "铣": 8413,
      "铤": 8414,
      "铥": 8415,
      "铧": 8416,
      "铨": 8417,
      "铩": 8418,
      "铪": 8419,
      "铬": 8420,
      "铭": 8421,
      "铮": 8422,
      "铯": 8423,
      "铰": 8424,
      "铱": 8425,
      "铲": 8426,
      "铳": 8427,
      "铵": 8428,
      "银": 8429,
      "铷": 8430,
      "铸": 8431,
      "铹": 8432,
      "铺": 8433,
      "铼": 8434,
      "铽": 8435,
      "链": 8436,
      "铿": 8437,
      "销": 8438,
      "锁": 8439,
      "锂": 8440,
      "锃": 8441,
      "锄": 8442,
      "锅": 8443,
      "锆": 8444,
      "锇": 8445,
      "锈": 8446,
      "锉": 8447,
      "锋": 8448,
      "锌": 8449,
      "锎": 8450,
      "锏": 8451,
      "锐": 8452,
      "锑": 8453,
      "锒": 8454,
      "锔": 8455,
      "锕": 8456,
      "锗": 8457,
      "错": 8458,
      "锚": 8459,
      "锛": 8460,
      "锜": 8461,
      "锝": 8462,
      "锟": 8463,
      "锠": 8464,
      "锡": 8465,
      "锢": 8466,
      "锣": 8467,
      "锤": 8468,
      "锥": 8469,
      "锦": 8470,
      "锨": 8471,
      "锭": 8472,
      "键": 8473,
      "锯": 8474,
      "锰": 8475,
      "锱": 8476,
      "锲": 8477,
      "锴": 8478,
      "锵": 8479,
      "锶": 8480,
      "锷": 8481,
      "锹": 8482,
      "锺": 8483,
      "锻": 8484,
      "镀": 8485,
      "镁": 8486,
      "镂": 8487,
      "镇": 8488,
      "镉": 8489,
      "镊": 8490,
      "镌": 8491,
      "镍": 8492,
      "镎": 8493,
      "镏": 8494,
      "镐": 8495,
      "镑": 8496,
      "镓": 8497,
      "镔": 8498,
      "镕": 8499,
      "镖": 8500,
      "镗": 8501,
      "镘": 8502,
      "镛": 8503,
      "镜": 8504,
      "镝": 8505,
      "镟": 8506,
      "镡": 8507,
      "镢": 8508,
      "镣": 8509,
      "镤": 8510,
      "镥": 8511,
      "镦": 8512,
      "镧": 8513,
      "镨": 8514,
      "镫": 8515,
      "镬": 8516,
      "镭": 8517,
      "镮": 8518,
      "镯": 8519,
      "镰": 8520,
      "镱": 8521,
      "镲": 8522,
      "镳": 8523,
      "镴": 8524,
      "镶": 8525,
      "長": 8526,
      "镼": 8527,
      "长": 8528,
      "閃": 8529,
      "閉": 8530,
      "閒": 8531,
      "間": 8532,
      "閕": 8533,
      "閘": 8534,
      "閙": 8535,
      "関": 8536,
      "閣": 8537,
      "闆": 8538,
      "闕": 8539,
      "闖": 8540,
      "闘": 8541,
      "门": 8542,
      "闩": 8543,
      "闪": 8544,
      "闫": 8545,
      "闭": 8546,
      "问": 8547,
      "闯": 8548,
      "闰": 8549,
      "闲": 8550,
      "闳": 8551,
      "间": 8552,
      "闵": 8553,
      "闷": 8554,
      "闸": 8555,
      "闹": 8556,
      "闺": 8557,
      "闻": 8558,
      "闼": 8559,
      "闽": 8560,
      "闾": 8561,
      "阀": 8562,
      "阁": 8563,
      "阂": 8564,
      "阄": 8565,
      "阅": 8566,
      "阆": 8567,
      "阇": 8568,
      "阈": 8569,
      "阉": 8570,
      "阊": 8571,
      "阋": 8572,
      "阍": 8573,
      "阎": 8574,
      "阐": 8575,
      "阑": 8576,
      "阒": 8577,
      "阔": 8578,
      "阕": 8579,
      "阖": 8580,
      "阗": 8581,
      "阙": 8582,
      "阜": 8583,
      "队": 8584,
      "阡": 8585,
      "阪": 8586,
      "阬": 8587,
      "阮": 8588,
      "阰": 8589,
      "阱": 8590,
      "防": 8591,
      "阳": 8592,
      "阴": 8593,
      "阵": 8594,
      "阶": 8595,
      "阻": 8596,
      "阿": 8597,
      "陀": 8598,
      "陂": 8599,
      "附": 8600,
      "际": 8601,
      "陆": 8602,
      "陇": 8603,
      "陈": 8604,
      "陉": 8605,
      "陋": 8606,
      "陌": 8607,
      "降": 8608,
      "限": 8609,
      "陑": 8610,
      "陓": 8611,
      "陔": 8612,
      "陕": 8613,
      "陛": 8614,
      "陡": 8615,
      "院": 8616,
      "陣": 8617,
      "除": 8618,
      "陨": 8619,
      "险": 8620,
      "陪": 8621,
      "陫": 8622,
      "陬": 8623,
      "陰": 8624,
      "陲": 8625,
      "陳": 8626,
      "陵": 8627,
      "陶": 8628,
      "陷": 8629,
      "陸": 8630,
      "陽": 8631,
      "隃": 8632,
      "隅": 8633,
      "隆": 8634,
      "隈": 8635,
      "隊": 8636,
      "隋": 8637,
      "隍": 8638,
      "階": 8639,
      "随": 8640,
      "隐": 8641,
      "隔": 8642,
      "隕": 8643,
      "隗": 8644,
      "隘": 8645,
      "隙": 8646,
      "際": 8647,
      "障": 8648,
      "隠": 8649,
      "隧": 8650,
      "隨": 8651,
      "險": 8652,
      "隱": 8653,
      "隳": 8654,
      "隶": 8655,
      "隸": 8656,
      "隻": 8657,
      "隼": 8658,
      "隽": 8659,
      "难": 8660,
      "雀": 8661,
      "雁": 8662,
      "雃": 8663,
      "雄": 8664,
      "雅": 8665,
      "集": 8666,
      "雇": 8667,
      "雉": 8668,
      "雌": 8669,
      "雍": 8670,
      "雎": 8671,
      "雏": 8672,
      "雒": 8673,
      "雕": 8674,
      "雖": 8675,
      "雙": 8676,
      "雚": 8677,
      "雞": 8678,
      "雠": 8679,
      "離": 8680,
      "難": 8681,
      "雦": 8682,
      "雨": 8683,
      "雪": 8684,
      "雯": 8685,
      "雲": 8686,
      "雳": 8687,
      "零": 8688,
      "雷": 8689,
      "雹": 8690,
      "電": 8691,
      "雾": 8692,
      "需": 8693,
      "霁": 8694,
      "霄": 8695,
      "霆": 8696,
      "震": 8697,
      "霈": 8698,
      "霉": 8699,
      "霍": 8700,
      "霎": 8701,
      "霏": 8702,
      "霓": 8703,
      "霖": 8704,
      "霚": 8705,
      "霜": 8706,
      "霞": 8707,
      "霧": 8708,
      "霭": 8709,
      "霰": 8710,
      "露": 8711,
      "霸": 8712,
      "霹": 8713,
      "霾": 8714,
      "靈": 8715,
      "靑": 8716,
      "青": 8717,
      "靓": 8718,
      "靖": 8719,
      "静": 8720,
      "靛": 8721,
      "靜": 8722,
      "非": 8723,
      "靠": 8724,
      "靡": 8725,
      "面": 8726,
      "靣": 8727,
      "靥": 8728,
      "革": 8729,
      "靳": 8730,
      "靴": 8731,
      "靶": 8732,
      "靺": 8733,
      "靼": 8734,
      "靿": 8735,
      "鞅": 8736,
      "鞋": 8737,
      "鞍": 8738,
      "鞑": 8739,
      "鞘": 8740,
      "鞠": 8741,
      "鞣": 8742,
      "鞥": 8743,
      "鞧": 8744,
      "鞨": 8745,
      "鞭": 8746,
      "鞯": 8747,
      "韋": 8748,
      "韌": 8749,
      "韓": 8750,
      "韡": 8751,
      "韦": 8752,
      "韧": 8753,
      "韩": 8754,
      "韪": 8755,
      "韫": 8756,
      "韬": 8757,
      "韭": 8758,
      "音": 8759,
      "韵": 8760,
      "韶": 8761,
      "響": 8762,
      "頂": 8763,
      "頃": 8764,
      "項": 8765,
      "順": 8766,
      "須": 8767,
      "頌": 8768,
      "預": 8769,
      "頓": 8770,
      "頗": 8771,
      "領": 8772,
      "頫": 8773,
      "頬": 8774,
      "頭": 8775,
      "頰": 8776,
      "頸": 8777,
      "頻": 8778,
      "頼": 8779,
      "顆": 8780,
      "題": 8781,
      "額": 8782,
      "顎": 8783,
      "顏": 8784,
      "顔": 8785,
      "願": 8786,
      "顚": 8787,
      "類": 8788,
      "顧": 8789,
      "顯": 8790,
      "顱": 8791,
      "页": 8792,
      "顶": 8793,
      "顷": 8794,
      "顸": 8795,
      "项": 8796,
      "顺": 8797,
      "须": 8798,
      "顼": 8799,
      "顽": 8800,
      "顾": 8801,
      "顿": 8802,
      "颀": 8803,
      "颁": 8804,
      "颂": 8805,
      "预": 8806,
      "颅": 8807,
      "领": 8808,
      "颇": 8809,
      "颈": 8810,
      "颉": 8811,
      "颊": 8812,
      "颌": 8813,
      "颍": 8814,
      "颏": 8815,
      "颐": 8816,
      "频": 8817,
      "颓": 8818,
      "颔": 8819,
      "颖": 8820,
      "颗": 8821,
      "题": 8822,
      "颚": 8823,
      "颜": 8824,
      "额": 8825,
      "颞": 8826,
      "颟": 8827,
      "颠": 8828,
      "颡": 8829,
      "颢": 8830,
      "颤": 8831,
      "颦": 8832,
      "颧": 8833,
      "風": 8834,
      "颱": 8835,
      "飄": 8836,
      "风": 8837,
      "飏": 8838,
      "飑": 8839,
      "飒": 8840,
      "飓": 8841,
      "飔": 8842,
      "飕": 8843,
      "飘": 8844,
      "飙": 8845,
      "飚": 8846,
      "飛": 8847,
      "飞": 8848,
      "食": 8849,
      "飢": 8850,
      "飧": 8851,
      "飨": 8852,
      "飪": 8853,
      "飯": 8854,
      "飲": 8855,
      "飾": 8856,
      "餂": 8857,
      "餅": 8858,
      "餉": 8859,
      "養": 8860,
      "餍": 8861,
      "餐": 8862,
      "餓": 8863,
      "餘": 8864,
      "餠": 8865,
      "餡": 8866,
      "館": 8867,
      "餮": 8868,
      "餵": 8869,
      "饑": 8870,
      "饒": 8871,
      "饔": 8872,
      "饕": 8873,
      "饥": 8874,
      "饨": 8875,
      "饪": 8876,
      "饫": 8877,
      "饬": 8878,
      "饭": 8879,
      "饮": 8880,
      "饯": 8881,
      "饰": 8882,
      "饱": 8883,
      "饲": 8884,
      "饴": 8885,
      "饵": 8886,
      "饶": 8887,
      "饷": 8888,
      "饺": 8889,
      "饼": 8890,
      "饽": 8891,
      "饿": 8892,
      "馀": 8893,
      "馁": 8894,
      "馃": 8895,
      "馄": 8896,
      "馅": 8897,
      "馆": 8898,
      "馈": 8899,
      "馉": 8900,
      "馊": 8901,
      "馋": 8902,
      "馍": 8903,
      "馏": 8904,
      "馐": 8905,
      "馑": 8906,
      "馒": 8907,
      "馓": 8908,
      "馔": 8909,
      "馕": 8910,
      "首": 8911,
      "馗": 8912,
      "香": 8913,
      "馥": 8914,
      "馨": 8915,
      "馬": 8916,
      "駁": 8917,
      "駐": 8918,
      "駕": 8919,
      "駝": 8920,
      "駭": 8921,
      "駱": 8922,
      "騎": 8923,
      "騙": 8924,
      "騷": 8925,
      "騾": 8926,
      "驃": 8927,
      "驅": 8928,
      "驒": 8929,
      "驗": 8930,
      "驚": 8931,
      "马": 8932,
      "驭": 8933,
      "驮": 8934,
      "驯": 8935,
      "驰": 8936,
      "驱": 8937,
      "驳": 8938,
      "驴": 8939,
      "驶": 8940,
      "驷": 8941,
      "驸": 8942,
      "驹": 8943,
      "驻": 8944,
      "驼": 8945,
      "驽": 8946,
      "驾": 8947,
      "驿": 8948,
      "骀": 8949,
      "骁": 8950,
      "骂": 8951,
      "骃": 8952,
      "骄": 8953,
      "骅": 8954,
      "骆": 8955,
      "骇": 8956,
      "骈": 8957,
      "骊": 8958,
      "骋": 8959,
      "验": 8960,
      "骏": 8961,
      "骐": 8962,
      "骑": 8963,
      "骒": 8964,
      "骓": 8965,
      "骗": 8966,
      "骘": 8967,
      "骚": 8968,
      "骛": 8969,
      "骜": 8970,
      "骝": 8971,
      "骞": 8972,
      "骟": 8973,
      "骠": 8974,
      "骡": 8975,
      "骢": 8976,
      "骤": 8977,
      "骥": 8978,
      "骨": 8979,
      "骰": 8980,
      "骶": 8981,
      "骷": 8982,
      "骸": 8983,
      "骹": 8984,
      "骺": 8985,
      "骼": 8986,
      "骿": 8987,
      "髀": 8988,
      "髁": 8989,
      "髂": 8990,
      "髅": 8991,
      "髈": 8992,
      "髋": 8993,
      "髌": 8994,
      "髎": 8995,
      "髑": 8996,
      "髓": 8997,
      "體": 8998,
      "高": 8999,
      "髙": 9000,
      "髡": 9001,
      "髣": 9002,
      "髦": 9003,
      "髪": 9004,
      "髭": 9005,
      "髮": 9006,
      "髯": 9007,
      "髷": 9008,
      "髹": 9009,
      "髻": 9010,
      "鬃": 9011,
      "鬆": 9012,
      "鬈": 9013,
      "鬍": 9014,
      "鬓": 9015,
      "鬟": 9016,
      "鬣": 9017,
      "鬥": 9018,
      "鬭": 9019,
      "鬱": 9020,
      "鬻": 9021,
      "鬼": 9022,
      "魀": 9023,
      "魁": 9024,
      "魂": 9025,
      "魄": 9026,
      "魅": 9027,
      "魆": 9028,
      "魇": 9029,
      "魉": 9030,
      "魍": 9031,
      "魏": 9032,
      "魑": 9033,
      "魔": 9034,
      "魚": 9035,
      "魜": 9036,
      "魟": 9037,
      "魣": 9038,
      "魯": 9039,
      "鮑": 9040,
      "鮩": 9041,
      "鮫": 9042,
      "鮭": 9043,
      "鮻": 9044,
      "鯈": 9045,
      "鯊": 9046,
      "鯥": 9047,
      "鯨": 9048,
      "鰆": 9049,
      "鰓": 9050,
      "鰕": 9051,
      "鰩": 9052,
      "鱼": 9053,
      "鱿": 9054,
      "鲀": 9055,
      "鲁": 9056,
      "鲂": 9057,
      "鲅": 9058,
      "鲆": 9059,
      "鲇": 9060,
      "鲈": 9061,
      "鲉": 9062,
      "鲊": 9063,
      "鲍": 9064,
      "鲎": 9065,
      "鲐": 9066,
      "鲑": 9067,
      "鲔": 9068,
      "鲕": 9069,
      "鲛": 9070,
      "鲜": 9071,
      "鲟": 9072,
      "鲠": 9073,
      "鲡": 9074,
      "鲢": 9075,
      "鲣": 9076,
      "鲤": 9077,
      "鲥": 9078,
      "鲦": 9079,
      "鲨": 9080,
      "鲩": 9081,
      "鲫": 9082,
      "鲭": 9083,
      "鲮": 9084,
      "鲱": 9085,
      "鲲": 9086,
      "鲳": 9087,
      "鲵": 9088,
      "鲶": 9089,
      "鲷": 9090,
      "鲸": 9091,
      "鲹": 9092,
      "鲻": 9093,
      "鲼": 9094,
      "鲽": 9095,
      "鳀": 9096,
      "鳃": 9097,
      "鳄": 9098,
      "鳅": 9099,
      "鳉": 9100,
      "鳊": 9101,
      "鳌": 9102,
      "鳍": 9103,
      "鳎": 9104,
      "鳏": 9105,
      "鳐": 9106,
      "鳓": 9107,
      "鳔": 9108,
      "鳕": 9109,
      "鳖": 9110,
      "鳗": 9111,
      "鳙": 9112,
      "鳜": 9113,
      "鳝": 9114,
      "鳞": 9115,
      "鳟": 9116,
      "鳢": 9117,
      "鳥": 9118,
      "鳦": 9119,
      "鳯": 9120,
      "鳴": 9121,
      "鴃": 9122,
      "鴆": 9123,
      "鴠": 9124,
      "鴩": 9125,
      "鴻": 9126,
      "鵝": 9127,
      "鵾": 9128,
      "鶠": 9129,
      "鷧": 9130,
      "鷹": 9131,
      "鸌": 9132,
      "鸟": 9133,
      "鸠": 9134,
      "鸡": 9135,
      "鸢": 9136,
      "鸣": 9137,
      "鸥": 9138,
      "鸦": 9139,
      "鸨": 9140,
      "鸩": 9141,
      "鸪": 9142,
      "鸫": 9143,
      "鸬": 9144,
      "鸭": 9145,
      "鸮": 9146,
      "鸯": 9147,
      "鸱": 9148,
      "鸲": 9149,
      "鸳": 9150,
      "鸵": 9151,
      "鸶": 9152,
      "鸷": 9153,
      "鸸": 9154,
      "鸹": 9155,
      "鸺": 9156,
      "鸻": 9157,
      "鸽": 9158,
      "鸾": 9159,
      "鸿": 9160,
      "鹀": 9161,
      "鹂": 9162,
      "鹃": 9163,
      "鹄": 9164,
      "鹅": 9165,
      "鹈": 9166,
      "鹉": 9167,
      "鹊": 9168,
      "鹋": 9169,
      "鹌": 9170,
      "鹎": 9171,
      "鹏": 9172,
      "鹑": 9173,
      "鹕": 9174,
      "鹗": 9175,
      "鹘": 9176,
      "鹚": 9177,
      "鹜": 9178,
      "鹞": 9179,
      "鹟": 9180,
      "鹣": 9181,
      "鹤": 9182,
      "鹦": 9183,
      "鹧": 9184,
      "鹨": 9185,
      "鹩": 9186,
      "鹪": 9187,
      "鹫": 9188,
      "鹬": 9189,
      "鹭": 9190,
      "鹮": 9191,
      "鹰": 9192,
      "鹱": 9193,
      "鹳": 9194,
      "鹽": 9195,
      "鹿": 9196,
      "麂": 9197,
      "麇": 9198,
      "麈": 9199,
      "麋": 9200,
      "麒": 9201,
      "麓": 9202,
      "麗": 9203,
      "麝": 9204,
      "麟": 9205,
      "麥": 9206,
      "麦": 9207,
      "麳": 9208,
      "麴": 9209,
      "麵": 9210,
      "麸": 9211,
      "麻": 9212,
      "麼": 9213,
      "麽": 9214,
      "麾": 9215,
      "麿": 9216,
      "黃": 9217,
      "黄": 9218,
      "黉": 9219,
      "黍": 9220,
      "黎": 9221,
      "黏": 9222,
      "黑": 9223,
      "黒": 9224,
      "黔": 9225,
      "默": 9226,
      "黙": 9227,
      "黛": 9228,
      "黜": 9229,
      "黝": 9230,
      "點": 9231,
      "黟": 9232,
      "黠": 9233,
      "黢": 9234,
      "黥": 9235,
      "黧": 9236,
      "黨": 9237,
      "黩": 9238,
      "黯": 9239,
      "黴": 9240,
      "黾": 9241,
      "鼎": 9242,
      "鼐": 9243,
      "鼓": 9244,
      "鼠": 9245,
      "鼢": 9246,
      "鼩": 9247,
      "鼬": 9248,
      "鼯": 9249,
      "鼱": 9250,
      "鼷": 9251,
      "鼹": 9252,
      "鼻": 9253,
      "鼾": 9254,
      "齊": 9255,
      "齐": 9256,
      "齒": 9257,
      "齡": 9258,
      "齣": 9259,
      "齿": 9260,
      "龃": 9261,
      "龄": 9262,
      "龅": 9263,
      "龇": 9264,
      "龈": 9265,
      "龉": 9266,
      "龊": 9267,
      "龋": 9268,
      "龌": 9269,
      "龍": 9270,
      "龐": 9271,
      "龙": 9272,
      "龚": 9273,
      "龛": 9274,
      "龜": 9275,
      "龟": 9276,
      "鿫": 9277,
      "鿭": 9278,
      "ꄘ": 9279,
      "ꇕ": 9280,
      "ꗔ": 9281,
      "ꚭ": 9282,
      "ꞑ": 9283,
      "ꠈ": 9284,
      "가": 9285,
      "간": 9286,
      "갈": 9287,
      "같": 9288,
      "겠": 9289,
      "겹": 9290,
      "계": 9291,
      "고": 9292,
      "곱": 9293,
      "공": 9294,
      "관": 9295,
      "구": 9296,
      "국": 9297,
      "그": 9298,
      "귿": 9299,
      "기": 9300,
      "김": 9301,
      "까": 9302,
      "께": 9303,
      "나": 9304,
      "냉": 9305,
      "네": 9306,
      "넷": 9307,
      "녁": 9308,
      "녕": 9309,
      "노": 9310,
      "는": 9311,
      "니": 9312,
      "다": 9313,
      "닫": 9314,
      "달": 9315,
      "당": 9316,
      "덟": 9317,
      "데": 9318,
      "도": 9319,
      "동": 9320,
      "둘": 9321,
      "드": 9322,
      "디": 9323,
      "때": 9324,
      "래": 9325,
      "럼": 9326,
      "륈": 9327,
      "를": 9328,
      "리": 9329,
      "릿": 9330,
      "마": 9331,
      "만": 9332,
      "맛": 9333,
      "매": 9334,
      "먹": 9335,
      "면": 9336,
      "몇": 9337,
      "무": 9338,
      "바": 9339,
      "밥": 9340,
      "배": 9341,
      "백": 9342,
      "베": 9343,
      "보": 9344,
      "볼": 9345,
      "봐": 9346,
      "부": 9347,
      "분": 9348,
      "불": 9349,
      "비": 9350,
      "빔": 9351,
      "빛": 9352,
      "빠": 9353,
      "뻐": 9354,
      "살": 9355,
      "삼": 9356,
      "샤": 9357,
      "서": 9358,
      "섯": 9359,
      "세": 9360,
      "셋": 9361,
      "셔": 9362,
      "스": 9363,
      "슨": 9364,
      "습": 9365,
      "시": 9366,
      "식": 9367,
      "심": 9368,
      "십": 9369,
      "아": 9370,
      "안": 9371,
      "어": 9372,
      "엇": 9373,
      "에": 9374,
      "여": 9375,
      "열": 9376,
      "영": 9377,
      "예": 9378,
      "오": 9379,
      "옷": 9380,
      "와": 9381,
      "요": 9382,
      "우": 9383,
      "운": 9384,
      "워": 9385,
      "원": 9386,
      "유": 9387,
      "으": 9388,
      "을": 9389,
      "음": 9390,
      "이": 9391,
      "인": 9392,
      "일": 9393,
      "읽": 9394,
      "있": 9395,
      "장": 9396,
      "저": 9397,
      "전": 9398,
      "점": 9399,
      "제": 9400,
      "조": 9401,
      "좋": 9402,
      "주": 9403,
      "즘": 9404,
      "지": 9405,
      "집": 9406,
      "차": 9407,
      "책": 9408,
      "천": 9409,
      "치": 9410,
      "친": 9411,
      "침": 9412,
      "커": 9413,
      "크": 9414,
      "클": 9415,
      "탕": 9416,
      "턈": 9417,
      "터": 9418,
      "톈": 9419,
      "파": 9420,
      "포": 9421,
      "피": 9422,
      "하": 9423,
      "한": 9424,
      "함": 9425,
      "해": 9426,
      "행": 9427,
      "호": 9428,
      "홉": 9429,
      "화": 9430,
      "황": 9431,
      "히": 9432,
      "更": 9433,
      "車": 9434,
      "串": 9435,
      "句": 9436,
      "金": 9437,
      "奈": 9438,
      "羅": 9439,
      "樂": 9440,
      "落": 9441,
      "蘭": 9442,
      "藍": 9443,
      "拉": 9444,
      "來": 9445,
      "老": 9446,
      "路": 9447,
      "露": 9448,
      "綠": 9449,
      "錄": 9450,
      "論": 9451,
      "壘": 9452,
      "樓": 9453,
      "菱": 9454,
      "讀": 9455,
      "諾": 9456,
      "率": 9457,
      "異": 9458,
      "便": 9459,
      "復": 9460,
      "不": 9461,
      "數": 9462,
      "索": 9463,
      "參": 9464,
      "葉": 9465,
      "說": 9466,
      "沈": 9467,
      "若": 9468,
      "略": 9469,
      "兩": 9470,
      "良": 9471,
      "量": 9472,
      "女": 9473,
      "旅": 9474,
      "力": 9475,
      "歷": 9476,
      "年": 9477,
      "練": 9478,
      "聯": 9479,
      "蓮": 9480,
      "連": 9481,
      "列": 9482,
      "裂": 9483,
      "廉": 9484,
      "念": 9485,
      "令": 9486,
      "靈": 9487,
      "領": 9488,
      "例": 9489,
      "惡": 9490,
      "了": 9491,
      "料": 9492,
      "療": 9493,
      "阮": 9494,
      "流": 9495,
      "留": 9496,
      "類": 9497,
      "六": 9498,
      "陸": 9499,
      "輪": 9500,
      "律": 9501,
      "隆": 9502,
      "利": 9503,
      "易": 9504,
      "梨": 9505,
      "理": 9506,
      "裡": 9507,
      "離": 9508,
      "林": 9509,
      "臨": 9510,
      "立": 9511,
      "狀": 9512,
      "識": 9513,
      "什": 9514,
      "茶": 9515,
      "切": 9516,
      "度": 9517,
      "行": 9518,
      "降": 9519,
      "見": 9520,
      "益": 9521,
      "神": 9522,
      "福": 9523,
      "都": 9524,
      "館": 9525,
      "器": 9526,
      "ﬁ": 9527,
      "ﬂ": 9528,
      "️": 9529,
      "︠": 9530,
      "︡": 9531,
      "︰": 9532,
      "︱": 9533,
      "︸": 9534,
      "︹": 9535,
      "︺": 9536,
      "︽": 9537,
      "︾": 9538,
      "﹁": 9539,
      "﹄": 9540,
      "﹊": 9541,
      "﹍": 9542,
      "﹐": 9543,
      "﹑": 9544,
      "﹒": 9545,
      "﹔": 9546,
      "﹕": 9547,
      "﹖": 9548,
      "﹗": 9549,
      "﹚": 9550,
      "﹛": 9551,
      "﹜": 9552,
      "﹝": 9553,
      "﹞": 9554,
      "﹡": 9555,
      "﹣": 9556,
      "！": 9557,
      "＂": 9558,
      "＃": 9559,
      "＄": 9560,
      "％": 9561,
      "＆": 9562,
      "＇": 9563,
      "（": 9564,
      "）": 9565,
      "＊": 9566,
      "＋": 9567,
      "，": 9568,
      "－": 9569,
      "．": 9570,
      "／": 9571,
      "０": 9572,
      "１": 9573,
      "２": 9574,
      "３": 9575,
      "４": 9576,
      "５": 9577,
      "６": 9578,
      "７": 9579,
      "８": 9580,
      "９": 9581,
      "：": 9582,
      "；": 9583,
      "＜": 9584,
      "＝": 9585,
      "＞": 9586,
      "？": 9587,
      "＠": 9588,
      "Ａ": 9589,
      "Ｂ": 9590,
      "Ｄ": 9591,
      "Ｅ": 9592,
      "Ｆ": 9593,
      "Ｈ": 9594,
      "Ｉ": 9595,
      "Ｍ": 9596,
      "Ｎ": 9597,
      "Ｏ": 9598,
      "Ｐ": 9599,
      "Ｒ": 9600,
      "Ｓ": 9601,
      "Ｔ": 9602,
      "Ｖ": 9603,
      "Ｗ": 9604,
      "Ｘ": 9605,
      "［": 9606,
      "＼": 9607,
      "］": 9608,
      "＿": 9609,
      "ａ": 9610,
      "ｂ": 9611,
      "ｄ": 9612,
      "ｅ": 9613,
      "ｇ": 9614,
      "ｈ": 9615,
      "ｉ": 9616,
      "ｋ": 9617,
      "ｌ": 9618,
      "ｍ": 9619,
      "ｎ": 9620,
      "ｏ": 9621,
      "ｐ": 9622,
      "ｒ": 9623,
      "ｓ": 9624,
      "ｔ": 9625,
      "ｖ": 9626,
      "ｗ": 9627,
      "ｘ": 9628,
      "｜": 9629,
      "～": 9630,
      "｡": 9631,
      "｢": 9632,
      "｣": 9633,
      "､": 9634,
      "･": 9635,
      "￠": 9636,
      "￡": 9637,
      "￣": 9638,
      "￥": 9639,
      "￭": 9640,
      "￼": 9641,
      "𐊆": 9642,
      "𐊍": 9643,
      "𐊎": 9644,
      "𐊐": 9645,
      "𐊕": 9646,
      "𐊗": 9647,
      "𐌀": 9648,
      "𐌄": 9649,
      "𐌉": 9650,
      "𐌓": 9651,
      "𐌕": 9652,
      "𐎡": 9653,
      "𐎫": 9654,
      "𐎳": 9655,
      "𐎺": 9656,
      "𐎼": 9657,
      "𐏁": 9658,
      "𐨀": 9659,
      "𐨁": 9660,
      "𐨩": 9661,
      "𐨫": 9662,
      "𐨮": 9663,
      "𒆪": 9664,
      "𒊩": 9665,
      "𝔓": 9666,
      "🌀": 9667,
      "🌎": 9668,
      "🏎": 9669,
      "👕": 9670,
      "👻": 9671,
      "💅": 9672,
      "💡": 9673,
      "💩": 9674,
      "😀": 9675,
      "😉": 9676,
      "😜": 9677,
      "😭": 9678,
      "😱": 9679,
      "🙂": 9680,
      "🙋": 9681,
      "🚀": 9682,
      "🚨": 9683,
      "🤗": 9684,
      "🤦": 9685,
      "🤯": 9686,
      "🧨": 9687,
      "🧱": 9688,
      "🪆": 9689,
      "𠮶": 9690,
      "𣬠": 9691,
      "𣬶": 9692,
      "𣸨": 9693,
      "𦈌": 9694,
      "𨅬": 9695,
      "𪨶": 9696,
      "𫐖": 9697,
      "𫖮": 9698,
      "𫚉": 9699,
      "𫚕": 9700,
      "𫛭": 9701,
      "𫟼": 9702,
      "𫠒": 9703,
      "𫪁": 9704,
      "𫫇": 9705,
      "𬀩": 9706,
      "𬀪": 9707,
      "𬒈": 9708,
      "𬘡": 9709,
      "𬣙": 9710,
      "𬤊": 9711,
      "𬬩": 9712,
      "𬬮": 9713,
      "𬭊": 9714,
      "𬭩": 9715,
      "𬭸": 9716,
      "𬮤": 9717,
      "𬶋": 9718,
      "𬶨": 9719,
      "󠄆": 9720,
      "##r": 9721,
      "##i": 9722,
      "##n": 9723,
      "##t": 9724,
      "##C": 9725,
      "##h": 9726,
      "##e": 9727,
      "##c": 9728,
      "##k": 9729,
      "##s": 9730,
      "##0": 9731,
      "##6": 9732,
      "##1": 9733,
      "##7": 9734,
      "##4": 9735,
      "##9": 9736,
      "##3": 9737,
      "##o": 9738,
      "##ß": 9739,
      "##b": 9740,
      "##a": 9741,
      "##d": 9742,
      "##g": 9743,
      "##m": 9744,
      "##v": 9745,
      "##l": 9746,
      "##5": 9747,
      "##8": 9748,
      "##q": 9749,
      "##u": 9750,
      "##A": 9751,
      "##M": 9752,
      "##2": 9753,
      "##f": 9754,
      "##y": 9755,
      "##O": 9756,
      "##p": 9757,
      "##U": 9758,
      "##S": 9759,
      "##T": 9760,
      "##z": 9761,
      "##x": 9762,
      "##G": 9763,
      "##D": 9764,
      "##w": 9765,
      "##B": 9766,
      "##H": 9767,
      "##R": 9768,
      "##F": 9769,
      "##I": 9770,
      "##P": 9771,
      "##j": 9772,
      "##V": 9773,
      "##é": 9774,
      "##š": 9775,
      "##ĭ": 9776,
      "##L": 9777,
      "##～": 9778,
      "##Z": 9779,
      "##N": 9780,
      "##E": 9781,
      "##è": 9782,
      "##X": 9783,
      "##Y": 9784,
      "##Q": 9785,
      "##ć": 9786,
      "##K": 9787,
      "##½": 9788,
      "##×": 9789,
      "##í": 9790,
      "##W": 9791,
      "##Ö": 9792,
      "##Ü": 9793,
      "##Ş": 9794,
      "##Ə": 9795,
      "##ἰ": 9796,
      "##ν": 9797,
      "##ι": 9798,
      "##ᾶ": 9799,
      "##ε": 9800,
      "##ς": 9801,
      "##ɾ": 9802,
      "##°": 9803,
      "##ü": 9804,
      "##á": 9805,
      "##ø": 9806,
      "##ô": 9807,
      "##²": 9808,
      "##î": 9809,
      "##ː": 9810,
      "##③": 9811,
      "##④": 9812,
      "##⑤": 9813,
      "##ị": 9814,
      "##ţ": 9815,
      "##â": 9816,
      "##€": 9817,
      "##न": 9818,
      "##्": 9819,
      "##द": 9820,
      "##ㄜ": 9821,
      "##J": 9822,
      "##™": 9823,
      "##①": 9824,
      "##ل": 9825,
      "##ى": 9826,
      "##व": 9827,
      "##ा": 9828,
      "##ब": 9829,
      "##ग": 9830,
      "##ञ": 9831,
      "##ज": 9832,
      "##ˈ": 9833,
      "##ř": 9834,
      "##─": 9835,
      "##ó": 9836,
      "##ý": 9837,
      "##ú": 9838,
      "##Â": 9839,
      "##¬": 9840,
      "##️": 9841,
      "##ö": 9842,
      "##−": 9843,
      "##Á": 9844,
      "##ɖ": 9845,
      "##ο": 9846,
      "##동": 9847,
      "##원": 9848,
      "##ɛ": 9849,
      "##ʁ": 9850,
      "##ɔ": 9851,
      "##θ": 9852,
      "##ʌ": 9853,
      "##ə": 9854,
      "##ä": 9855,
      "##ʊ": 9856,
      "##ê": 9857,
      "##ㄨ": 9858,
      "##ņ": 9859,
      "##ë": 9860,
      "##γ": 9861,
      "##ί": 9862,
      "##α": 9863,
      "##å": 9864,
      "##ŋ": 9865,
      "##⁄": 9866,
      "##£": 9867,
      "##μ": 9868,
      "##ッ": 9869,
      "##ド": 9870,
      "##ș": 9871,
      "##℃": 9872,
      "##み": 9873,
      "##¦": 9874,
      "##ὐ": 9875,
      "##면": 9876,
      "##하": 9877,
      "##나": 9878,
      "##주": 9879,
      "##세": 9880,
      "##요": 9881,
      "##ð": 9882,
      "##δ": 9883,
      "##ō": 9884,
      "##이": 9885,
      "##클": 9886,
      "##ʻ": 9887,
      "##ရ": 9888,
      "##ု": 9889,
      "##တ": 9890,
      "##်": 9891,
      "##န": 9892,
      "##း": 9893,
      "##１": 9894,
      "##Ｎ": 9895,
      "##č": 9896,
      "##ı": 9897,
      "##ã": 9898,
      "##ी": 9899,
      "##û": 9900,
      "##→": 9901,
      "##ố": 9902,
      "##ʒ": 9903,
      "##æ": 9904,
      "##ī": 9905,
      "##à": 9906,
      "##＄": 9907,
      "##어": 9908,
      "##ぐ": 9909,
      "##ò": 9910,
      "##´": 9911,
      "##ず": 9912,
      "##ま": 9913,
      "##ā": 9914,
      "##ñ": 9915,
      "##ç": 9916,
      "##ե": 9917,
      "##բ": 9918,
      "##ո": 9919,
      "##ս": 9920,
      "##ƒ": 9921,
      "##¼": 9922,
      "##π": 9923,
      "##ρ": 9924,
      "##χ": 9925,
      "##ő": 9926,
      "##ά": 9927,
      "##σ": 9928,
      "##ω": 9929,
      "##ز": 9930,
      "##د": 9931,
      "##ی": 9932,
      "##ک": 9933,
      "##ِ": 9934,
      "##ب": 9935,
      "##ْ": 9936,
      "##ـ": 9937,
      "##ر": 9938,
      "##َ": 9939,
      "##ا": 9940,
      "##ه": 9941,
      "##ي": 9942,
      "##م": 9943,
      "##έ": 9944,
      "##⑧": 9945,
      "##ɪ": 9946,
      "##ē": 9947,
      "##ṭ": 9948,
      "##ū": 9949,
      "##®": 9950,
      "##ş": 9951,
      "##פ": 9952,
      "##ו": 9953,
      "##⠆": 9954,
      "##ḵ": 9955,
      "##̱": 9956,
      "##Τ": 9957,
      "##र": 9958,
      "##ि": 9959,
      "##प": 9960,
      "##थ": 9961,
      "##⑴": 9962,
      "##ɑ": 9963,
      "##ח": 9964,
      "##ש": 9965,
      "##ך": 9966,
      "##ỳ": 9967,
      "##∶": 9968,
      "##ش": 9969,
      "##ت": 9970,
      "##İ": 9971,
      "##в": 9972,
      "##д": 9973,
      "##е": 9974,
      "##빛": 9975,
      "##샤": 9976,
      "##워": 9977,
      "##Ⅰ": 9978,
      "##о": 9979,
      "##ш": 9980,
      "##л": 9981,
      "##а": 9982,
      "##н": 9983,
      "##и": 9984,
      "##도": 9985,
      "##마": 9986,
      "##셔": 9987,
      "##ن": 9988,
      "##ǐ": 9989,
      "##ǎ": 9990,
      "##º": 9991,
      "##ะ": 9992,
      "##ส": 9993,
      "##า": 9994,
      "##ù": 9995,
      "##Ã": 9996,
      "##©": 9997,
      "##ł": 9998,
      "##¨": 9999,
      "##̯": 10000,
      "##ɕ": 10001,
      "##ɐ": 10002,
      "##ɒ": 10003,
      "##ề": 10004,
      "##다": 10005,
      "##ụ": 10006,
      "##ï": 10007,
      "##É": 10008,
      "##ע": 10009,
      "##ר": 10010,
      "##을": 10011,
      "##까": 10012,
      "##С": 10013,
      "##ら": 10014,
      "##𐌉": 10015,
      "##い": 10016,
      "##ń": 10017,
      "##식": 10018,
      "##υ": 10019,
      "##τ": 10020,
      "##ό": 10021,
      "##ė": 10022,
      "##ａ": 10023,
      "##０": 10024,
      "##¥": 10025,
      "##Š": 10026,
      "##∈": 10027,
      "##ư": 10028,
      "##ơ": 10029,
      "##ď": 10030,
      "##ʃ": 10031,
      "##מ": 10032,
      "##י": 10033,
      "##ɥ": 10034,
      "##ד": 10035,
      "##화": 10036,
      "##를": 10037,
      "##ă": 10038,
      "##ㄆ": 10039,
      "##ύ": 10040,
      "##φ": 10041,
      "##ָ": 10042,
      "##ֹ": 10043,
      "##ן": 10044,
      "##キ": 10045,
      "##≤": 10046,
      "##ת": 10047,
      "##ˉ": 10048,
      "##˧": 10049,
      "##の": 10050,
      "##ユ": 10051,
      "##̥": 10052,
      "##ʰ": 10053,
      "##ʔ": 10054,
      "##т": 10055,
      "##с": 10056,
      "##Ä": 10057,
      "##õ": 10058,
      "##ǒ": 10059,
      "##ę": 10060,
      "##́": 10061,
      "##ή": 10062,
      "##ג": 10063,
      "##λ": 10064,
      "##κ": 10065,
      "##œ": 10066,
      "##영": 10067,
      "##호": 10068,
      "##９": 10069,
      "##７": 10070,
      "##３": 10071,
      "##４": 10072,
      "##５": 10073,
      "##る": 10074,
      "##ž": 10075,
      "##だ": 10076,
      "##ち": 10077,
      "##ှ": 10078,
      "##ပ": 10079,
      "##ဖ": 10080,
      "##ိ": 10081,
      "##ɯ": 10082,
      "##∪": 10083,
      "##ˊ": 10084,
      "##섯": 10085,
      "##ɡ": 10086,
      "##ὶ": 10087,
      "##η": 10088,
      "##⑦": 10089,
      "##ㄓ": 10090,
      "##ɣ": 10091,
      "##ʉ": 10092,
      "##ẽ": 10093,
      "##〇": 10094,
      "##̃": 10095,
      "##ğ": 10096,
      "##ż": 10097,
      "##♪": 10098,
      "##👕": 10099,
      "##و": 10100,
      "##６": 10101,
      "##м": 10102,
      "##з": 10103,
      "##к": 10104,
      "##Ć": 10105,
      "##２": 10106,
      "##ა": 10107,
      "##რ": 10108,
      "##გ": 10109,
      "##ი": 10110,
      "##⁰": 10111,
      "##아": 10112,
      "##⠐": 10113,
      "##⠮": 10114,
      "##㍘": 10115,
      "##ŭ": 10116,
      "##께": 10117,
      "##한": 10118,
      "##ś": 10119,
      "##℉": 10120,
      "##ー": 10121,
      "##ệ": 10122,
      "##ì": 10123,
      "##ु": 10124,
      "##ं": 10125,
      "##त": 10126,
      "##þ": 10127,
      "##⠂": 10128,
      "##ټ": 10129,
      "##ℓ": 10130,
      "##נ": 10131,
      "##א": 10132,
      "##ם": 10133,
      "##ῶ": 10134,
      "##지": 10135,
      "##만": 10136,
      "##고": 10137,
      "##기": 10138,
      "##가": 10139,
      "##у": 10140,
      "##р": 10141,
      "##８": 10142,
      "##п": 10143,
      "##̪": 10144,
      "##Λ": 10145,
      "##ŏ": 10146,
      "##⠗": 10147,
      "##ą": 10148,
      "##Ａ": 10149,
      "##つ": 10150,
      "##か": 10151,
      "##ḥ": 10152,
      "##ㄗ": 10153,
      "##³": 10154,
      "##계": 10155,
      "##탕": 10156,
      "##맛": 10157,
      "##때": 10158,
      "##ķ": 10159,
      "##ി": 10160,
      "##ക": 10161,
      "##്": 10162,
      "##■": 10163,
      "##엇": 10164,
      "##크": 10165,
      "##릿": 10166,
      "##ㄛ": 10167,
      "##β": 10168,
      "##분": 10169,
      "##에": 10170,
      "##ွ": 10171,
      "##လ": 10172,
      "##ေ": 10173,
      "##့": 10174,
      "##̹": 10175,
      "##Ⅱ": 10176,
      "##ě": 10177,
      "##⠖": 10178,
      "##ㄘ": 10179,
      "##ա": 10180,
      "##տ": 10181,
      "##մ": 10182,
      "##ի": 10183,
      "##չ": 10184,
      "##∗": 10185,
      "##ʀ": 10186,
      "##ṛ": 10187,
      "##أ": 10188,
      "##な": 10189,
      "##ิ": 10190,
      "##น": 10191,
      "##ท": 10192,
      "##ร": 10193,
      "##โ": 10194,
      "##ก": 10195,
      "##ม": 10196,
      "##ล": 10197,
      "##ย": 10198,
      "##์": 10199,
      "##ุ": 10200,
      "##ต": 10201,
      "##¹": 10202,
      "##ʼ": 10203,
      "##レ": 10204,
      "##シ": 10205,
      "##フ": 10206,
      "##ў": 10207,
      "##¾": 10208,
      "##Ó": 10209,
      "##ִ": 10210,
      "##ּ": 10211,
      "##ק": 10212,
      "##͠": 10213,
      "##□": 10214,
      "##ج": 10215,
      "##ۃ": 10216,
      "##り": 10217,
      "##と": 10218,
      "##も": 10219,
      "##ы": 10220,
      "##й": 10221,
      "##￣": 10222,
      "##▷": 10223,
      "##ف": 10224,
      "##ȍ": 10225,
      "##ȁ": 10226,
      "##국": 10227,
      "##ʿ": 10228,
      "##อ": 10229,
      "##ซ": 10230,
      "##ɱ": 10231,
      "##լ": 10232,
      "##ք": 10233,
      "##ն": 10234,
      "##｜": 10235,
      "##＋": 10236,
      "##µ": 10237,
      "##เ": 10238,
      "##ื": 10239,
      "##ง": 10240,
      "##ậ": 10241,
      "##ч": 10242,
      "##ฟ": 10243,
      "##ַ": 10244,
      "##ְ": 10245,
      "##ה": 10246,
      "##✌": 10247,
      "##✨": 10248,
      "##թ": 10249,
      "##ը": 10250,
      "##ր": 10251,
      "##부": 10252,
      "##여": 10253,
      "##ૂ": 10254,
      "##う": 10255,
      "##㎝": 10256,
      "##해": 10257,
      "##ല": 10258,
      "##യ": 10259,
      "##ാ": 10260,
      "##ള": 10261,
      "##ം": 10262,
      "##エ": 10263,
      "##ص": 10264,
      "##ح": 10265,
      "##バ": 10266,
      "##녕": 10267,
      "##ぱ": 10268,
      "##┮": 10269,
      "##ŵ": 10270,
      "##구": 10271,
      "##무": 10272,
      "##좋": 10273,
      "##Ｔ": 10274,
      "##Ｏ": 10275,
      "##터": 10276,
      "##베": 10277,
      "##스": 10278,
      "##＜": 10279,
      "##ห": 10280,
      "##ว": 10281,
      "##ั": 10282,
      "##ค": 10283,
      "##○": 10284,
      "##⠱": 10285,
      "##♥": 10286,
      "##ט": 10287,
      "##צ": 10288,
      "##す": 10289,
      "##심": 10290,
      "##드": 10291,
      "##ζ": 10292,
      "##⅓": 10293,
      "##⑥": 10294,
      "##빔": 10295,
      "##밥": 10296,
      "##ל": 10297,
      "##௸": 10298,
      "##͜": 10299,
      "##＞": 10300,
      "##Ｅ": 10301,
      "##Ｆ": 10302,
      "##დ": 10303,
      "##म": 10304,
      "##ो": 10305,
      "##घ": 10306,
      "##भ": 10307,
      "##ू": 10308,
      "##ल": 10309,
      "##̚": 10310,
      "##ւ": 10311,
      "##¢": 10312,
      "##♭": 10313,
      "##็": 10314,
      "##ข": 10315,
      "##่": 10316,
      "##้": 10317,
      "##ไ": 10318,
      "##ｋ": 10319,
      "##ｍ": 10320,
      "##ס": 10321,
      "##ב": 10322,
      "##ʷ": 10323,
      "##ી": 10324,
      "##𐎼": 10325,
      "##𐎺": 10326,
      "##𐎫": 10327,
      "##𐎡": 10328,
      "##𐏁": 10329,
      "##ώ": 10330,
      "##უ": 10331,
      "##ნ": 10332,
      "##თ": 10333,
      "##შ": 10334,
      "##ვ": 10335,
      "##ლ": 10336,
      "##럼": 10337,
      "##같": 10338,
      "##먹": 10339,
      "##히": 10340,
      "##노": 10341,
      "##래": 10342,
      "##Α": 10343,
      "##ˌ": 10344,
      "##∂": 10345,
      "##タ": 10346,
      "##ṣ": 10347,
      "##𒆪": 10348,
      "##כ": 10349,
      "##ả": 10350,
      "##♣": 10351,
      "##Ζ": 10352,
      "##Ι": 10353,
      "##Σ": 10354,
      "##Ο": 10355,
      "##Υ": 10356,
      "##ё": 10357,
      "##̮": 10358,
      "##Ð": 10359,
      "##よ": 10360,
      "##ひ": 10361,
      "##で": 10362,
      "##♬": 10363,
      "##ɲ": 10364,
      "##ネ": 10365,
      "##チ": 10366,
      "##カ": 10367,
      "##ọ": 10368,
      "##ț": 10369,
      "##♦": 10370,
      "##ξ": 10371,
      "##᾽": 10372,
      "##리": 10373,
      "##운": 10374,
      "##ै": 10375,
      "##य": 10376,
      "##づ": 10377,
      "##き": 10378,
      "##ុ": 10379,
      "##ិ": 10380,
      "##ន": 10381,
      "##ធ": 10382,
      "##ើ": 10383,
      "##ណ": 10384,
      "##េ": 10385,
      "##ស": 10386,
      "##ល": 10387,
      "##±": 10388,
      "##¸": 10389,
      "##റ": 10390,
      "##വ": 10391,
      "##˥": 10392,
      "##˦": 10393,
      "##⠔": 10394,
      "##ʋ": 10395,
      "##⠒": 10396,
      "##√": 10397,
      "##К": 10398,
      "##￥": 10399,
      "##ª": 10400,
      "##∞": 10401,
      "##ĥ": 10402,
      "##ῦ": 10403,
      "##＝": 10404,
      "##ɨ": 10405,
      "##Ⓥ": 10406,
      "##☭": 10407,
      "##셋": 10408,
      "##ɜ": 10409,
      "##ゅ": 10410,
      "##바": 10411,
      "##빠": 10412,
      "##Ā": 10413,
      "##◇": 10414,
      "##간": 10415,
      "##Ĵ": 10416,
      "##∑": 10417,
      "##피": 10418,
      "##슨": 10419,
      "##ṇ": 10420,
      "##ｒ": 10421,
      "##ぇ": 10422,
      "##⑵": 10423,
      "##♠": 10424,
      "##ة": 10425,
      "##Ç": 10426,
      "##ノ": 10427,
      "##♫": 10428,
      "##⠄": 10429,
      "##몇": 10430,
      "##시": 10431,
      "##집": 10432,
      "##와": 10433,
      "##▲": 10434,
      "##̓": 10435,
      "##⠲": 10436,
      "##ế": 10437,
      "##┯": 10438,
      "##ʂ": 10439,
      "##⠶": 10440,
      "##☉": 10441,
      "##친": 10442,
      "##있": 10443,
      "##ʲ": 10444,
      "##침": 10445,
      "##ὰ": 10446,
      "##ÿ": 10447,
      "##ɦ": 10448,
      "##स": 10449,
      "##ḡ": 10450,
      "##ण": 10451,
      "##ΐ": 10452,
      "##ミ": 10453,
      "##ტ": 10454,
      "##श": 10455,
      "##백": 10456,
      "##₁": 10457,
      "##₂": 10458,
      "##녁": 10459,
      "##ำ": 10460,
      "##제": 10461,
      "##갈": 10462,
      "##Б": 10463,
      "##М": 10464,
      "##┪": 10465,
      "##イ": 10466,
      "##장": 10467,
      "##겠": 10468,
      "##습": 10469,
      "##니": 10470,
      "##음": 10471,
      "##ˆ": 10472,
      "##ェ": 10473,
      "##゜": 10474,
      "##្": 10475,
      "##ប": 10476,
      "##ៈ": 10477,
      "##ខ": 10478,
      "##ា": 10479,
      "##ង": 10480,
      "##វ": 10481,
      "##ម": 10482,
      "##ហ": 10483,
      "##ូ": 10484,
      "##ែ": 10485,
      "##រ": 10486,
      "##̺": 10487,
      "##̼": 10488,
      "##열": 10489,
      "##홉": 10490,
      "##΄": 10491,
      "##⋅": 10492,
      "##ﬂ": 10493,
      "##ʱ": 10494,
      "##♯": 10495,
      "##Η": 10496,
      "##ด": 10497,
      "##곱": 10498,
      "##⠛": 10499,
      "##ช": 10500,
      "##ญ": 10501,
      "##ф": 10502,
      "##겹": 10503,
      "##살": 10504,
      "##հ": 10505,
      "##յ": 10506,
      "##է": 10507,
      "##ध": 10508,
      "##조": 10509,
      "##당": 10510,
      "##ầ": 10511,
      "##क": 10512,
      "##ж": 10513,
      "##ễ": 10514,
      "##ộ": 10515,
      "##⋂": 10516,
      "##س": 10517,
      "##ハ": 10518,
      "##ム": 10519,
      "##ʏ": 10520,
      "##▮": 10521,
      "##∇": 10522,
      "##귿": 10523,
      "##ꞑ": 10524,
      "##⦵": 10525,
      "##я": 10526,
      "##ň": 10527,
      "##ھ": 10528,
      "##ば": 10529,
      "##さ": 10530,
      "##덟": 10531,
      "##ז": 10532,
      "##는": 10533,
      "##서": 10534,
      "##관": 10535,
      "##공": 10536,
      "##🤗": 10537,
      "##옷": 10538,
      "##즘": 10539,
      "##유": 10540,
      "##행": 10541,
      "##Å": 10542,
      "##ី": 10543,
      "##Ñ": 10544,
      "##ぜ": 10545,
      "##が": 10546,
      "##ത": 10547,
      "##ന": 10548,
      "##ര": 10549,
      "##െ": 10550,
      "##ũ": 10551,
      "##ғ": 10552,
      "##̠": 10553,
      "##ʡ": 10554,
      "##˘": 10555,
      "##보": 10556,
      "##⠴": 10557,
      "##⠦": 10558,
      "##예": 10559,
      "##뻐": 10560,
      "##দ": 10561,
      "##্": 10562,
      "##র": 10563,
      "##ল": 10564,
      "##ো": 10565,
      "##ক": 10566,
      "##십": 10567,
      "##오": 10568,
      "##г": 10569,
      "##៊": 10570,
      "##ឡ": 10571,
      "##ញ": 10572,
      "##บ": 10573,
      "##ี": 10574,
      "##げ": 10575,
      "##お": 10576,
      "##ħ": 10577,
      "##ゐ": 10578,
      "##こ": 10579,
      "##ャ": 10580,
      "##パ": 10581,
      "##ン": 10582,
      "##Í": 10583,
      "##ồ": 10584,
      "##ケ": 10585,
      "##б": 10586,
      "##ع": 10587,
      "##점": 10588,
      "##ぃ": 10589,
      "##Δ": 10590,
      "##ㄇ": 10591,
      "##セ": 10592,
      "##˨": 10593,
      "##˩": 10594,
      "##⠼": 10595,
      "##┶": 10596,
      "##ṙ": 10597,
      "##ｔ": 10598,
      "##ｅ": 10599,
      "##ｘ": 10600,
      "##Ｉ": 10601,
      "##∨": 10602,
      "##◆": 10603,
      "##ガ": 10604,
      "##ロ": 10605,
      "##じ": 10606,
      "##︠": 10607,
      "##︡": 10608,
      "##𐌄": 10609,
      "##ん": 10610,
      "##に": 10611,
      "##は": 10612,
      "##치": 10613,
      "##ấ": 10614,
      "##Ω": 10615,
      "##ċ": 10616,
      "##く": 10617,
      "##び": 10618,
      "##∧": 10619,
      "##으": 10620,
      "##𐊕": 10621,
      "##𐊐": 10622,
      "##𐊎": 10623,
      "##𐊆": 10624,
      "##𐊍": 10625,
      "##⊇": 10626,
      "##غ": 10627,
      "##À": 10628,
      "##ứ": 10629,
      "##ớ": 10630,
      "##̩": 10631,
      "##𐨩": 10632,
      "##𐨁": 10633,
      "##𐨫": 10634,
      "##𐨮": 10635,
      "##일": 10636,
      "##인": 10637,
      "##₇": 10638,
      "##봐": 10639,
      "##ㄠ": 10640,
      "##둘": 10641,
      "##ダ": 10642,
      "##ヒ": 10643,
      "##ّ": 10644,
      "##ֶ": 10645,
      "##ׁ": 10646,
      "##П": 10647,
      "##У": 10648,
      "##⠢": 10649,
      "##ź": 10650,
      "##̬": 10651,
      "##ฤ": 10652,
      "##ĩ": 10653,
      "##ष": 10654,
      "##ट": 10655,
      "##ૃ": 10656,
      "##ạ": 10657,
      "##ῖ": 10658,
      "##グ": 10659,
      "##ビ": 10660,
      "##파": 10661,
      "##ʝ": 10662,
      "##⋯": 10663,
      "##he": 10664,
      "##in": 10665,
      "##er": 10666,
      "the": 10667,
      "##on": 10668,
      "##en": 10669,
      "##at": 10670,
      "##ing": 10671,
      "##es": 10672,
      "##or": 10673,
      "##an": 10674,
      "to": 10675,
      "##ed": 10676,
      "##ion": 10677,
      "##al": 10678,
      "in": 10679,
      "##ar": 10680,
      "##ou": 10681,
      "##it": 10682,
      "##el": 10683,
      "an": 10684,
      "of": 10685,
      "##re": 10686,
      "##is": 10687,
      "##as": 10688,
      "##ent": 10689,
      "##ro": 10690,
      "##ic": 10691,
      "##ation": 10692,
      "##le": 10693,
      "and": 10694,
      "##ra": 10695,
      "##ec": 10696,
      "##et": 10697,
      "th": 10698,
      "##od": 10699,
      "##ce": 10700,
      "is": 10701,
      "##om": 10702,
      "##ur": 10703,
      "##il": 10704,
      "##ut": 10705,
      "##st": 10706,
      "##id": 10707,
      "tra": 10708,
      "be": 10709,
      "st": 10710,
      "##ining": 10711,
      "training": 10712,
      "##un": 10713,
      "re": 10714,
      "##ve": 10715,
      "The": 10716,
      "##ly": 10717,
      "##ter": 10718,
      "##ken": 10719,
      "##ot": 10720,
      "##ch": 10721,
      "##ow": 10722,
      "##ay": 10723,
      "for": 10724,
      "token": 10725,
      "##ig": 10726,
      "on": 10727,
      "##se": 10728,
      "con": 10729,
      "In": 10730,
      "mod": 10731,
      "##am": 10732,
      "##for": 10733,
      "it": 10734,
      "##ver": 10735,
      "##ran": 10736,
      "##ck": 10737,
      "##ab": 10738,
      "model": 10739,
      "##ear": 10740,
      "##ol": 10741,
      "##ct": 10742,
      "##ul": 10743,
      "##ess": 10744,
      "##im": 10745,
      "pro": 10746,
      "##ate": 10747,
      "##po": 10748,
      "##ith": 10749,
      "that": 10750,
      "##rans": 10751,
      "##ad": 10752,
      "with": 10753,
      "##ir": 10754,
      "you": 10755,
      "run": 10756,
      "##ge": 10757,
      "ex": 10758,
      "##ld": 10759,
      "##ect": 10760,
      "##ment": 10761,
      "##ence": 10762,
      "##int": 10763,
      "##iz": 10764,
      "can": 10765,
      "al": 10766,
      "de": 10767,
      "lo": 10768,
      "che": 10769,
      "##ers": 10770,
      "at": 10771,
      "##ss": 10772,
      "com": 10773,
      "ma": 10774,
      "##her": 10775,
      "check": 10776,
      "##ity": 10777,
      "are": 10778,
      "##ri": 10779,
      "##ill": 10780,
      "ne": 10781,
      "en": 10782,
      "##form": 10783,
      "##ould": 10784,
      "##est": 10785,
      "sh": 10786,
      "us": 10787,
      "##earn": 10788,
      "##em": 10789,
      "wh": 10790,
      "learn": 10791,
      "##op": 10792,
      "##ine": 10793,
      "was": 10794,
      "##point": 10795,
      "as": 10796,
      "su": 10797,
      "##hen": 10798,
      "val": 10799,
      "##ap": 10800,
      "checkpoint": 10801,
      "se": 10802,
      "##able": 10803,
      "##ke": 10804,
      "not": 10805,
      "##pl": 10806,
      "##igh": 10807,
      "##if": 10808,
      "##out": 10809,
      "##ist": 10810,
      "valid": 10811,
      "##oun": 10812,
      "##ort": 10813,
      "##rom": 10814,
      "validation": 10815,
      "##fer": 10816,
      "##ies": 10817,
      "un": 10818,
      "trans": 10819,
      "##ding": 10820,
      "learning": 10821,
      "or": 10822,
      "##ave": 10823,
      "##uring": 10824,
      "##qu": 10825,
      "##ure": 10826,
      "from": 10827,
      "##ant": 10828,
      "##um": 10829,
      "wor": 10830,
      "##00": 10831,
      "##all": 10832,
      "dat": 10833,
      "##us": 10834,
      "im": 10835,
      "during": 10836,
      "af": 10837,
      "##ive": 10838,
      "##iv": 10839,
      "##th": 10840,
      "we": 10841,
      "##ain": 10842,
      "have": 10843,
      "Trans": 10844,
      "cont": 10845,
      "me": 10846,
      "##and": 10847,
      "transl": 10848,
      "##our": 10849,
      "##ust": 10850,
      "pre": 10851,
      "by": 10852,
      "##former": 10853,
      "this": 10854,
      "ch": 10855,
      "Transformer": 10856,
      "##age": 10857,
      "te": 10858,
      "##gh": 10859,
      "##ong": 10860,
      "translation": 10861,
      "##ome": 10862,
      "##ight": 10863,
      "sp": 10864,
      "pr": 10865,
      "##are": 10866,
      "##ore": 10867,
      "##ial": 10868,
      "##xt": 10869,
      "##end": 10870,
      "##fore": 10871,
      "comp": 10872,
      "when": 10873,
      "##ep": 10874,
      "out": 10875,
      "##cess": 10876,
      "##ip": 10877,
      "may": 10878,
      "do": 10879,
      "loss": 10880,
      "##art": 10881,
      "ad": 10882,
      "rep": 10883,
      "##per": 10884,
      "##ual": 10885,
      "##pro": 10886,
      "he": 10887,
      "will": 10888,
      "after": 10889,
      "##ough": 10890,
      "##ry": 10891,
      "has": 10892,
      "att": 10893,
      "##put": 10894,
      "em": 10895,
      "before": 10896,
      "Ch": 10897,
      "##ions": 10898,
      "res": 10899,
      "so": 10900,
      "ab": 10901,
      "cl": 10902,
      "##ical": 10903,
      "##ference": 10904,
      "For": 10905,
      "data": 10906,
      "over": 10907,
      "##ther": 10908,
      "##ated": 10909,
      "inc": 10910,
      "##av": 10911,
      "##ere": 10912,
      "##rop": 10913,
      "##ell": 10914,
      "##ac": 10915,
      "##ention": 10916,
      "cle": 10917,
      "##og": 10918,
      "bec": 10919,
      "##ations": 10920,
      "##ud": 10921,
      "##enc": 10922,
      "##der": 10923,
      "but": 10924,
      "##pt": 10925,
      "go": 10926,
      "19": 10927,
      "##au": 10928,
      "dec": 10929,
      "##ful": 10930,
      "hel": 10931,
      "##ds": 10932,
      "inference": 10933,
      "all": 10934,
      "le": 10935,
      "##du": 10936,
      "##ish": 10937,
      "tokens": 10938,
      "pl": 10939,
      "##ang": 10940,
      "##oder": 10941,
      "rate": 10942,
      "rel": 10943,
      "more": 10944,
      "##ener": 10945,
      "##ast": 10946,
      "man": 10947,
      "po": 10948,
      "Th": 10949,
      "##vel": 10950,
      "uses": 10951,
      "they": 10952,
      "int": 10953,
      "help": 10954,
      "rec": 10955,
      "##ile": 10956,
      "##ance": 10957,
      "##ie": 10958,
      "no": 10959,
      "ac": 10960,
      "attention": 10961,
      "##ous": 10962,
      "##ult": 10963,
      "Chin": 10964,
      "##ass": 10965,
      "one": 10966,
      "sy": 10967,
      "exam": 10968,
      "gener": 10969,
      "##ru": 10970,
      "per": 10971,
      "ar": 10972,
      "##bed": 10973,
      "sel": 10974,
      "##ok": 10975,
      "should": 10976,
      "##ause": 10977,
      "##ors": 10978,
      "drop": 10979,
      "##itt": 10980,
      "##ide": 10981,
      "use": 10982,
      "clean": 10983,
      "fe": 10984,
      "sc": 10985,
      "##res": 10986,
      "##ount": 10987,
      "##ich": 10988,
      "##ag": 10989,
      "##ary": 10990,
      "##stem": 10991,
      "bet": 10992,
      "red": 10993,
      "dis": 10994,
      "##ition": 10995,
      "their": 10996,
      "set": 10997,
      "up": 10998,
      "##ict": 10999,
      "##ost": 11000,
      "##ice": 11001,
      "embed": 11002,
      "##ple": 11003,
      "It": 11004,
      "##tern": 11005,
      "##ng": 11006,
      "##ech": 11007,
      "dropout": 11008,
      "##ates": 11009,
      "embedding": 11010,
      "were": 11011,
      "conf": 11012,
      "ap": 11013,
      "your": 11014,
      "work": 11015,
      "##port": 11016,
      "its": 11017,
      "##ard": 11018,
      "system": 11019,
      "been": 11020,
      "##ib": 11021,
      "##izer": 11022,
      "##so": 11023,
      "his": 11024,
      "ev": 11025,
      "##ese": 11026,
      "##ach": 11027,
      "200": 11028,
      "##ase": 11029,
      "##get": 11030,
      "make": 11031,
      "tokenizer": 11032,
      "##ff": 11033,
      "##ely": 11034,
      "could": 11035,
      "long": 11036,
      "##one": 11037,
      "##ame": 11038,
      "need": 11039,
      "##ound": 11040,
      "##ime": 11041,
      "##apt": 11042,
      "##ater": 11043,
      "redu": 11044,
      "sent": 11045,
      "##ind": 11046,
      "part": 11047,
      "stable": 11048,
      "##ign": 11049,
      "##oc": 11050,
      "which": 11051,
      "also": 11052,
      "my": 11053,
      "20": 11054,
      "##cessing": 11055,
      "##ue": 11056,
      "sm": 11057,
      "##ize": 11058,
      "##ction": 11059,
      "ag": 11060,
      "##ack": 11061,
      "li": 11062,
      "text": 11063,
      "enc": 11064,
      "##ace": 11065,
      "about": 11066,
      "Chinese": 11067,
      "##ples": 11068,
      "##ange": 11069,
      "if": 11070,
      "Eng": 11071,
      "##wor": 11072,
      "##ber": 11073,
      "##os": 11074,
      "##resent": 11075,
      "other": 11076,
      "pe": 11077,
      "##ak": 11078,
      "epo": 11079,
      "##ia": 11080,
      "epoch": 11081,
      "represent": 11082,
      "##now": 11083,
      "there": 11084,
      "qu": 11085,
      "##lish": 11086,
      "##ress": 11087,
      "##ient": 11088,
      "had": 11089,
      "##ire": 11090,
      "used": 11091,
      "##areful": 11092,
      "##ural": 11093,
      "This": 11094,
      "sequ": 11095,
      "##ource": 11096,
      "new": 11097,
      "##low": 11098,
      "helps": 11099,
      "would": 11100,
      "time": 11101,
      "##act": 11102,
      "##velop": 11103,
      "co": 11104,
      "##ail": 11105,
      "reduce": 11106,
      "##ures": 11107,
      "input": 11108,
      "output": 11109,
      "##cu": 11110,
      "self": 11111,
      "##ational": 11112,
      "into": 11113,
      "##ask": 11114,
      "year": 11115,
      "some": 11116,
      "##ier": 11117,
      "##ility": 11118,
      "how": 11119,
      "who": 11120,
      "10": 11121,
      "##ens": 11122,
      "##ree": 11123,
      "##ific": 11124,
      "exper": 11125,
      "small": 11126,
      "mach": 11127,
      "##ory": 11128,
      "English": 11129,
      "than": 11130,
      "team": 11131,
      "##ub": 11132,
      "develop": 11133,
      "##ob": 11134,
      "under": 11135,
      "count": 11136,
      "overf": 11137,
      "St": 11138,
      "sa": 11139,
      "An": 11140,
      "cons": 11141,
      "comm": 11142,
      "config": 11143,
      "##ays": 11144,
      "examples": 11145,
      "impro": 11146,
      "like": 11147,
      "encoder": 11148,
      "##ian": 11149,
      "des": 11150,
      "machine": 11151,
      "##ite": 11152,
      "configur": 11153,
      "Al": 11154,
      "try": 11155,
      "know": 11156,
      "dif": 11157,
      "source": 11158,
      "better": 11159,
      "too": 11160,
      "##ople": 11161,
      "##eth": 11162,
      "##erm": 11163,
      "ind": 11164,
      "gra": 11165,
      "eas": 11166,
      "##ments": 11167,
      "tw": 11168,
      "produ": 11169,
      "##ink": 11170,
      "her": 11171,
      "prepro": 11172,
      "preprocessing": 11173,
      "ser": 11174,
      "##itting": 11175,
      "He": 11176,
      "sentence": 11177,
      "sub": 11178,
      "##ased": 11179,
      "We": 11180,
      "##ark": 11181,
      "reg": 11182,
      "tar": 11183,
      "them": 11184,
      "because": 11185,
      "acc": 11186,
      "##ose": 11187,
      "pol": 11188,
      "When": 11189,
      "##ject": 11190,
      "##par": 11191,
      "target": 11192,
      "##ities": 11193,
      "##ences": 11194,
      "whe": 11195,
      "lay": 11196,
      "qual": 11197,
      "careful": 11198,
      "##work": 11199,
      "incre": 11200,
      "off": 11201,
      "fir": 11202,
      "people": 11203,
      "##row": 11204,
      "inter": 11205,
      "configuration": 11206,
      "she": 11207,
      "##reat": 11208,
      "##ced": 11209,
      "decoder": 11210,
      "task": 11211,
      "12": 11212,
      "only": 11213,
      "lab": 11214,
      "##ious": 11215,
      "##ake": 11216,
      "fin": 11217,
      "sav": 11218,
      "##angu": 11219,
      "act": 11220,
      "##ally": 11221,
      "11": 11222,
      "range": 11223,
      "pred": 11224,
      "spe": 11225,
      "overfitting": 11226,
      "##ble": 11227,
      "quality": 11228,
      "any": 11229,
      "langu": 11230,
      "##ries": 11231,
      "our": 11232,
      "##con": 11233,
      "bo": 11234,
      "high": 11235,
      "##ined": 11236,
      "##hed": 11237,
      "##ric": 11238,
      "det": 11239,
      "dep": 11240,
      "##aset": 11241,
      "##pos": 11242,
      "many": 11243,
      "##de": 11244,
      "##olog": 11245,
      "##isy": 11246,
      "##ings": 11247,
      "just": 11248,
      "two": 11249,
      "dataset": 11250,
      "report": 11251,
      "##ons": 11252,
      "##ization": 11253,
      "##atch": 11254,
      "hand": 11255,
      "net": 11256,
      "ver": 11257,
      "##very": 11258,
      "class": 11259,
      "##iew": 11260,
      "fl": 11261,
      "am": 11262,
      "predict": 11263,
      "language": 11264,
      "##pect": 11265,
      "##ism": 11266,
      "well": 11267,
      "what": 11268,
      "##air": 11269,
      "You": 11270,
      "##iment": 11271,
      "If": 11272,
      "become": 11273,
      "mean": 11274,
      "bl": 11275,
      "##mm": 11276,
      "Un": 11277,
      "trying": 11278,
      "##els": 11279,
      "feat": 11280,
      "prov": 11281,
      "col": 11282,
      "ro": 11283,
      "first": 11284,
      "op": 11285,
      "rem": 11286,
      "##ectors": 11287,
      "##ces": 11288,
      "ke": 11289,
      "pat": 11290,
      "##ild": 11291,
      "network": 11292,
      "sequence": 11293,
      "show": 11294,
      "gr": 11295,
      "sec": 11296,
      "str": 11297,
      "##rough": 11298,
      "##ood": 11299,
      "these": 11300,
      "right": 11301,
      "noisy": 11302,
      "##ating": 11303,
      "pres": 11304,
      "bu": 11305,
      "##echn": 11306,
      "get": 11307,
      "ob": 11308,
      "##we": 11309,
      "improve": 11310,
      "state": 11311,
      "incl": 11312,
      "But": 11313,
      "low": 11314,
      "##ond": 11315,
      "process": 11316,
      "vectors": 11317,
      "experiment": 11318,
      "201": 11319,
      "capt": 11320,
      "13": 11321,
      "lar": 11322,
      "most": 11323,
      "want": 11324,
      "easier": 11325,
      "file": 11326,
      "##aw": 11327,
      "##ents": 11328,
      "##ular": 11329,
      "inv": 11330,
      "sim": 11331,
      "cur": 11332,
      "##ft": 11333,
      "##ains": 11334,
      "differ": 11335,
      "still": 11336,
      "##conom": 11337,
      "mem": 11338,
      "spec": 11339,
      "see": 11340,
      "On": 11341,
      "##ade": 11342,
      "##king": 11343,
      "stud": 11344,
      "##ied": 11345,
[...]
