[PAD]
[UNK]
[CLS]
[SEP]
[MASK]
!
"
#
$
%
&
'
(
)
*
+
,
-
.
/
0
1
2
3
4
5
6
7
8
9
:
;
<
=
>
?
@
A
B
C
D
E
F
G
H
I
J
K
L
M
N
O
P
Q
R
S
T
U
V
W
X
Y
Z
[
\
]
^
_
`
a
b
c
d
e
f
g
h
i
j
k
l
m
n
o
p
q
r
s
t
u
v
w
x
y
z
{
|
}
~
¡
¢
£
¤
¥
¦
§
¨
©
ª
«
¬
®
¯
°
±
²
³
´
µ
¶
·
¸
¹
º
»
¼
½
¾
¿
À
Á
Â
Ã
Ä
Å
Æ
Ç
É
Í
Î
Ï
Ð
Ñ
Ó
Ö
×
Ø
Ú
Ü
Þ
ß
à
á
â
ã
ä
å
æ
ç
è
é
ê
ë
ì
í
î
ï
ð
ñ
ò
ó
ô
õ
ö
÷
ø
ù
ú
û
ü
ý
þ
ÿ
Ā
ā
ă
ą
Ć
ć
ċ
Č
č
Ď
ď
Đ
ē
ė
ę
ě
ğ
Ġ
ġ
ĥ
ħ
ĩ
ī
ĭ
İ
ı
Ĵ
Ķ
ķ
Ľ
Ł
ł
ń
ņ
ň
ŋ
Ō
ō
ŏ
ő
œ
Ř
ř
Ś
ś
Ş
ş
Š
š
ţ
ũ
ū
ŭ
ŵ
ź
Ż
ż
Ž
ž
ſ
Ə
ƒ
ƛ
ơ
ư
ǂ
Ǎ
ǎ
ǐ
ǒ
ǖ
ǫ
ȁ
ȍ
ș
ț
ɐ
ɑ
ɒ
ɓ
ɔ
ɕ
ɖ
ɗ
ə
ɚ
ɛ
ɜ
ɟ
ɡ
ɣ
ɥ
ɦ
ɨ
ɪ
ɭ
ɮ
ɯ
ɱ
ɲ
ɳ
ɽ
ɾ
ʀ
ʁ
ʂ
ʃ
ʉ
ʊ
ʋ
ʌ
ʎ
ʏ
ʒ
ʔ
ʕ
ʝ
ʡ
ʧ
ʰ
ʱ
ʲ
ʷ
ʻ
ʼ
ʾ
ʿ
ˆ
ˈ
ˉ
ˊ
ˋ
ˌ
ˎ
ː
˘
˙
˥
˦
˧
˨
˩
́
̃
̈
̓
̚
̝
̞
̠
̡
̥
̧
̩
̪
̬
̮
̯
̱
̹
̺
̼
͜
͠
΄
Ά
·
ΐ
Α
Β
Γ
Δ
Ε
Ζ
Η
Θ
Ι
Κ
Λ
Μ
Ν
Ο
Π
Σ
Τ
Υ
Φ
Χ
Ψ
Ω
ά
έ
ή
ί
α
β
γ
δ
ε
ζ
η
θ
ι
κ
λ
μ
ν
ξ
ο
π
ρ
ς
σ
τ
υ
φ
χ
ψ
ω
ό
ύ
ώ
ϑ
ϕ
Ϝ
ϵ
Ў
А
Б
В
Г
З
К
М
Н
О
П
Р
С
Т
У
Х
Ц
Ч
Ы
Ю
а
б
в
г
д
е
ж
з
и
й
к
л
м
н
о
п
р
с
т
у
ф
ц
ч
ш
ъ
ы
э
я
ё
ў
Ѳ
ғ
қ
Դ
Հ
Պ
Ս
Փ
ա
բ
ե
է
ը
թ
ի
լ
հ
մ
յ
ն
ո
չ
ս
տ
ր
ւ
ք
օ
ֆ
֏
ְ
ִ
ֶ
ַ
ָ
ֹ
ּ
׀
ׁ
א
ב
ג
ד
ה
ו
ז
ח
ט
י
ך
כ
ל
ם
מ
ן
נ
ס
ע
פ
צ
ק
ר
ש
ת
آ
أ
إ
ا
ب
ة
ت
ج
ح
د
ر
ز
س
ش
ص
ع
غ
ـ
ف
ق
ك
ل
م
ن
ه
و
ى
ي
َ
ِ
ّ
ْ
ټ
پ
چ
ک
ھ
ۃ
ی
ं
अ
क
ग
घ
च
ज
ञ
ट
ण
त
थ
द
ध
न
प
ब
भ
म
य
र
ल
व
श
ष
स
ह
ा
ि
ी
ु
ू
ै
ो
्
ক
দ
ভ
র
ল
ো
্
જ
ર
હ
ી
ૂ
ૃ
ଣ
ଳ
௸
ം
ക
ത
ന
പ
മ
യ
ര
റ
ല
ള
വ
ാ
ി
െ
്
ก
ข
ค
ฅ
ง
ช
ซ
ญ
ด
ต
ท
น
บ
พ
ฟ
ม
ย
ร
ฤ
ล
ว
ส
ห
อ
ะ
ั
า
ำ
ิ
ี
ื
ุ
ฺ
เ
โ
ไ
็
่
้
์
ည
တ
န
ပ
ဖ
ရ
လ
ဪ
ိ
ု
ေ
့
း
်
ွ
ှ
Ⴗ
ა
ბ
გ
დ
ვ
თ
ი
კ
ლ
ნ
რ
ტ
უ
შ
ხ
ᄃ
ᄅ
ᄉ
ᄌ
ᅵ
ᒸ
ខ
ង
ជ
ញ
ណ
ធ
ន
ប
ម
រ
ល
វ
ស
ហ
ឡ
អ
ា
ិ
ី
ុ
ូ
ើ
េ
ែ
ៈ
៊
្
ḏ
ḡ
Ḥ
ḥ
ḱ
ḵ
ṇ
ṙ
ṛ
ṣ
ṭ
ạ
ả
ấ
ầ
ậ
ẽ
ế
ề
ễ
ệ
Ỉ
ị
ọ
ố
ồ
ộ
ớ
ụ
ứ
ỳ
ἀ
Ἀ
Ἄ
ἐ
ἔ
Ἑ
ἰ
Ἰ
ὐ
ὰ
ὶ
ᾶ
᾽
ῖ
ῦ
ῶ
‐
‑
‒
–
—
―
‘
’
‚
‛
“
”
„
†
‡
•
…
‧
‰
′
″
‵
‹
›
※
⁄
⁰
₁
₂
₇
₤
₫
€
₹
₽
℃
℅
℉
ℍ
ℓ
№
™
⅓
Ⅰ
Ⅱ
Ⅲ
Ⅳ
Ⅴ
Ⅵ
Ⅶ
Ⅷ
ⅱ
ⅳ
←
↑
→
↓
↔
↗
↵
⇌
⇧
∀
∂
∃
∆
∇
∈
∑
−
∕
∗
∘
∙
√
∞
∠
∥
∧
∨
∪
∮
∶
∼
≈
≠
≡
≤
≥
≫
⊂
⊆
⊇
⊕
⊖
⊗
⊙
⊞
⊥
⊿
⋂
⋅
⋯
⌈
⌉
⌊
⌋
⌘
〈
〉
⏎
①
②
③
④
⑤
⑥
⑦
⑧
⑴
⑵
⑶
⑷
⑸
⑹
⑺
⑻
⑼
⑽
⑾
⒂
⒃
⒅
⒍
⒕
⒖
Ⓥ
─
━
┅
┣
┦
┪
┬
┮
┯
┰
┶
╣
╧
╰
▆
█
■
□
▪
▮
▲
△
▷
▸
▽
◆
◇
○
◎
●
★
☆
☉
☭
☮
♠
♣
♥
♦
♪
♫
♬
♭
♯
♻
⚠
⚳
✌
✎
✏
✔
✨
❊
➥
⟨
⟩
⟪
⟫
⠂
⠄
⠆
⠇
⠐
⠒
⠔
⠕
⠖
⠗
⠛
⠝
⠞
⠠
⠢
⠦
⠨
⠪
⠮
⠯
⠱
⠲
⠴
⠶
⠸
⠹
⠼
⦘
⦵
⭐
ⳇ
⸨
、
。
〃
〇
〈
〉
《
》
「
」
『
』
【
】
〔
〕
〖
〗
〜
〝
〞
あ
ぃ
い
う
ぇ
お
か
が
き
く
ぐ
げ
こ
ご
さ
し
じ
す
ず
ぜ
そ
だ
ち
ぢ
つ
づ
で
と
な
に
ね
の
は
ば
ぱ
ひ
び
ぶ
ぺ
ほ
ま
み
む
め
も
ゅ
よ
ら
り
る
ゐ
ゑ
を
ん
゜
ゞ
ア
イ
ウ
ェ
エ
カ
ガ
キ
グ
ケ
ゴ
ザ
シ
ジ
セ
ゼ
ソ
タ
ダ
チ
ッ
デ
ド
ネ
ノ
ハ
バ
パ
ヒ
ビ
フ
ミ
ム
ャ
ユ
ラ
ル
レ
ロ
ン
ヴ
ヶ
・
ー
ㄆ
ㄇ
ㄍ
ㄐ
ㄑ
ㄒ
ㄓ
ㄔ
ㄗ
ㄘ
ㄛ
ㄜ
ㄞ
ㄟ
ㄠ
ㄢ
ㄣ
ㄤ
ㄧ
ㄨ
ㄩ
㈠
㈡
㈢
㈣
㈤
㈥
㈦
㈧
㈨
㈩
㍘
㎝
㎡
㏄
㏑
㐋
㐓
㖞
㖠
㗎
㞰
㤰
㦱
㭎
㳧
㴲
㵵
㶎
㸋
㹢
㹴
㺢
䆛
䇓
䇲
䐜
䡙
䪰
䴘
䴙
䵀
䵂
䵑
一
丁
七
丄
丅
万
丈
三
上
下
丌
不
与
丏
丐
丑
专
且
丕
世
丗
丘
丙
业
丛
东
丝
丞
丟
両
丢
丣
两
严
並
丧
丨
个
丫
丬
中
丯
丰
串
临
丵
丶
丸
丹
为
主
丽
举
乂
乃
久
么
义
之
乌
乍
乎
乏
乐
乒
乓
乔
乖
乘
乙
乜
九
乞
也
习
乡
书
乩
买
乱
乳
乾
亂
了
亇
予
争
亊
事
二
于
亏
云
互
亓
五
井
亘
亚
些
亞
亟
亡
亢
交
亥
亦
产
亨
亩
享
京
亭
亮
亲
亳
亵
人
亻
亽
亿
什
仁
仃
仄
仅
仆
仇
今
介
仍
从
仑
仓
仔
仕
他
仗
付
仙
仝
仞
仟
仡
代
令
以
仧
仨
仪
们
仰
仲
仳
仵
件
价
任
份
仿
企
伃
伉
伊
伍
伎
伏
伐
休
伕
众
优
伙
会
伛
伝
伞
伟
传
伤
伥
伦
伧
伪
伫
伯
估
伱
伲
伴
伶
伸
伺
似
伽
佃
但
佈
佉
位
低
住
佐
佑
体
佔
何
佗
佘
余
佚
佛
作
佝
佞
佟
你
佢
佣
佤
佥
佧
佩
佬
佯
佰
佳
併
佷
佻
佼
佽
使
侃
侄
侅
侈
侉
例
侍
侏
侑
侔
侗
侘
侚
供
侜
依
侞
侠
侣
侥
侦
侧
侨
侩
侪
侬
侮
侯
侵
侶
便
俀
促
俄
俅
俊
俋
俎
俏
俐
俑
俗
俘
俚
保
俞
俟
俠
信
俣
俦
俨
俩
俪
俫
俭
修
俯
俰
俱
俳
俴
俵
俶
俸
俺
俾
倆
倉
倌
倍
倏
們
倒
倔
倖
倘
候
倚
倛
倜
借
倡
倢
値
倦
倧
倨
倩
倪
倫
倬
倭
倮
倰
倳
倶
债
倻
值
倾
偁
偃
偆
假
偈
偉
偌
偎
偏
偕
做
停
健
偲
側
偵
偶
偷
偸
偻
偽
偿
傀
傅
傈
傍
傑
傘
備
傢
傣
傥
傧
储
傩
傪
催
傭
傲
傳
債
傷
傹
傻
傾
僅
働
像
僕
僖
僚
僧
僭
僮
僰
僱
僳
僵
僸
價
僻
儀
億
儅
儆
儋
儒
儘
償
儡
優
儲
儿
兀
允
元
兄
充
兆
兇
先
光
兊
克
免
兑
兒
兔
兖
党
兜
兢
入
內
全
兩
八
公
六
兮
兰
共
兲
关
兴
兵
其
具
典
兹
养
兼
兽
冀
冂
内
円
冇
冈
冉
冊
册
再
冑
冒
冕
冖
冗
写
冚
军
农
冝
冠
冢
冤
冥
冧
冬
冯
冰
冲
决
冴
况
冶
冷
冻
冼
冽
净
凄
准
凇
凉
凋
凌
减
凑
凖
凛
凝
几
凡
凤
処
凫
凭
凯
凰
凱
凳
凶
凸
凹
出
击
凼
函
凿
刀
刁
刃
分
切
刈
刉
刊
刋
刍
刎
刑
划
刖
列
刘
则
刚
创
初
删
判
別
刨
利
别
刭
刮
到
制
刷
券
刹
刺
刻
刽
剀
剁
剂
剃
則
剉
削
剌
前
剎
剐
剑
剒
剔
剕
剖
剛
剜
剝
剞
剤
剥
剧
剩
剪
副
割
創
剷
剽
剿
劀
劂
劃
劇
劈
劉
劍
劑
力
劝
办
功
加
务
劢
劣
动
助
努
劫
劭
励
劲
劳
劵
劾
势
勃
勇
勉
勋
勐
勒
動
勘
務
勚
勛
勝
勞
募
勢
勤
勰
勵
勸
勺
勻
勾
勿
匀
包
匆
匈
匍
匐
匕
化
北
匙
匝
匠
匡
匣
匦
匩
匪
匮
匯
匹
区
医
匼
匾
匿
區
十
千
卅
升
午
卉
半
卍
华
协
卑
卒
卓
協
单
卖
南
卙
博
卜
卞
卟
占
卡
卢
卣
卤
卦
卧
卫
卮
卯
印
危
即
却
卵
卷
卸
卻
卽
卿
厂
厄
厅
历
厉
压
厌
厍
厓
厕
厘
厚
厝
原
厢
厥
厦
厨
厩
厭
厮
厲
厷
去
县
叁
参
參
又
叉
及
友
双
反
収
发
叔
取
受
变
叙
叛
叟
叠
叡
叢
口
古
句
另
叨
叩
只
叫
召
叭
叮
可
台
叱
史
右
叴
叵
叶
号
司
叹
叻
叼
叽
吁
吃
各
吆
合
吉
吊
吋
同
名
后
吏
吐
向
吒
吓
吔
吕
吖
吗
君
吝
吞
吟
吠
吡
吥
否
吧
吨
吩
含
听
吭
吮
启
吱
吲
吳
吴
吵
吶
吸
吹
吻
吼
吽
吾
呀
呁
呂
呃
呆
呈
告
呋
呎
呐
呑
呒
呓
呔
呕
呖
呗
员
呛
呜
呢
呣
呤
呦
呧
周
呫
呯
呱
呲
味
呴
呵
呶
呷
呸
呻
呼
命
呾
咀
咁
咂
咄
咆
咋
和
咎
咏
咐
咒
咔
咕
咖
咗
咙
咚
咛
咜
咝
咣
咤
咦
咧
咨
咩
咪
咫
咬
咭
咯
咱
咲
咳
咸
咻
咽
咿
哀
品
哂
哄
哆
哇
哈
哉
哋
哌
响
哎
哏
哐
哑
哒
哓
哔
哗
哚
哝
哞
哟
員
哥
哦
哧
哨
哩
哪
哭
哮
哲
哺
哼
哽
唁
唆
唇
唉
唏
唐
唑
唒
唔
唗
唛
唠
唢
唤
唧
唬
售
唯
唰
唱
唳
唵
唷
唸
唾
唿
啁
啃
啄
商
啉
啊
啋
啎
問
啐
啕
啖
啜
啝
啟
啡
啤
啥
啦
啧
啩
啪
啫
啬
啭
啮
啰
啱
啲
啵
啶
啷
啸
啻
啼
啾
喀
喁
喂
喃
善
喆
喇
喈
喉
喊
喋
喌
喏
喑
喔
喘
喙
喚
喜
喝
喟
喧
喨
喪
喬
喭
單
喱
喲
喳
喵
喷
喹
喺
喻
喽
嗄
嗅
嗉
嗌
嗎
嗐
嗑
嗒
嗓
嗔
嗖
嗜
嗝
嗡
嗣
嗤
嗥
嗦
嗨
嗪
嗫
嗬
嗯
嗱
嗲
嗳
嗵
嗷
嗽
嗾
嘀
嘁
嘅
嘆
嘈
嘉
嘌
嘎
嘏
嘔
嘗
嘘
嘚
嘛
嘞
嘟
嘢
嘣
嘤
嘦
嘧
嘬
嘭
嘱
嘲
嘴
嘶
嘹
嘻
嘿
噁
噉
噌
噎
噐
噓
噔
噗
噘
噙
噜
噢
噤
器
噩
噪
噫
噬
噱
噵
噶
噸
噻
噼
嚅
嚇
嚎
嚏
嚒
嚓
嚟
嚣
嚥
嚯
嚴
嚷
嚼
囊
囍
囓
囔
囖
囗
囘
囚
四
囝
回
囟
因
囡
团
団
囤
囧
囪
囫
囬
园
囮
囯
困
囱
围
囵
囷
囹
固
国
图
囿
圃
圄
圆
圈
圌
圍
園
圓
圖
團
圜
圝
土
圣
在
圩
圪
圭
圮
地
圳
圴
圶
圸
圹
场
圻
圾
址
坂
均
坊
坍
坎
坏
坐
坑
块
坚
坛
坜
坝
坞
坟
坠
坡
坤
坦
坨
坩
坪
坭
坯
坰
坳
坴
坷
坻
垀
垂
垃
垄
垅
垆
型
垒
垛
垠
垢
垣
垤
垦
垩
垫
垭
垮
垸
埂
埃
埈
埋
埌
城
埔
埕
埗
埙
埚
埜
埝
域
埠
埤
埭
埲
埵
執
埸
培
基
埻
埼
堀
堂
堃
堅
堆
堇
堈
堉
堋
堍
堐
堑
堕
堙
堡
堤
堪
堰
報
場
堵
堿
塊
塌
塍
塑
塔
塗
塘
塚
塞
塢
塩
填
塬
塵
塹
塾
墁
境
墅
墉
墒
墓
増
墘
墙
墜
增
墟
墨
墩
墬
墳
墹
墿
壁
壅
壆
壇
壑
壓
壕
壘
壞
壤
士
壬
壮
壯
声
壳
壶
壸
壹
壺
壽
处
备
変
复
夏
夔
夕
外
夙
多
夛
夜
够
夠
夢
夤
夥
大
天
太
夫
夭
央
夯
失
头
夷
夸
夹
夺
夾
奀
奁
奂
奄
奇
奈
奉
奋
奌
奎
奏
契
奓
奔
奕
奖
套
奘
奚
奠
奢
奤
奥
奧
奪
奬
奮
女
奴
奶
奸
她
奻
好
奾
妁
如
妃
妄
妆
妇
妈
妊
妍
妏
妒
妓
妖
妗
妙
妝
妞
妢
妥
妦
妨
妩
妪
妫
妮
妯
妲
妳
妹
妺
妻
妾
姆
姊
始
姐
姑
姓
委
姗
姘
姚
姜
姝
姣
姥
姦
姨
姪
姬
姹
姻
姿
威
娃
娄
娅
娆
娇
娈
娉
娊
娑
娓
娘
娛
娜
娟
娠
娣
娥
娩
娱
娲
娴
娶
娸
娼
娿
婀
婆
婉
婊
婓
婕
婚
婢
婥
婦
婧
婪
婴
婵
婶
婷
婺
婿
媒
媕
媚
媛
媞
媤
媪
媲
媳
媼
媽
媾
嫁
嫂
嫉
嫌
嫔
嫖
嫘
嫚
嫡
嫣
嫦
嫩
嫫
嫭
嫲
嬅
嬉
嬑
嬖
嬗
嬛
嬰
嬲
嬴
嬷
孀
子
孑
孒
孔
孕
字
存
孙
孚
孛
孜
孝
孟
孢
季
孤
学
孩
孪
孫
孬
孰
孱
孳
孵
學
孺
孽
宁
它
宅
宇
守
安
宋
完
宎
宏
宒
宓
宕
宗
官
宙
定
宛
宜
宝
实
宠
审
客
宣
室
宥
宦
宪
宫
宮
宰
害
宴
宵
家
宸
容
宽
宾
宿
寀
寁
寂
寃
寄
寅
密
寇
富
寐
寒
寓
寘
寛
寝
寞
察
寡
寤
寥
實
寧
寨
審
寫
寬
寮
寯
寰
寳
寵
寶
寸
对
寺
寻
导
対
寿
封
射
尅
将
將
專
尉
尊
尋
對
導
小
尐
少
尒
尓
尔
尕
尖
尘
尙
尚
尝
尢
尤
尥
尧
尨
尬
就
尴
尸
尹
尺
尻
尼
尽
尾
尿
局
屁
层
屃
屄
居
屆
屈
屉
届
屋
屌
屍
屎
屏
屐
屑
展
屙
属
屠
屡
屣
層
履
屦
屬
屯
山
屹
屺
屿
岁
岂
岆
岈
岌
岐
岑
岔
岖
岗
岘
岙
岚
岛
岜
岡
岢
岣
岩
岫
岬
岭
岱
岳
岷
岸
岺
岿
峁
峄
峇
峈
峋
峒
峓
峕
峙
峟
峡
峣
峤
峥
峦
峨
峩
峪
峭
峰
島
峻
崀
崁
崂
崃
崄
崆
崇
崋
崎
崔
崖
崙
崛
崤
崧
崩
崭
崮
崴
崽
崾
嵇
嵊
嵋
嵌
嵗
嵘
嵛
嵩
嵬
嵯
嵴
嵵
嶂
嶇
嶋
嶙
嶼
巃
巅
巍
巓
川
州
巠
巡
巢
工
左
巧
巨
巩
巫
差
巯
己
已
巳
巴
巷
巻
巽
巾
巿
帀
币
市
布
帅
帆
师
希
帐
帑
帕
帖
帘
帙
帚
帛
帜
帝
帣
帥
带
帧
師
帬
席
帮
帳
帶
帷
常
帼
帽
幂
幄
幅
幌
幔
幕
幗
幛
幡
幢
幣
幫
干
平
年
并
幷
幸
幹
幺
幻
幼
幽
幾
广
広
庄
庆
庇
床
庋
序
庐
库
应
底
庖
店
庙
庚
府
庞
废
庠
庥
度
座
庫
庭
庵
庶
康
庸
庾
廁
廇
廉
廊
廋
廌
廑
廓
廖
廚
廛
廠
廢
廣
廨
廪
廳
延
廷
廸
建
廻
廿
开
弁
异
弃
弄
弇
弈
弊
弋
弌
式
弑
弓
弔
引
弗
弘
弛
弟
张
弢
弥
弦
弧
弩
弭
弯
弱
張
強
弹
强
弼
彀
彈
彌
归
当
录
彗
彝
彡
形
彤
彥
彦
彩
彪
彬
彭
彰
影
彶
彷
彸
役
彻
彼
彿
往
征
径
待
徆
徇
很
徉
徊
律
徐
徑
徒
従
徕
徖
得
徘
徙
徜
從
御
徨
復
循
徬
微
徳
徵
德
徹
徼
徽
心
必
忆
忌
忍
忏
忐
忑
忒
忖
志
忘
忙
忝
忠
忡
忤
忧
忪
快
忭
忱
忳
念
忷
忸
忻
忽
忾
忿
怀
态
怂
怄
怅
怆
怉
怍
怎
怏
怒
怓
怔
怕
怖
怙
怜
思
怠
怡
怢
急
怦
性
怨
怩
怪
怯
怵
总
怼
恀
恁
恂
恃
恅
恆
恋
恍
恏
恐
恒
恕
恙
恚
恠
恢
恣
恤
恥
恨
恩
恪
恫
恬
恭
息
恰
恳
恴
恶
恸
恹
恺
恻
恼
恽
恿
悄
悉
悌
悍
悒
悔
悖
悚
悛
悜
悝
悟
悠
患
悦
您
悫
悬
悭
悯
悱
悲
悳
悴
悶
悸
悻
悼
情
惆
惇
惊
惋
惑
惕
惗
惘
惚
惜
惝
惟
惠
惡
惢
惦
惧
惨
惩
惪
惫
惬
惭
惮
惯
惰
想
惴
惶
惹
惺
愁
愆
愈
愉
愎
意
愒
愕
愚
愛
感
愠
愣
愤
愦
愧
愫
愿
慈
慊
態
慌
慎
慑
慕
慘
慝
慢
慧
慨
慮
慰
慵
慶
慷
慾
憋
憎
憐
憔
憧
憨
憩
憫
憬
憲
憶
憾
懂
懈
應
懊
懋
懑
懒
懦
懧
懲
懵
懷
懹
懼
懽
懿
戀
戈
戊
戋
戌
戍
戎
戏
成
我
戒
戓
戕
或
戗
战
戚
戛
戟
戡
截
戮
戰
戲
戳
戴
戶
户
戽
戾
房
所
扁
扂
扃
扇
扈
扉
手
才
扎
扑
扒
打
扔
托
扛
扞
扢
扣
扦
执
扩
扪
扫
扬
扭
扮
扯
扰
扳
扶
批
扼
扽
找
承
技
抄
抉
把
抑
抒
抓
投
抖
抗
折
抚
抛
抟
抠
抡
抢
护
报
抨
披
抬
抱
抳
抵
抹
抺
押
抽
抿
拂
拄
担
拆
拇
拈
拉
拋
拌
拍
拎
拐
拒
拓
拔
拖
拗
拘
拙
拚
招
拜
拟
拢
拣
拥
拦
拧
拨
择
括
拭
拮
拯
拱
拳
拴
拶
拷
拸
拼
拽
拾
拿
持
挂
指
挈
按
挎
挑
挖
挚
挛
挝
挞
挟
挠
挡
挢
挣
挤
挥
挨
挪
挫
振
挲
挹
挺
挽
捂
捅
捆
捈
捉
捋
捌
捍
捎
捏
捐
捕
捞
损
捡
换
捣
捧
捨
捩
捬
捭
据
捯
捱
捲
捶
捷
捺
捻
掀
掂
掃
掇
授
掉
掌
掍
掏
掐
排
掖
掗
掘
掙
掛
掠
採
探
掣
接
控
推
掩
措
掬
掮
掰
掲
掳
掴
掷
掸
掺
掼
掾
揀
揄
揆
揉
揍
描
提
插
揖
揚
換
揠
握
揣
揥
揩
揪
揭
揮
援
揵
揶
揸
揽
揾
揿
搀
搁
搂
搅
搆
搋
損
搏
搐
搓
搔
搖
搜
搞
搠
搡
搥
搦
搧
搪
搬
搭
搶
携
搽
摀
摁
摃
摄
摅
摆
摇
摈
摊
摒
摔
摖
摘
摞
摧
摩
摫
摰
摸
摹
摺
撂
撃
撅
撇
撐
撑
撒
撕
撘
撙
撞
撢
撤
撥
撧
撩
撫
撬
播
撮
撰
撲
撵
撷
撸
撺
撼
撿
擀
擁
擂
擅
擇
擊
擋
操
擎
擒
擔
擘
據
擞
擠
擢
擤
擦
擬
擱
擴
擺
擾
攀
攒
攘
攜
攝
攞
攥
攫
支
收
攷
攸
改
攻
放
政
敀
故
效
敉
敌
敍
敏
救
敕
敖
敗
敘
教
敛
敝
敞
敢
散
敦
敫
敬
数
敲
整
敵
敷
數
斃
斄
文
斋
斌
斎
斐
斑
斓
斕
斗
料
斛
斜
斟
斡
斤
斥
斧
斩
斫
斬
断
斯
新
斲
斷
方
於
施
旁
旅
旋
旌
旎
族
旒
旖
旗
无
既
日
旦
旧
旨
早
旬
旭
旮
旯
旰
旱
旳
时
旷
旺
旻
旼
昀
昂
昃
昄
昆
昉
昊
昌
明
昏
昒
易
昔
昕
昙
昜
星
映
昢
春
昧
昨
昪
昫
昭
是
昰
昱
昴
昵
昶
昼
昽
显
晁
晃
晉
晋
晌
晏
晒
晓
晔
晕
晖
晗
晚
晟
晢
晤
晦
晨
普
景
晰
晳
晴
晶
晷
智
晾
暂
暄
暇
暈
暋
暌
暑
暖
暗
暝
暠
暢
暧
暨
暫
暮
暱
暴
暸
暹
暻
曆
曉
曙
曜
曝
曦
曩
曬
曰
曲
曳
更
曷
曹
曺
曻
曼
曽
曾
替
最
月
有
朊
朋
服
朐
朔
朕
朗
望
朝
朞
期
朢
朦
木
朩
未
末
本
札
朮
术
朱
朴
朵
机
朼
朽
杀
杂
权
杅
杆
杈
杉
杌
李
杏
材
村
杓
杖
杜
杞
束
杠
条
来
杨
杪
杭
杯
杰
東
杳
杵
杷
杸
杻
松
板
极
构
枇
枉
析
枑
枕
林
枘
枙
枚
果
枝
枞
枢
枣
枥
枧
枪
枫
枭
枯
枰
枱
枳
架
枷
枸
枽
柁
柄
柆
柏
某
柑
柒
染
柔
柘
柚
柜
柞
柠
柢
查
柩
柬
柯
柰
柱
柲
柳
柴
柸
柽
柿
栀
栃
栄
栅
标
栈
栉
栊
栋
栎
栏
树
栒
栓
栖
栗
栝
校
栩
株
栱
栲
样
核
根
栻
格
栽
栾
桀
桁
桂
桃
桅
框
案
桉
桌
桎
桐
桑
桓
桔
桜
桠
桡
桢
档
桤
桥
桦
桧
桨
桩
桫
桯
桲
桶
桷
桽
桿
梁
梃
梅
梆
梉
梏
梑
梒
梓
梗
條
梠
梢
梣
梦
梧
梨
梭
梯
械
梳
梵
梶
梿
检
棂
棄
棉
棋
棍
棒
棕
棘
棚
棠
棣
棪
森
棰
棱
棲
棵
棹
棺
棼
椁
椄
椅
椇
椋
植
椎
椐
椒
椤
椪
椭
椰
椴
椹
椽
椿
楂
楊
楔
楚
楛
楝
楞
楠
楢
楣
楤
楦
楫
楬
楮
極
楷
楸
楹
楼
榀
概
榄
榅
榆
榇
榈
榉
榍
榑
榔
榕
榖
榛
榜
榥
榧
榨
榫
榭
榮
榴
榷
榻
槁
槃
構
槌
槍
槎
槐
槓
様
槛
槟
槠
槪
槭
槲
槽
槿
樁
樂
樊
樋
樑
樓
樘
標
樟
模
樣
樨
横
樯
樱
樵
樹
樽
樾
橄
橇
橋
橐
橘
橙
橛
機
橡
橥
橦
橫
橱
橵
橹
橼
橾
檀
檃
檄
檎
檐
檔
檗
檞
檢
檩
檫
檬
檯
檳
櫃
櫈
櫕
櫚
欄
權
欑
欠
次
欢
欣
欤
欧
欰
欲
欴
欸
欹
欺
欽
款
歃
歆
歇
歉
歌
歐
歙
歛
歠
歡
止
正
此
步
武
歧
歩
歪
歲
歳
歷
歸
歹
死
歼
殁
殃
殄
殆
殇
殉
殊
残
殒
殓
殖
殘
殚
殡
殴
段
殷
殺
殿
毀
毁
毂
毅
毋
母
毎
每
毒
毓
比
毕
毖
毗
毘
毙
毛
毡
毫
毬
毯
毳
毽
氄
氅
氆
氇
氎
氏
氐
民
氓
气
氖
氘
氙
氚
氛
氟
氡
氢
氣
氤
氦
氧
氨
氩
氪
氫
氮
氯
氰
氲
水
氶
永
氺
氽
氾
汀
汁
求
汆
汇
汉
汊
汐
汔
汕
汗
汛
汜
汝
汞
江
池
污
汤
汨
汩
汪
汭
汰
汲
汴
汶
汸
汹
決
汽
汾
沁
沂
沃
沅
沆
沇
沈
沉
沌
沏
沐
沒
沓
沖
沙
沛
沟
没
沢
沣
沤
沥
沦
沧
沪
沫
沬
沭
沮
沱
河
沵
沸
油
治
沼
沽
沾
沿
況
泄
泅
泉
泊
泌
泍
泐
泓
泔
法
泗
泚
泛
泞
泠
泡
波
泣
泥
注
泪
泫
泭
泮
泯
泰
泱
泳
泵
泷
泸
泻
泼
泽
泾
洁
洄
洊
洋
洌
洏
洐
洒
洗
洘
洙
洛
洞
津
洧
洩
洪
洫
洮
洱
洲
洵
活
洼
洽
派
流
浃
浅
浆
浇
浈
浉
浊
测
济
浏
浐
浑
浒
浓
浔
浙
浚
浛
浜
浠
浡
浣
浦
浩
浪
浬
浮
浯
浴
浵
海
浸
浼
涂
涅
消
涉
涌
涎
涐
涓
涔
涕
涙
涚
涛
涝
涞
涟
涠
涡
涣
涤
润
涧
涨
涩
涪
涮
涯
液
涴
涵
涸
涼
涿
淀
淄
淅
淆
淇
淉
淋
淌
淏
淑
淖
淘
淙
淚
淝
淞
淠
淡
淤
淦
淨
淩
淫
淬
淮
深
淲
淳
混
淸
淹
淺
添
淼
渀
清
渊
渌
渍
渎
渐
渔
渗
渚
減
渝
渠
渡
渣
渤
渥
渧
温
渫
測
渭
港
渰
渲
渴
游
渺
渾
湃
湄
湊
湍
湎
湔
湖
湘
湛
湜
湟
湫
湮
湲
湳
湾
湿
満
溃
溅
溇
溉
溏
源
準
溘
溜
溞
溢
溥
溦
溧
溪
溫
溯
溱
溴
溶
溺
溻
溼
滁
滂
滅
滇
滋
滑
滓
滔
滕
滗
滘
滙
滚
滞
滟
满
滢
滤
滥
滦
滨
滩
滪
滴
滹
滾
滿
漁
漂
漆
漉
漏
漓
演
漕
漠
漢
漩
漪
漫
漬
漯
漱
漳
漸
漾
漿
潆
潇
潋
潍
潑
潔
潘
潛
潜
潞
潟
潢
潦
潭
潮
潰
潴
潸
潺
潼
澄
澈
澋
澍
澎
澜
澡
澤
澧
澳
澹
激
濃
濑
濒
濕
濙
濛
濞
濟
濠
濡
濫
濬
濮
濯
濱
濾
瀆
瀑
瀕
瀚
瀛
瀣
瀬
瀹
灌
灏
灞
火
灭
灯
灰
灵
灶
灸
灼
災
灾
灿
炀
炆
炉
炊
炎
炒
炔
炕
炖
炙
炜
炝
炤
炫
炬
炭
炮
炯
炱
炳
炵
炷
炸
点
炻
炼
炽
烁
烂
烃
烈
烊
烋
烏
烕
烘
烙
烛
烜
烟
烤
烦
烧
烨
烩
烫
烬
热
烯
烷
烹
烺
烽
焉
焊
焓
焕
焖
焗
焘
焙
焚
焜
焦
焯
焰
焱
然
煀
煅
煊
煌
煎
煖
煙
煜
煞
煤
煦
照
煨
煩
煮
煲
煳
煸
煺
煽
熄
熊
熏
熔
熘
熙
熟
熠
熨
熬
熱
熵
熹
熺
燃
燈
燊
燎
燒
燔
燕
燚
營
燠
燥
燧
燨
燭
燮
燻
燿
爀
爆
爍
爛
爪
爬
爭
爰
爱
爲
爵
父
爷
爸
爹
爺
爻
爽
爾
爿
牀
牆
片
版
牌
牍
牐
牒
牖
牙
牛
牝
牟
牠
牡
牢
牤
牦
牧
物
牯
牲
牴
牵
特
牺
牽
牾
犀
犁
犄
犊
犍
犒
犛
犟
犠
犬
犭
犯
犰
状
犷
犸
犹
狀
狂
狄
狈
狍
狎
狐
狒
狓
狗
狙
狞
狟
狠
狡
狥
狦
狨
狩
独
狭
狮
狯
狰
狱
狳
狷
狸
狹
狼
狽
猁
猌
猎
猕
猖
猗
猛
猜
猝
猞
猟
猡
猢
猥
猩
猪
猫
猬
猭
献
猱
猴
猵
猶
猾
猿
獄
獍
獎
獐
獒
獗
獚
獠
獨
獭
獲
獴
獵
獸
獹
獺
獻
獽
獾
玃
玄
玆
率
玉
玊
王
玎
玑
玕
玖
玙
玛
玠
玡
玢
玥
玦
玩
玫
玮
环
现
玲
玳
玶
玷
玺
玻
玾
珀
珂
珅
珆
珇
珈
珉
珊
珋
珍
珏
珐
珑
珗
珙
珛
珞
珠
珥
珨
珩
班
珮
珲
珴
珺
現
珿
球
琅
理
琇
琉
琌
琍
琏
琐
琛
琢
琥
琦
琨
琩
琪
琬
琯
琰
琳
琴
琵
琶
琹
琼
琾
瑀
瑁
瑄
瑆
瑈
瑌
瑍
瑑
瑕
瑙
瑚
瑛
瑜
瑞
瑟
瑣
瑪
瑯
瑰
瑶
瑼
瑾
瑿
璀
璃
璄
璇
璋
璎
璐
璗
璘
璚
璜
璞
璠
璣
璧
璨
璩
璭
環
璲
璶
璸
璺
璻
璽
瓁
瓆
瓊
瓙
瓜
瓠
瓢
瓣
瓤
瓦
瓩
瓮
瓯
瓳
瓴
瓶
瓷
瓸
瓿
甁
甄
甐
甑
甘
甙
甚
甜
生
甡
產
甥
甦
甧
用
甩
甪
甫
甬
甭
田
由
甲
申
电
男
甸
町
画
甾
畀
畅
界
畎
畏
畑
畔
留
畚
畜
畝
畠
畢
略
畦
番
畫
畯
異
畱
畲
畴
當
畸
畹
畿
疆
疇
疉
疊
疋
疍
疏
疑
疔
疖
疗
疙
疚
疝
疟
疠
疡
疣
疤
疥
疫
疭
疮
疯
疱
疲
疳
疴
疵
疸
疹
疼
疽
疾
痁
痂
痄
病
症
痈
痉
痊
痍
痒
痔
痕
痖
痘
痙
痚
痛
痜
痞
痠
痢
痣
痤
痧
痨
痪
痫
痰
痱
痲
痳
痴
痷
痹
痼
痿
瘀
瘁
瘂
瘅
瘊
瘋
瘌
瘗
瘘
瘙
瘛
瘜
瘟
瘠
瘢
瘤
瘦
瘧
瘩
瘪
瘫
瘴
瘸
瘾
瘿
癀
療
癃
癊
癌
癎
癒
癔
癖
癘
癜
癞
癡
癣
癫
癬
癱
癸
発
登
發
白
百
癿
皂
皃
的
皆
皇
皈
皊
皋
皎
皑
皒
皓
皖
皘
皙
皮
皱
皲
皴
皿
盂
盅
盆
盈
盉
益
盍
盎
盏
盐
监
盒
盓
盔
盖
盗
盘
盛
盞
盟
盡
盢
監
盤
盥
盧
目
盯
盱
盲
直
相
盹
盼
盽
盾
盿
省
眃
眇
眈
眉
眊
看
県
眏
眒
眔
眕
眖
眙
眞
真
眠
眣
眦
眨
眩
眬
眭
眯
眳
眵
眶
眷
眸
眺
眻
眼
眾
着
睁
睃
睇
睐
睑
睚
睛
睜
睟
睡
睢
督
睥
睦
睨
睪
睫
睬
睲
睹
睺
睼
睽
睾
睿
瞄
瞅
瞋
瞌
瞎
瞑
瞒
瞞
瞟
瞠
瞢
瞥
瞧
瞩
瞪
瞬
瞭
瞰
瞳
瞴
瞷
瞻
瞽
瞿
矍
矗
矛
矜
矢
矣
知
矩
矪
矫
短
矮
石
矶
矸
矹
矽
矾
矿
砀
码
砂
砃
砆
砉
砋
砌
砍
砐
砑
砒
砓
研
砖
砘
砙
砚
砛
砜
砝
砞
砟
砣
砥
砦
砧
砩
砫
砬
砭
砰
砱
砲
破
砵
砷
砸
砹
砺
砻
砼
砾
础
硂
硄
硅
硉
硌
硎
硏
硐
硑
硒
硓
硕
硖
硗
硝
硪
硫
硬
确
硷
硼
碁
碇
碉
碊
碌
碍
碎
碏
碑
碓
碔
碗
碘
碚
碛
碜
碞
碟
碡
碣
碦
碧
碩
碭
碰
碱
碲
碳
碴
碹
確
碼
碾
磁
磅
磊
磋
磐
磕
磙
磡
磨
磬
磱
磷
磺
礁
礎
礙
礚
礛
礟
礢
礦
礧
礴
礹
示
礻
礼
社
祀
祁
祂
祆
祇
祈
祉
祍
祐
祑
祒
祖
祗
祘
祚
祛
祜
祝
神
祟
祠
祡
祢
祥
票
祭
祯
祷
祸
祺
祼
祾
禀
禁
禄
禅
禊
禍
福
禔
禗
禦
禧
禮
禰
禱
禲
禳
禹
禺
离
禽
禾
秀
私
秂
秃
秅
秆
秈
秉
秋
种
秏
科
秒
秕
秘
租
秣
秤
秦
秧
秨
秩
秪
秭
积
称
秶
秸
移
秽
秾
稀
稃
稅
程
稍
税
稑
稓
稔
稗
稚
稞
稠
稣
稦
稬
種
稰
稱
稲
稳
稷
稸
稹
稻
稼
稽
稿
穆
穌
積
穎
穑
穕
穗
穝
穦
穧
穩
穫
穰
穴
究
穷
穹
空
穿
突
窃
窄
窈
窍
窑
窒
窕
窖
窗
窘
窜
窝
窟
窠
窢
窣
窥
窦
窨
窭
窮
窰
窱
窸
窾
窿
竇
竊
立
竒
竕
竖
竘
站
竜
竞
竟
章
竡
竣
童
竭
端
競
竹
竺
竽
竿
笃
笄
笆
笈
笋
笏
笐
笑
笓
笔
笕
笙
笛
笞
笠
笢
笤
符
笨
笩
第
笭
笱
笲
笴
笵
笺
笻
笼
笾
笿
筁
筅
筆
等
筋
筏
筐
筑
筒
答
策
筘
筛
筜
筝
筠
筦
筮
筱
筲
筴
筵
筷
筹
筻
筼
筽
签
筿
简
箅
箍
箔
箕
算
箜
箝
管
箦
箧
箨
箩
箫
箭
箱
箴
箸
節
篁
範
篅
篆
篇
築
篌
篑
篓
篙
篝
篡
篤
篦
篪
篮
篱
篷
篾
簀
簇
簈
簌
簕
簘
簜
簟
簡
簧
簪
簫
簸
簽
簿
籀
籁
籃
籊
籌
籍
籐
籟
籠
米
籴
籵
籹
类
籼
籽
粄
粉
粑
粒
粕
粗
粘
粟
粤
粥
粧
粪
粮
粱
粲
粳
粹
粻
粼
粽
精
粿
糁
糃
糅
糊
糌
糍
糑
糕
糖
糗
糙
糜
糞
糟
糠
糨
糬
糯
糵
糷
糸
系
糾
紀
約
紅
紆
紇
紈
紊
紋
納
紐
純
紙
級
素
索
紦
紧
紫
紮
累
細
紹
紿
終
絃
組
絋
結
絔
絕
絘
絞
絡
給
絬
絮
統
絲
絵
絿
綁
綄
經
継
綜
綞
綟
綠
綢
綦
維
綮
網
綴
綷
綼
綾
緊
緋
緍
緑
緒
緓
線
緝
緞
締
緣
編
緩
緫
練
縂
縛
縣
縤
縫
縮
縱
縳
縷
總
績
繁
繄
繇
織
繙
繞
繦
繧
繪
繫
繰
繳
繷
繻
繼
纂
續
纖
纠
纡
红
纣
纤
纥
约
级
纨
纪
纫
纬
纭
纯
纰
纱
纲
纳
纵
纶
纷
纸
纹
纺
纽
纾
线
绀
练
组
绅
细
织
终
绉
绊
绋
绌
绍
绎
经
绐
绑
绒
结
绔
绕
绗
绘
给
绚
绛
络
绝
绞
统
绡
绢
绣
绥
绦
继
绨
绩
绪
绫
续
绮
绯
绰
绳
维
绵
绶
绷
绸
绺
绻
综
绽
绾
绿
缀
缁
缂
缃
缄
缅
缆
缇
缈
缉
缋
缌
缍
缎
缏
缐
缒
缓
缔
缕
编
缗
缘
缙
缚
缛
缜
缝
缟
缠
缡
缢
缣
缤
缥
缦
缧
缨
缩
缪
缫
缬
缭
缮
缯
缰
缱
缳
缴
缵
缶
缷
缸
缺
罁
罂
罄
罅
罇
罊
罋
罏
罐
网
罔
罕
罖
罗
罘
罙
罚
罟
罡
罢
罣
罤
罨
罩
罪
罫
罭
置
罰
署
罴
罵
罷
罸
罹
罺
罻
罽
罾
罿
羁
羂
羅
羇
羈
羉
羊
羌
美
羏
羑
羒
羓
羔
羕
羘
羙
羚
羛
羜
羝
羞
羟
羡
群
羧
義
羫
羬
羭
羮
羯
羰
羲
羳
羶
羷
羸
羹
羽
羾
羿
翀
翁
翃
翅
翉
翊
翋
翌
翎
翑
習
翓
翔
翕
翘
翚
翛
翜
翞
翟
翠
翡
翣
翤
翥
翦
翩
翮
翯
翰
翱
翳
翴
翹
翺
翻
翼
耀
老
考
耄
者
耆
耋
而
耍
耐
耒
耕
耗
耘
耙
耜
耞
耥
耦
耧
耳
耶
耷
耸
耻
耽
耿
聂
聃
聆
聊
聋
职
聍
聒
联
聕
聖
聘
聚
聞
聤
聩
聪
聯
聰
聲
職
聼
聽
聿
肀
肃
肄
肅
肆
肇
肉
肋
肌
肏
肓
肖
肘
肚
肛
肜
肝
肟
肠
股
肢
肤
肥
肩
肪
肫
肮
肯
肱
育
肴
肺
肼
肽
肾
肿
胀
胁
胂
胃
胄
胆
胊
背
胍
胎
胔
胖
胗
胚
胛
胜
胝
胞
胡
胣
胤
胥
胧
胨
胩
胪
胫
胬
胭
胯
胰
胱
胳
胴
胶
胸
胺
胼
能
脂
脄
脅
脆
脇
脈
脉
脊
脋
脍
脏
脐
脑
脒
脓
脔
脕
脖
脘
脚
脢
脣
脤
脩
脫
脯
脰
脱
脲
脷
脸
脹
脾
腀
腃
腆
腈
腊
腋
腌
腍
腐
腑
腓
腔
腕
腘
腙
腥
腦
腧
腩
腫
腭
腮
腰
腱
腳
腴
腶
腸
腹
腺
腻
腼
腾
腿
膀
膂
膈
膊
膏
膑
膘
膛
膜
膝
膞
膟
膠
膦
膨
膳
膹
膺
膻
膽
臀
臂
臃
臆
臉
臊
臌
臓
臘
臟
臣
臥
臧
臨
臩
自
臬
臭
至
致
臸
臺
臻
臼
臾
舀
舂
舄
舅
舆
興
舉
舊
舌
舍
舐
舒
舔
舖
舛
舜
舞
舟
舢
舧
舨
航
舫
般
舭
舯
舰
舱
舴
舵
舶
舷
船
舺
舾
舿
艄
艇
艉
艋
艏
艘
艙
艦
艮
良
艰
艱
色
艳
艹
艺
艽
艾
艿
芀
节
芃
芄
芈
芊
芋
芍
芎
芒
芘
芙
芛
芜
芝
芞
芠
芡
芥
芦
芨
芩
芪
芫
芬
芭
芮
芯
芰
花
芳
芴
芷
芸
芹
芺
芽
芾
苀
苁
苄
苇
苊
苋
苌
苍
苎
苏
苑
苒
苓
苔
苕
苗
苚
苛
苜
苝
苞
苟
苡
苣
苤
若
苦
苯
英
苷
苹
苺
苻
茁
茂
范
茄
茅
茉
茍
茎
茏
茔
茕
茗
茚
茛
茜
茧
茨
茫
茬
茭
茯
茱
茲
茴
茵
茶
茸
茹
茺
茼
荀
荃
荆
荇
草
荏
荐
荑
荒
荔
荖
荚
荛
荜
荞
荟
荠
荡
荣
荤
荥
荦
荧
荨
荪
荫
药
荷
荸
荻
荼
荽
荾
莂
莅
莆
莉
莊
莎
莒
莓
莘
莞
莠
莨
莪
莫
莰
莱
莲
莳
莴
莶
获
莹
莺
莼
莽
菀
菁
菂
菃
菅
菇
菈
菊
菌
菏
菓
菔
菖
菘
菜
菝
菟
菠
菡
菥
菩
菪
華
菰
菱
菲
菸
萁
萃
萄
萊
萋
萌
萍
萎
萘
萜
萝
萤
营
萦
萧
萨
萩
萬
萰
萱
萸
萼
落
萿
葆
葉
葌
著
葙
葚
葛
葜
葝
葡
董
葩
葫
葬
葭
葱
葳
葵
葶
葸
葺
蒂
蒄
蒈
蒉
蒋
蒌
蒎
蒐
蒗
蒙
蒜
蒟
蒡
蒭
蒯
蒲
蒴
蒸
蒺
蒻
蒽
蒿
蓁
蓂
蓄
蓉
蓊
蓋
蓍
蓑
蓓
蓔
蓖
蓝
蓟
蓣
蓥
蓦
蓬
蓮
蓿
蔑
蔓
蔗
蔚
蔡
蔫
蔬
蔭
蔷
蔸
蔺
蔻
蔼
蔽
蕃
蕈
蕉
蕊
蕖
蕙
蕞
蕨
蕩
蕯
蕲
蕴
蕺
蕻
蕾
薁
薄
薇
薏
薙
薛
薜
薦
薨
薩
薪
薮
薯
薰
薳
薹
藁
藉
藍
藏
藐
藓
藕
藜
藝
藤
藥
藦
藩
藻
藿
蘅
蘇
蘊
蘑
蘖
蘘
蘭
蘸
蘼
蘿
虎
虏
虐
虑
虔
處
虚
虛
虜
虞
號
虫
虬
虱
虳
虴
虹
虺
虻
虼
虽
虾
虿
蚀
蚁
蚂
蚃
蚊
蚋
蚌
蚓
蚔
蚕
蚗
蚚
蚜
蚝
蚣
蚤
蚧
蚩
蚪
蚬
蚯
蚰
蚱
蚳
蚴
蚵
蚶
蚺
蚾
蛀
蛁
蛄
蛆
蛇
蛉
蛊
蛋
蛎
蛏
蛐
蛔
蛙
蛛
蛞
蛟
蛤
蛭
蛮
蛰
蛱
蛲
蛴
蛸
蛹
蛾
蜀
蜂
蜃
蜇
蜈
蜉
蜊
蜍
蜒
蜓
蜕
蜗
蜘
蜚
蜜
蜡
蜢
蜣
蜥
蜰
蜱
蜴
蜷
蜻
蜿
蝇
蝈
蝉
蝌
蝍
蝎
蝓
蝕
蝗
蝙
蝚
蝠
蝣
蝥
蝦
蝨
蝮
蝰
蝴
蝶
蝻
蝼
蝽
蝾
螁
螂
螃
螅
螈
螉
螌
融
螒
螚
螛
螝
螞
螟
螠
螢
螤
螨
螫
螬
螭
螯
螳
螺
螽
蟀
蟆
蟋
蟑
蟒
蟠
蟥
蟮
蟲
蟹
蟺
蟻
蟼
蟽
蟾
蟿
蠀
蠂
蠅
蠈
蠉
蠊
蠋
蠍
蠓
蠔
蠕
蠖
蠡
蠢
蠲
蠵
蠹
血
衄
衅
行
衍
術
衔
街
衙
衛
衝
衞
衡
衢
衣
补
表
衩
衪
衫
衬
衭
衮
衰
衲
衵
衷
衹
衾
袁
袂
袄
袅
袈
袋
袍
袐
袒
袓
袖
袗
袛
袜
袢
袤
被
袭
袮
袱
裁
裂
装
裆
裇
裋
裏
裑
裒
裔
裕
裘
裙
補
裝
裟
裡
裤
裥
裨
裰
裱
裲
裳
裴
裸
裹
製
裾
褂
褊
褐
褒
褓
褔
褙
褚
褛
褡
褥
褦
褪
褫
褲
褴
褶
褻
襁
襃
襄
襌
襞
襟
襪
襲
襻
西
要
覂
覃
覆
見
規
覓
視
覚
覜
覧
親
覺
覽
觀
见
观
规
觅
视
觇
览
觉
觊
觋
觌
觎
觏
觐
觑
角
觔
觚
觜
觞
解
觥
触
觫
觯
觳
觸
言
訂
訇
計
訊
討
訓
託
記
訞
訧
訪
設
許
訴
診
註
証
訽
訾
詐
評
詛
詞
詢
詣
試
詩
詪
詫
詭
話
該
詳
詹
誅
誉
誊
誌
認
誏
誑
誓
誕
語
誠
誤
誦
誧
誨
説
誰
課
誹
誼
調
諀
談
請
論
諟
諡
諮
諷
諸
諾
謀
謂
謇
謗
謙
講
謝
謢
謬
謹
證
識
譜
警
譫
譬
議
譲
譴
護
譽
讀
讃
讉
變
讓
讚
计
订
讣
认
讥
讦
讧
讨
让
讪
讫
讬
训
议
讯
记
讲
讳
讴
讶
讷
许
讹
论
讼
讽
设
访
诀
证
诂
诃
评
诅
识
诈
诉
诊
诋
诌
词
诏
译
诒
诓
诔
试
诗
诘
诙
诚
诛
诜
话
诞
诟
诠
诡
询
诣
该
详
诧
诨
诩
诪
诫
诬
语
诮
误
诰
诱
诲
诳
说
诵
诶
请
诸
诺
读
诽
课
诿
谀
谁
谂
调
谄
谅
谆
谈
谊
谋
谌
谍
谎
谏
谐
谑
谒
谓
谔
谕
谗
谘
谙
谚
谛
谜
谟
谢
谣
谤
谥
谦
谧
谨
谩
谪
谬
谭
谯
谰
谱
谲
谴
谵
谶
谷
豁
豆
豇
豈
豉
豋
豌
豐
豔
豕
豚
象
豢
豨
豪
豫
豬
豸
豹
豺
豻
豿
貂
貅
貉
貌
貍
貓
貔
貘
貝
貞
負
財
貢
貧
貨
販
貫
責
貭
貴
買
貸
費
貼
貿
賀
資
賈
賓
賜
賞
賠
賢
賣
賥
賦
質
賬
賭
賴
賸
賺
購
賽
贊
贏
贖
贝
贞
负
贡
财
责
贤
败
账
货
质
贩
贪
贫
贬
购
贮
贯
贰
贱
贲
贴
贵
贶
贷
贸
费
贺
贻
贼
贽
贾
贿
赀
赁
赂
赃
资
赅
赈
赉
赊
赋
赌
赎
赏
赐
赑
赒
赓
赔
赖
赘
赚
赛
赜
赝
赞
赠
赡
赢
赣
赤
赦
赧
赫
赭
走
赳
赴
赵
赶
起
赻
赽
趁
趄
超
越
趋
趑
趔
趕
趟
趣
趨
足
趴
趵
趸
趺
趼
趾
趿
跃
跄
跆
跋
跌
跎
跏
跐
跑
跖
跗
跘
跚
跛
距
跞
跟
跡
跣
跤
跥
跦
跨
跩
跪
路
跳
践
跶
跷
跹
跺
跻
踀
踉
踊
踌
踏
踐
踝
踞
踟
踢
踨
踩
踪
踮
踯
踰
踱
踵
踹
踽
蹀
蹁
蹂
蹄
蹇
蹈
蹉
蹊
蹋
蹑
蹒
蹙
蹚
蹟
蹤
蹦
蹩
蹬
蹭
蹯
蹰
蹲
蹴
蹶
蹼
蹿
躁
躅
躇
躍
躏
躝
躞
身
躬
躯
躲
躶
躹
躺
車
軌
軍
軚
軟
軮
軸
較
載
輒
輔
輕
輙
輛
輝
輩
輪
輯
輸
輻
轄
轉
轍
轕
轟
车
轧
轨
轩
轫
转
轭
轮
软
轰
轱
轲
轳
轴
轶
轸
轻
轼
载
轾
轿
辂
较
辄
辅
辆
辇
辈
辉
辊
辋
辍
辐
辑
输
辔
辕
辖
辗
辘
辙
辚
辛
辜
辞
辟
辣
辦
辨
辩
辫
辭
辮
辯
辰
辱
農
边
辺
辽
达
迁
迂
迄
迅
过
迈
迎
运
近
迓
返
还
这
进
远
违
连
迟
迠
迡
迢
迤
迥
迦
迩
迪
迫
迭
述
迳
迴
迵
迷
迸
迹
迺
追
退
送
适
逃
逄
逅
逆
选
逊
逋
逍
逎
透
逐
逑
递
途
逖
逗
通
逛
逝
逞
速
造
逡
逢
連
逦
逨
逮
週
逵
逶
逸
逹
逻
逼
逾
遁
遂
遄
遇
遊
運
遍
過
遏
遐
遑
遒
道
達
違
遗
遘
遙
遛
遜
遞
遟
遠
遢
遣
遥
遨
適
遭
遮
遯
遲
遴
遵
遷
選
遺
遽
避
邀
邁
邂
邃
還
邈
邉
邊
邋
邏
邑
邓
邕
邛
邝
邡
邢
那
邦
邪
邬
邮
邯
邰
邱
邵
邸
邹
邺
邻
邽
郁
郇
郊
郎
郑
郔
郗
郝
郞
郡
郢
郤
郥
郦
郧
部
郪
郭
郯
郴
郵
郷
郸
都
郾
鄂
鄄
鄉
鄙
鄞
鄢
鄧
鄯
鄰
鄱
酃
酉
酊
酋
酌
配
酎
酏
酐
酒
酕
酗
酘
酚
酝
酞
酡
酢
酣
酥
酦
酩
酪
酬
酮
酯
酰
酱
酵
酶
酷
酸
酹
酽
酿
醅
醇
醉
醋
醌
醍
醐
醑
醒
醚
醛
醢
醣
醪
醫
醬
醮
醯
醴
醺
釀
釆
采
釉
释
釋
里
重
野
量
釐
金
釘
釜
針
釣
釬
釴
鈍
鈔
鈾
鉀
鉄
鉆
鉑
鉓
鉛
鉨
鉴
銀
銅
銡
銮
銷
銹
鋂
鋪
鋰
鋼
錄
錘
錞
錢
錦
錫
錯
錾
鍊
鍵
鍾
鎊
鎏
鎔
鎖
鎘
鎚
鎮
鏈
鏊
鏖
鏘
鏡
鏢
鏣
鏻
鐘
鐡
鐵
鐽
鑑
鑫
鑰
鑽
鑿
钆
钇
针
钉
钊
钋
钌
钍
钎
钏
钐
钒
钓
钕
钗
钙
钚
钛
钜
钝
钞
钟
钠
钡
钢
钣
钤
钥
钦
钧
钨
钩
钪
钫
钬
钭
钮
钯
钰
钱
钳
钴
钵
钶
钷
钸
钹
钺
钻
钼
钽
钾
铀
铁
铂
铃
铄
铅
铆
铇
铈
铉
铊
铋
铌
铍
铎
铏
铐
铑
铒
铓
铕
铛
铜
铝
铟
铠
铡
铢
铣
铤
铥
铧
铨
铩
铪
铬
铭
铮
铯
铰
铱
铲
铳
铵
银
铷
铸
铹
铺
铼
铽
链
铿
销
锁
锂
锃
锄
锅
锆
锇
锈
锉
锋
锌
锎
锏
锐
锑
锒
锔
锕
锗
错
锚
锛
锜
锝
锟
锠
锡
锢
锣
锤
锥
锦
锨
锭
键
锯
锰
锱
锲
锴
锵
锶
锷
锹
锺
锻
镀
镁
镂
镇
镉
镊
镌
镍
镎
镏
镐
镑
镓
镔
镕
镖
镗
镘
镛
镜
镝
镟
镡
镢
镣
镤
镥
镦
镧
镨
镫
镬
镭
镮
镯
镰
镱
镲
镳
镴
镶
長
镼
长
閃
閉
閒
間
閕
閘
閙
関
閣
闆
闕
闖
闘
门
闩
闪
闫
闭
问
闯
闰
闲
闳
间
闵
闷
闸
闹
闺
闻
闼
闽
闾
阀
阁
阂
阄
阅
阆
阇
阈
阉
阊
阋
阍
阎
阐
阑
阒
阔
阕
阖
阗
阙
阜
队
阡
阪
阬
阮
阰
阱
防
阳
阴
阵
阶
阻
阿
陀
陂
附
际
陆
陇
陈
陉
陋
陌
降
限
陑
陓
陔
陕
陛
陡
院
陣
除
陨
险
陪
陫
陬
陰
陲
陳
陵
陶
陷
陸
陽
隃
隅
隆
隈
隊
隋
隍
階
随
隐
隔
隕
隗
隘
隙
際
障
隠
隧
隨
險
隱
隳
隶
隸
隻
隼
隽
难
雀
雁
雃
雄
雅
集
雇
雉
雌
雍
雎
雏
雒
雕
雖
雙
雚
雞
雠
離
難
雦
雨
雪
雯
雲
雳
零
雷
雹
電
雾
需
霁
霄
霆
震
霈
霉
霍
霎
霏
霓
霖
霚
霜
霞
霧
霭
霰
露
霸
霹
霾
靈
靑
青
靓
靖
静
靛
靜
非
靠
靡
面
靣
靥
革
靳
靴
靶
靺
靼
靿
鞅
鞋
鞍
鞑
鞘
鞠
鞣
鞥
鞧
鞨
鞭
鞯
韋
韌
韓
韡
韦
韧
韩
韪
韫
韬
韭
音
韵
韶
響
頂
頃
項
順
須
頌
預
頓
頗
領
頫
頬
頭
頰
頸
頻
頼
顆
題
額
顎
顏
顔
願
顚
類
顧
顯
顱
页
顶
顷
顸
项
顺
须
顼
顽
顾
顿
颀
颁
颂
预
颅
领
颇
颈
颉
颊
颌
颍
颏
颐
频
颓
颔
颖
颗
题
颚
颜
额
颞
颟
颠
颡
颢
颤
颦
颧
風
颱
飄
风
飏
飑
飒
飓
飔
飕
飘
飙
飚
飛
飞
食
飢
飧
飨
飪
飯
飲
飾
餂
餅
餉
養
餍
餐
餓
餘
餠
餡
館
餮
餵
饑
饒
饔
饕
饥
饨
饪
饫
饬
饭
饮
饯
饰
饱
饲
饴
饵
饶
饷
饺
饼
饽
饿
馀
馁
馃
馄
馅
馆
馈
馉
馊
馋
馍
馏
馐
馑
馒
馓
馔
馕
首
馗
香
馥
馨
馬
駁
駐
駕
駝
駭
駱
騎
騙
騷
騾
驃
驅
驒
驗
驚
马
驭
驮
驯
驰
驱
驳
驴
驶
驷
驸
驹
驻
驼
驽
驾
驿
骀
骁
骂
骃
骄
骅
骆
骇
骈
骊
骋
验
骏
骐
骑
骒
骓
骗
骘
骚
骛
骜
骝
骞
骟
骠
骡
骢
骤
骥
骨
骰
骶
骷
骸
骹
骺
骼
骿
髀
髁
髂
髅
髈
髋
髌
髎
髑
髓
體
高
髙
髡
髣
髦
髪
髭
髮
髯
髷
髹
髻
鬃
鬆
鬈
鬍
鬓
鬟
鬣
鬥
鬭
鬱
鬻
鬼
魀
魁
魂
魄
魅
魆
魇
魉
魍
魏
魑
魔
魚
魜
魟
魣
魯
鮑
鮩
鮫
鮭
鮻
鯈
鯊
鯥
鯨
鰆
鰓
鰕
鰩
鱼
鱿
鲀
鲁
鲂
鲅
鲆
鲇
鲈
鲉
鲊
鲍
鲎
鲐
鲑
鲔
鲕
鲛
鲜
鲟
鲠
鲡
鲢
鲣
鲤
鲥
鲦
鲨
鲩
鲫
鲭
鲮
鲱
鲲
鲳
鲵
鲶
鲷
鲸
鲹
鲻
鲼
鲽
鳀
鳃
鳄
鳅
鳉
鳊
鳌
鳍
鳎
鳏
鳐
鳓
鳔
鳕
鳖
鳗
鳙
鳜
鳝
鳞
鳟
鳢
鳥
鳦
鳯
鳴
鴃
鴆
鴠
鴩
鴻
鵝
鵾
鶠
鷧
鷹
鸌
鸟
鸠
鸡
鸢
鸣
鸥
鸦
鸨
鸩
鸪
鸫
鸬
鸭
鸮
鸯
鸱
鸲
鸳
鸵
鸶
鸷
鸸
鸹
鸺
鸻
鸽
鸾
鸿
鹀
鹂
鹃
鹄
鹅
鹈
鹉
鹊
鹋
鹌
鹎
鹏
鹑
鹕
鹗
鹘
鹚
鹜
鹞
鹟
鹣
鹤
鹦
鹧
鹨
鹩
鹪
鹫
鹬
鹭
鹮
鹰
鹱
鹳
鹽
鹿
麂
麇
麈
麋
麒
麓
麗
麝
麟
麥
麦
麳
麴
麵
麸
麻
麼
麽
麾
麿
黃
黄
黉
黍
黎
黏
黑
黒
黔
默
黙
黛
黜
黝
點
黟
黠
黢
黥
黧
黨
黩
黯
黴
黾
鼎
鼐
鼓
鼠
鼢
鼩
鼬
鼯
鼱
鼷
鼹
鼻
鼾
齊
齐
齒
齡
齣
齿
龃
龄
龅
龇
龈
龉
龊
龋
龌
龍
龐
龙
龚
龛
龜
龟
鿫
鿭
ꄘ
ꇕ
ꗔ
ꚭ
ꞑ
ꠈ
가
간
갈
같
겠
겹
계
고
곱
공
관
구
국
그
귿
기
김
까
께
나
냉
네
넷
녁
녕
노
는
니
다
닫
달
당
덟
데
도
동
둘
드
디
때
래
럼
륈
를
리
릿
마
만
맛
매
먹
면
몇
무
바
밥
배
백
베
보
볼
봐
부
분
불
비
빔
빛
빠
뻐
살
삼
샤
서
섯
세
셋
셔
스
슨
습
시
식
심
십
아
안
어
엇
에
여
열
영
예
오
옷
와
요
우
운
워
원
유
으
을
음
이
인
일
읽
있
장
저
전
점
제
조
좋
주
즘
지
집
차
책
천
치
친
침
커
크
클
탕
턈
터
톈
파
포
피
하
한
함
해
행
호
홉
화
황
히
更
車
串
句
金
奈
羅
樂
落
蘭
藍
拉
來
老
路
露
綠
錄
論
壘
樓
菱
讀
諾
率
異
便
復
不
數
索
參
葉
說
沈
若
略
兩
良
量
女
旅
力
歷
年
練
聯
蓮
連
列
裂
廉
念
令
靈
領
例
惡
了
料
療
阮
流
留
類
六
陸
輪
律
隆
利
易
梨
理
裡
離
林
臨
立
狀
識
什
茶
切
度
行
降
見
益
神
福
都
館
器
ﬁ
ﬂ
️
︠
︡
︰
︱
︸
︹
︺
︽
︾
﹁
﹄
﹊
﹍
﹐
﹑
﹒
﹔
﹕
﹖
﹗
﹚
﹛
﹜
﹝
﹞
﹡
﹣
！
＂
＃
＄
％
＆
＇
（
）
＊
＋
，
－
．
／
０
１
２
３
４
５
６
７
８
９
：
；
＜
＝
＞
？
＠
Ａ
Ｂ
Ｄ
Ｅ
Ｆ
Ｈ
Ｉ
Ｍ
Ｎ
Ｏ
Ｐ
Ｒ
Ｓ
Ｔ
Ｖ
Ｗ
Ｘ
［
＼
］
＿
ａ
ｂ
ｄ
ｅ
ｇ
ｈ
ｉ
ｋ
ｌ
ｍ
ｎ
ｏ
ｐ
ｒ
ｓ
ｔ
ｖ
ｗ
ｘ
｜
～
｡
｢
｣
､
･
￠
￡
￣
￥
￭
￼
𐊆
𐊍
𐊎
𐊐
𐊕
𐊗
𐌀
𐌄
𐌉
𐌓
𐌕
𐎡
𐎫
𐎳
𐎺
𐎼
𐏁
𐨀
𐨁
𐨩
𐨫
𐨮
𒆪
𒊩
𝔓
🌀
🌎
🏎
👕
👻
💅
💡
💩
😀
😉
😜
😭
😱
🙂
🙋
🚀
🚨
🤗
🤦
🤯
🧨
🧱
🪆
𠮶
𣬠
𣬶
𣸨
𦈌
𨅬
𪨶
𫐖
𫖮
𫚉
𫚕
𫛭
𫟼
𫠒
𫪁
𫫇
𬀩
𬀪
𬒈
𬘡
𬣙
𬤊
𬬩
𬬮
𬭊
𬭩
𬭸
𬮤
𬶋
𬶨
󠄆
##r
##i
##n
##t
##C
##h
##e
##c
##k
##s
##0
##6
##1
##7
##4
##9
##3
##o
##ß
##b
##a
##d
##g
##m
##v
##l
##5
##8
##q
##u
##A
##M
##2
##f
##y
##O
##p
##U
##S
##T
##z
##x
##G
##D
##w
##B
##H
##R
##F
##I
##P
##j
##V
##é
##š
##ĭ
##L
##～
##Z
##N
##E
##è
##X
##Y
##Q
##ć
##K
##½
##×
##í
##W
##Ö
##Ü
##Ş
##Ə
##ἰ
##ν
##ι
##ᾶ
##ε
##ς
##ɾ
##°
##ü
##á
##ø
##ô
##²
##î
##ː
##③
##④
##⑤
##ị
##ţ
##â
##€
##न
##्
##द
##ㄜ
##J
##™
##①
##ل
##ى
##व
##ा
##ब
##ग
##ञ
##ज
##ˈ
##ř
##─
##ó
##ý
##ú
##Â
##¬
##️
##ö
##−
##Á
##ɖ
##ο
##동
##원
##ɛ
##ʁ
##ɔ
##θ
##ʌ
##ə
##ä
##ʊ
##ê
##ㄨ
##ņ
##ë
##γ
##ί
##α
##å
##ŋ
##⁄
##£
##μ
##ッ
##ド
##ș
##℃
##み
##¦
##ὐ
##면
##하
##나
##주
##세
##요
##ð
##δ
##ō
##이
##클
##ʻ
##ရ
##ု
##တ
##်
##န
##း
##１
##Ｎ
##č
##ı
##ã
##ी
##û
##→
##ố
##ʒ
##æ
##ī
##à
##＄
##어
##ぐ
##ò
##´
##ず
##ま
##ā
##ñ
##ç
##ե
##բ
##ո
##ս
##ƒ
##¼
##π
##ρ
##χ
##ő
##ά
##σ
##ω
##ز
##د
##ی
##ک
##ِ
##ب
##ْ
##ـ
##ر
##َ
##ا
##ه
##ي
##م
##έ
##⑧
##ɪ
##ē
##ṭ
##ū
##®
##ş
##פ
##ו
##⠆
##ḵ
##̱
##Τ
##र
##ि
##प
##थ
##⑴
##ɑ
##ח
##ש
##ך
##ỳ
##∶
##ش
##ت
##İ
##в
##д
##е
##빛
##샤
##워
##Ⅰ
##о
##ш
##л
##а
##н
##и
##도
##마
##셔
##ن
##ǐ
##ǎ
##º
##ะ
##ส
##า
##ù
##Ã
##©
##ł
##¨
##̯
##ɕ
##ɐ
##ɒ
##ề
##다
##ụ
##ï
##É
##ע
##ר
##을
##까
##С
##ら
##𐌉
##い
##ń
##식
##υ
##τ
##ό
##ė
##ａ
##０
##¥
##Š
##∈
##ư
##ơ
##ď
##ʃ
##מ
##י
##ɥ
##ד
##화
##를
##ă
##ㄆ
##ύ
##φ
##ָ
##ֹ
##ן
##キ
##≤
##ת
##ˉ
##˧
##の
##ユ
##̥
##ʰ
##ʔ
##т
##с
##Ä
##õ
##ǒ
##ę
##́
##ή
##ג
##λ
##κ
##œ
##영
##호
##９
##７
##３
##４
##５
##る
##ž
##だ
##ち
##ှ
##ပ
##ဖ
##ိ
##ɯ
##∪
##ˊ
##섯
##ɡ
##ὶ
##η
##⑦
##ㄓ
##ɣ
##ʉ
##ẽ
##〇
##̃
##ğ
##ż
##♪
##👕
##و
##６
##м
##з
##к
##Ć
##２
##ა
##რ
##გ
##ი
##⁰
##아
##⠐
##⠮
##㍘
##ŭ
##께
##한
##ś
##℉
##ー
##ệ
##ì
##ु
##ं
##त
##þ
##⠂
##ټ
##ℓ
##נ
##א
##ם
##ῶ
##지
##만
##고
##기
##가
##у
##р
##８
##п
##̪
##Λ
##ŏ
##⠗
##ą
##Ａ
##つ
##か
##ḥ
##ㄗ
##³
##계
##탕
##맛
##때
##ķ
##ി
##ക
##്
##■
##엇
##크
##릿
##ㄛ
##β
##분
##에
##ွ
##လ
##ေ
##့
##̹
##Ⅱ
##ě
##⠖
##ㄘ
##ա
##տ
##մ
##ի
##չ
##∗
##ʀ
##ṛ
##أ
##な
##ิ
##น
##ท
##ร
##โ
##ก
##ม
##ล
##ย
##์
##ุ
##ต
##¹
##ʼ
##レ
##シ
##フ
##ў
##¾
##Ó
##ִ
##ּ
##ק
##͠
##□
##ج
##ۃ
##り
##と
##も
##ы
##й
##￣
##▷
##ف
##ȍ
##ȁ
##국
##ʿ
##อ
##ซ
##ɱ
##լ
##ք
##ն
##｜
##＋
##µ
##เ
##ื
##ง
##ậ
##ч
##ฟ
##ַ
##ְ
##ה
##✌
##✨
##թ
##ը
##ր
##부
##여
##ૂ
##う
##㎝
##해
##ല
##യ
##ാ
##ള
##ം
##エ
##ص
##ح
##バ
##녕
##ぱ
##┮
##ŵ
##구
##무
##좋
##Ｔ
##Ｏ
##터
##베
##스
##＜
##ห
##ว
##ั
##ค
##○
##⠱
##♥
##ט
##צ
##す
##심
##드
##ζ
##⅓
##⑥
##빔
##밥
##ל
##௸
##͜
##＞
##Ｅ
##Ｆ
##დ
##म
##ो
##घ
##भ
##ू
##ल
##̚
##ւ
##¢
##♭
##็
##ข
##่
##้
##ไ
##ｋ
##ｍ
##ס
##ב
##ʷ
##ી
##𐎼
##𐎺
##𐎫
##𐎡
##𐏁
##ώ
##უ
##ნ
##თ
##შ
##ვ
##ლ
##럼
##같
##먹
##히
##노
##래
##Α
##ˌ
##∂
##タ
##ṣ
##𒆪
##כ
##ả
##♣
##Ζ
##Ι
##Σ
##Ο
##Υ
##ё
##̮
##Ð
##よ
##ひ
##で
##♬
##ɲ
##ネ
##チ
##カ
##ọ
##ț
##♦
##ξ
##᾽
##리
##운
##ै
##य
##づ
##き
##ុ
##ិ
##ន
##ធ
##ើ
##ណ
##េ
##ស
##ល
##±
##¸
##റ
##വ
##˥
##˦
##⠔
##ʋ
##⠒
##√
##К
##￥
##ª
##∞
##ĥ
##ῦ
##＝
##ɨ
##Ⓥ
##☭
##셋
##ɜ
##ゅ
##바
##빠
##Ā
##◇
##간
##Ĵ
##∑
##피
##슨
##ṇ
##ｒ
##ぇ
##⑵
##♠
##ة
##Ç
##ノ
##♫
##⠄
##몇
##시
##집
##와
##▲
##̓
##⠲
##ế
##┯
##ʂ
##⠶
##☉
##친
##있
##ʲ
##침
##ὰ
##ÿ
##ɦ
##स
##ḡ
##ण
##ΐ
##ミ
##ტ
##श
##백
##₁
##₂
##녁
##ำ
##제
##갈
##Б
##М
##┪
##イ
##장
##겠
##습
##니
##음
##ˆ
##ェ
##゜
##្
##ប
##ៈ
##ខ
##ា
##ង
##វ
##ម
##ហ
##ូ
##ែ
##រ
##̺
##̼
##열
##홉
##΄
##⋅
##ﬂ
##ʱ
##♯
##Η
##ด
##곱
##⠛
##ช
##ญ
##ф
##겹
##살
##հ
##յ
##է
##ध
##조
##당
##ầ
##क
##ж
##ễ
##ộ
##⋂
##س
##ハ
##ム
##ʏ
##▮
##∇
##귿
##ꞑ
##⦵
##я
##ň
##ھ
##ば
##さ
##덟
##ז
##는
##서
##관
##공
##🤗
##옷
##즘
##유
##행
##Å
##ី
##Ñ
##ぜ
##が
##ത
##ന
##ര
##െ
##ũ
##ғ
##̠
##ʡ
##˘
##보
##⠴
##⠦
##예
##뻐
##দ
##্
##র
##ল
##ো
##ক
##십
##오
##г
##៊
##ឡ
##ញ
##บ
##ี
##げ
##お
##ħ
##ゐ
##こ
##ャ
##パ
##ン
##Í
##ồ
##ケ
##б
##ع
##점
##ぃ
##Δ
##ㄇ
##セ
##˨
##˩
##⠼
##┶
##ṙ
##ｔ
##ｅ
##ｘ
##Ｉ
##∨
##◆
##ガ
##ロ
##じ
##︠
##︡
##𐌄
##ん
##に
##は
##치
##ấ
##Ω
##ċ
##く
##び
##∧
##으
##𐊕
##𐊐
##𐊎
##𐊆
##𐊍
##⊇
##غ
##À
##ứ
##ớ
##̩
##𐨩
##𐨁
##𐨫
##𐨮
##일
##인
##₇
##봐
##ㄠ
##둘
##ダ
##ヒ
##ّ
##ֶ
##ׁ
##П
##У
##⠢
##ź
##̬
##ฤ
##ĩ
##ष
##ट
##ૃ
##ạ
##ῖ
##グ
##ビ
##파
##ʝ
##⋯
##he
##in
##er
the
##on
##en
##at
##ing
##es
##or
##an
to
##ed
##ion
##al
in
##ar
##ou
##it
##el
an
of
##re
##is
##as
##ent
##ro
##ic
##ation
##le
and
##ra
##ec
##et
th
##od
##ce
is
##om
##ur
##il
##ut
##st
##id
tra
be
st
##ining
training
##un
re
##ve
The
##ly
##ter
##ken
##ot
##ch
##ow
##ay
for
token
##ig
on
##se
con
In
mod
##am
##for
it
##ver
##ran
##ck
##ab
model
##ear
##ol
##ct
##ul
##ess
##im
pro
##ate
##po
##ith
that
##rans
##ad
with
##ir
you
run
##ge
ex
##ld
##ect
##ment
##ence
##int
##iz
can
al
de
lo
che
##ers
at
##ss
com
ma
##her
check
##ity
are
##ri
##ill
ne
en
##form
##ould
##est
sh
us
##earn
##em
wh
learn
##op
##ine
was
##point
as
su
##hen
val
##ap
checkpoint
se
##able
##ke
not
##pl
##igh
##if
##out
##ist
valid
##oun
##ort
##rom
validation
##fer
##ies
un
trans
##ding
learning
or
##ave
##uring
##qu
##ure
from
##ant
##um
wor
##00
##all
dat
##us
im
during
af
##ive
##iv
##th
we
##ain
have
Trans
cont
me
##and
transl
##our
##ust
pre
by
##former
this
ch
Transformer
##age
te
##gh
##ong
translation
##ome
##ight
sp
pr
##are
##ore
##ial
##xt
##end
##fore
comp
when
##ep
out
##cess
##ip
may
do
loss
##art
ad
rep
##per
##ual
##pro
he
will
after
##ough
##ry
has
att
##put
em
before
Ch
##ions
res
so
ab
cl
##ical
##ference
For
data
over
##ther
##ated
inc
##av
##ere
##rop
##ell
##ac
##ention
cle
##og
bec
##ations
##ud
##enc
##der
but
##pt
go
19
##au
dec
##ful
hel
##ds
inference
all
le
##du
##ish
tokens
pl
##ang
##oder
rate
rel
more
##ener
##ast
man
po
Th
##vel
uses
they
int
help
rec
##ile
##ance
##ie
no
ac
attention
##ous
##ult
Chin
##ass
one
sy
exam
gener
##ru
per
ar
##bed
sel
##ok
should
##ause
##ors
drop
##itt
##ide
use
clean
fe
sc
##res
##ount
##ich
##ag
##ary
##stem
bet
red
dis
##ition
their
set
up
##ict
##ost
##ice
embed
##ple
It
##tern
##ng
##ech
dropout
##ates
embedding
were
conf
ap
your
work
##port
its
##ard
system
been
##ib
##izer
##so
his
ev
##ese
##ach
200
##ase
##get
make
tokenizer
##ff
##ely
could
long
##one
##ame
need
##ound
##ime
##apt
##ater
redu
sent
##ind
part
stable
##ign
##oc
which
also
my
20
##cessing
##ue
sm
##ize
##ction
ag
##ack
li
text
enc
##ace
about
Chinese
##ples
##ange
if
Eng
##wor
##ber
##os
##resent
other
pe
##ak
epo
##ia
epoch
represent
##now
there
qu
##lish
##ress
##ient
had
##ire
used
##areful
##ural
This
sequ
##ource
new
##low
helps
would
time
##act
##velop
co
##ail
reduce
##ures
input
output
##cu
self
##ational
into
##ask
year
some
##ier
##ility
how
who
10
##ens
##ree
##ific
exper
small
mach
##ory
English
than
team
##ub
develop
##ob
under
count
overf
St
sa
An
cons
comm
config
##ays
examples
impro
like
encoder
##ian
des
machine
##ite
configur
Al
try
know
dif
source
better
too
##ople
##eth
##erm
ind
gra
eas
##ments
tw
produ
##ink
her
prepro
preprocessing
ser
##itting
He
sentence
sub
##ased
We
##ark
reg
tar
them
because
acc
##ose
pol
When
##ject
##par
target
##ities
##ences
whe
lay
qual
careful
##work
incre
off
fir
people
##row
inter
configuration
she
##reat
##ced
decoder
task
12
only
lab
##ious
##ake
fin
sav
##angu
act
##ally
11
range
pred
spe
overfitting
##ble
quality
any
langu
##ries
our
##con
bo
high
##ined
##hed
##ric
det
dep
##aset
##pos
many
##de
##olog
##isy
##ings
just
two
dataset
report
##ons
##ization
##atch
hand
net
ver
##very
class
##iew
fl
am
predict
language
##pect
##ism
well
what
##air
You
##iment
If
become
mean
bl
##mm
Un
trying
##els
feat
prov
col
ro
first
op
rem
##ectors
##ces
ke
pat
##ild
network
sequence
show
gr
sec
str
##rough
##ood
these
right
noisy
##ating
pres
bu
##echn
get
ob
##we
improve
state
incl
But
low
##ond
process
vectors
experiment
201
capt
13
lar
most
want
easier
file
##aw
##ents
##ular
inv
sim
cur
##ft
##ains
differ
still
##conom
mem
spec
see
On
##ade
##king
stud
##ied
##ved
carefully
layers
sup
each
said
##its
##ise
techn
##ext
cr
him
##ys
##urn
##iable
##tra
ass
par
comple
inst
##gra
such
deep
##te
capture
requ
econom
grad
##ts
199
even
ph
different
##other
same
##orm
example
neural
eff
context
add
good
##iss
perform
very
world
##ph
##ever
read
##iver
##though
general
av
now
rev
##oth
##uch
form
while
##ract
though
##ense
cor
##lect
depend
##ability
##ative
fun
call
##ten
Af
##rol
##ning
15
##ethod
car
years
tun
gradient
18
##ick
mo
must
every
##ather
##wn
through
##ited
Wh
##ev
##oy
##ution
##blem
adapt
num
##ible
##encies
mon
##ruct
problem
import
##cial
method
##ween
next
labels
way
And
don
cent
##hip
##gg
##uation
select
did
##ives
##ores
##own
think
between
countries
##ife
back
As
##ubl
##ics
pattern
##fect
##ices
##les
large
##gan
pers
take
cre
##ogn
##omm
look
quest
bas
eng
##ification
##old
mark
fine
meas
Bec
meet
contin
##wer
water
made
order
##kes
##ix
development
##hes
##plic
There
##up
##elf
##rib
wr
gl
often
Because
aut
words
performance
generation
start
##vern
##ert
partic
again
##ized
##ven
##oup
ins
##ting
tr
then
intern
##less
recogn
plan
##ript
##day
level
wom
##ily
##ling
##eng
norm
So
conc
##uman
batch
bel
est
control
end
needs
##ving
ear
##als
They
sur
16
Although
step
inform
##ology
docu
dependencies
##led
def
ans
best
##ool
##yp
##any
pretra
child
side
those
##ren
##ually
effect
size
much
where
China
##oid
patterns
##ci
term
exp
app
serv
##ron
answer
##ublic
gu
##mer
cap
14
ve
dem
17
##ty
##ks
dist
fact
within
map
test
pass
own
##ency
down
question
important
review
clear
How
mult
number
tuning
##app
grow
result
##ines
30
teams
##ues
human
engine
includ
makes
##ters
main
##eline
here
##ook
##ower
##ection
separ
##echan
fol
progra
stores
curr
design
##ision
##eb
##ised
anal
##ew
##ner
##eg
being
char
unst
##cept
open
sign
does
put
representations
##riend
mechan
##ince
document
##chool
short
br
increased
unstable
real
id
prot
life
support
##ently
saved
ll
three
##50
##ider
appro
conver
keep
features
bus
##iness
avoid
prev
##arm
##ord
script
play
lead
information
whether
sol
dire
##ves
eval
recognition
day
commun
##gress
both
summ
equ
resp
##ted
min
##ern
##ets
country
art
foc
ret
international
speed
loc
less
deb
fam
compar
opt
##ically
##gy
beh
##urity
##ished
met
##ock
No
cour
aw
##ists
focus
last
predictions
##read
expl
sequences
dense
##iel
##ath
ref
##abil
##ness
friend
##ef
##20
##ages
bro
##imes
contains
classification
processing
inf
##alth
mechanism
school
adapts
oper
affect
point
pretrained
She
ra
follow
Con
##ights
checks
##ases
say
underst
hear
group
##89
proper
##ale
##80
pract
const
som
##ull
reliable
women
based
person
var
##ital
fra
going
great
product
##aper
After
##ior
govern
old
##ential
typ
feature
##ee
adv
polic
##ively
polit
power
track
##39
##duc
found
To
##ional
ide
public
##ans
buil
##11
iss
##meric
##red
find
##69
##ittle
##30
##70
##79
Americ
##ody
economic
pos
##ouse
##ward
pip
##earch
book
##40
##ulation
ta
adj
del
##49
let
##anding
chang
special
25
##cc
prepar
##29
##plement
load
pop
##ards
invest
mat
sentences
##ross
##sp
000
representation
sk
##cy
later
##ety
rare
##iple
organ
50
direct
pair
home
##ploy
useful
key
provid
At
##ration
poss
little
##not
##31
##ways
evaluation
project
##21
cond
nat
##erve
##iling
happ
##71
##61
wind
##ination
##cuss
med
##81
imp
speech
##ivers
consider
prom
adjust
meaning
vis
##amet
meeting
##obal
come
activ
dra
Pro
relev
##ral
pri
change
sl
ent
applic
turn
compare
##ience
##ately
never
Sh
##land
discuss
allow
##41
few
##io
national
around
rest
fil
##ained
relevant
stand
21
ext
sever
##amp
paper
##ember
cost
air
job
States
##ason
measures
##itions
##itional
got
##ute
40
##iven
room
sit
##lease
implement
might
##izing
market
tal
business
##ode
env
simple
pipeline
another
##ah
wee
elect
really
##itor
course
##ants
place
means
dri
list
non
##ash
##iron
using
educ
##idd
require
##rect
paramet
second
subwor
current
##ify
children
interest
final
object
always
##bers
##ieve
What
##ins
##aving
word
fail
##gment
De
models
gre
security
##ommend
struct
##atic
Is
##88
##ars
ris
present
head
social
##aus
Be
Mr
without
rece
##line
That
##pr
global
increase
pur
##uding
image
##ources
summar
Eu
since
recommend
against
##ank
today
called
##67
##cle
##ironment
flu
poor
arch
24
expect
##erv
##imate
el
repe
ben
big
100
##ium
health
##omes
##ret
##az
disc
log
accur
Rel
US
cult
During
##37
##ield
suc
##ilingual
##me
My
answering
stabil
prof
Go
determ
Even
charac
##agement
including
##ried
enough
indic
strong
##hor
##ove
##rope
##87
analys
view
##ope
##outh
##cing
complex
bilingual
raised
##ially
Careful
##iter
##ms
##ably
##flow
Europe
seem
fac
##aking
##27
##oney
particular
##47
programm
environment
##ugg
study
continue
things
##ged
##anced
##ped
##ired
law
However
##ne
bal
##ething
United
##iting
hard
##60
month
##man
complete
##ger
##illion
weights
lim
top
ID
political
29
##ivid
##urther
Ar
lot
memory
engineer
estab
saves
several
mar
toget
together
stabilize
##posed
##raph
mor
feel
detail
four
window
##ister
Once
##over
move
##jor
near
##iod
love
technical
##iqu
hist
however
something
prin
behav
full
##ident
mother
workflow
##here
growth
##itect
##inal
case
##iving
ran
preserve
basic
area
give
##thing
company
##ession
Sp
unit
raw
spl
tem
relations
##izes
##gence
##ator
##68
Reliable
ids
government
##ified
22
stop
##self
optim
##48
correct
architect
31
##38
##orth
##til
cert
teac
parameters
##ilar
ele
left
##ording
##oding
food
free
mater
##ov
major
stage
##eration
##side
policy
##rodu
##med
post
All
##ead
loaded
tell
##ffor
miss
35
prediction
progress
bre
kind
##ug
family
27
##ived
sing
building
far
##ury
##und
door
##ote
##irl
dom
land
##ebook
particip
Ind
23
provide
success
handling
notebook
education
##ll
analysis
house
##icle
technology
##itive
account
early
period
##istent
##ai
These
flow
##arch
appear
tracks
handle
table
rights
##gn
pay
ach
problems
light
desc
enter
beg
offic
care
effor
ask
##ping
##utions
sam
methods
common
##rupt
fre
convergence
money
Do
##ird
##28
stability
management
won
dr
conn
repeated
diff
character
create
value
dev
service
##sc
author
respons
26
possible
New
name
material
wa
natural
##ffic
sw
##ready
comb
father
local
away
UN
among
accurate
subword
##ugging
fut
generalize
ener
indust
benef
longer
ground
office
states
men
previous
##ured
ant
##rit
##ibility
nec
pairs
28
##racy
##por
60
function
Unless
di
already
Sec
##ply
include
press
45
##ges
fall
##be
access
idea
behavior
normal
resources
upd
once
multiple
shall
protect
exist
services
hig
bor
says
##ex
debugging
##aster
##ature
areas
similar
finan
Afric
itself
past
39
adm
##cl
##asing
ens
research
##osen
future
cal
##icult
further
rather
ident
young
Ex
##ream
able
leg
One
given
teacher
comput
affects
##ued
preparation
Ad
girl
infl
Engine
strate
##36
working
energy
hour
compet
avail
understanding
cover
employ
Bet
days
week
With
##ustom
lost
##room
pot
whole
##yn
##oll
##25
least
lower
shar
##cent
address
known
return
trad
##mb
##alf
city
##akes
##45
clos
##aint
peace
##ians
introdu
saving
ranking
line
becomes
##oh
didn
##46
making
difficult
##ides
##ceed
Can
economy
##ances
application
generated
chosen
voc
concern
night
remain
priv
##iol
##35
Now
init
win
##augh
tries
##ats
produce
##ton
tru
body
cir
##uth
occ
regular
2008
soci
signific
label
stat
##oot
layer
separates
Engineers
sal
activities
production
##ames
Some
slow
##ept
setup
##aff
memor
ey
##spec
coop
close
properly
compares
##ule
confus
##ological
##inist
thing
##ruction
clearly
represents
##26
conditions
reason
trade
cho
capital
separate
##hing
outside
41
neg
field
##aim
##99
members
thought
times
##ume
##apan
vol
##specially
summarization
bi
community
Comm
##ending
invol
cannot
reli
70
developed
##iation
certain
monitor
saf
##iversity
mil
ann
repl
students
Japan
ability
changes
five
streng
necess
Intern
##uate
type
segment
bring
space
##ann
developing
caus
##uck
##tal
improving
usage
taken
respect
relationship
integ
others
##idence
##77
custom
came
##istic
terms
structure
Wor
cut
individ
modeling
measure
chall
face
express
##eign
##rr
##aut
took
##ission
Cl
ter
##uss
##ality
##ixed
mus
especially
sche
55
viol
hy
available
yet
manag
##24
##abul
##vers
Better
resource
prob
##tle
jo
##ape
Mach
brother
##34
wrong
buy
dial
morning
products
issues
consum
related
Please
expected
generate
generalization
results
truth
American
orig
ur
##90
assist
##face
individual
treat
##iec
role
session
decre
##most
systems
mis
tri
##ched
forward
2005
apos
financial
implementation
##65
risk
ever
until
Rep
##ches
action
region
architecture
##ging
##abulary
done
##ership
following
##olution
vocabulary
kill
Machine
talk
37
##ises
single
soft
correctly
mask
bar
##ising
why
effective
##aps
##ament
##ither
##ender
By
##way
Germ
practical
hot
51
approach
##duct
rad
cross
significant
##ators
tool
offer
reads
outputs
build
effic
updates
war
includes
situation
above
overfit
##ests
half
alone
decoding
##aining
##rand
##ended
##idden
went
samples
##ique
tax
instit
##ivil
experience
specific
##enn
mom
colle
State
million
cases
##ector
discussed
higher
##sel
##oura
##ogue
distrib
80
##ware
agree
Com
percent
death
contrib
##ane
maint
units
##ires
ed
sugg
##66
##aries
May
##ules
##portun
adjustment
##91
various
##bs
oil
sem
accu
obs
friends
analy
live
lib
seen
ship
provided
efforts
mess
heart
crit
##85
sure
lik
##44
##ison
history
compon
Govern
##itted
##ograph
##ront
princ
below
sat
amount
bra
opportun
##oon
deal
##ened
accuracy
bad
demand
engineers
quick
actually
embeddings
##ring
game
2000
increasing
prep
2007
easy
super
drink
32
needed
split
along
official
bit
Our
En
Tom
Russ
addition
##ike
##urs
recent
cell
adop
2010
##ledge
##ene
although
influ
equip
capac
mind
subject
phys
##ones
believe
claim
population
##utes
##rated
compared
detect
fluct
##iet
dest
wal
##rict
##ush
extra
hidden
piec
ensure
din
cooperation
total
begin
setting
2006
communic
tre
directly
##yl
understand
article
kn
interp
works
third
ago
connect
90
break
age
##ax
almost
prepare
stay
compan
hol
impact
industry
bound
##resh
told
##istics
47
##ested
His
##eral
having
##ump
##use
woman
temper
balanced
society
##ude
Well
hope
mot
##ams
started
private
49
decision
Deep
foreign
##aces
dou
##artment
reduced
emer
trained
##etimes
accept
##ored
##epend
civil
Let
##rast
##ends
Or
gradients
##selves
dialogue
Pod
classroom
Te
details
##ories
potential
South
rele
please
2009
err
##inary
therefore
la
36
##atives
reve
staff
##lict
labeled
America
Fran
##wards
matter
reform
2004
##ief
doing
38
##ault
six
Res
##rate
##bo
##10
##ery
sust
groups
usually
starts
Re
abs
Pl
##ung
dam
ess
camp
anim
subst
achieve
fluctuate
cause
bat
ste
33
exc
position
beaut
##ik
Gu
held
feed
coll
across
##action
white
wanted
sister
##pose
months
modern
Dec
necessary
##gest
creat
black
issue
due
##usion
phot
decline
##aching
companies
Ob
began
port
##icro
##LM
ban
indicate
##mor
serious
price
fund
dinner
mass
investig
soon
prim
Ph
cris
Part
became
link
cred
##cil
65
34
fire
living
according
Mar
sil
Africa
##ills
sens
48
Gener
rap
##af
looking
inn
appl
##rics
##know
##pite
event
datasets
conflict
##iddle
##ption
hier
Le
establish
Pe
circ
weak
##ided
establ
##erc
##aced
tel
##ctions
knowledge
century
hierarch
ill
capacity
Don
##known
##come
##ounds
standard
sense
bud
Sc
##64
##ony
likely
scient
code
##na
regional
crisis
LLM
levels
##antic
##rap
##xim
##onst
Then
coff
ful
##ott
late
reveal
decrease
##fact
##gr
theory
##une
displ
true
cat
unknown
##yond
lack
leave
vers
##ening
##78
##ned
program
culture
considered
##ivity
##rug
##itten
prec
pressure
collect
##32
force
##uted
concept
##odes
vari
heav
server
computer
##unch
##ots
visit
500
arg
required
established
##irt
tuned
##ler
basis
##oud
desk
baseline
##pri
More
saw
frame
seems
##ival
prior
##rid
protection
2003
practice
gen
respon
upon
prevent
traditional
cup
autom
fixed
content
inspect
estimate
scale
42
ready
nine
##let
coffee
nothing
policies
dig
threat
costs
regularly
##ables
##ension
moment
cra
hierarchical
fig
##ids
ways
sex
hours
annot
reliability
color
media
story
##range
2002
##ift
##ilities
anything
##yle
Bl
shows
particularly
regard
speak
sun
cleaning
disrupt
lat
##itation
imm
reflect
Brit
Cent
Co
Man
Yes
programme
item
##isions
##body
##iated
##then
beyond
income
##ensive
independ
broad
pack
principle
fav
gas
taking
##uge
##75
2011
built
front
##rary
##atory
##verage
everyone
Oh
leaving
gives
##dule
termin
conv
profess
metrics
##ached
pretraining
poorly
organiz
share
##estic
recommended
##elt
comes
asked
Coun
rely
##by
proposed
tomor
##ulated
tomorrow
Acc
finished
creates
vide
##19
annotations
conduct
cy
limited
##ucle
remains
##ray
search
syn
##rought
assess
doesn
General
thus
pros
rapid
foot
equipment
pun
squ
assoc
popular
European
Government
requires
multi
wid
2001
exceed
Fin
ge
##ieved
Gr
##sequ
music
Me
bir
et
boy
construction
Ag
student
remember
44
eat
sector
consist
reported
enj
##ients
police
everything
budget
film
##aid
stri
##oming
##hem
attack
challeng
schedule
##ffer
segmentation
##fort
exec
exch
central
provides
parts
##22
##medi
coun
refer
administ
wall
##eah
##etic
##osp
##of
##ctor
##empt
green
Many
sometimes
temperature
contain
eyes
calc
watch
aud
pen
town
##to
43
Joh
checked
blood
investment
##oph
##86
user
46
base
Ap
Col
pict
seed
##den
Pr
##ley
##sy
instead
sle
either
sustain
Car
Tra
##omen
##acy
##aves
analyz
Before
consistent
interv
occur
quickly
Council
series
cop
frequ
ord
strengthen
##isc
response
nature
strateg
record
else
surface
projects
received
Des
Ro
detection
yes
getting
successful
cit
confused
gave
quite
news
encoura
themselves
designed
hor
networks
##uel
##ands
Not
host
##ina
effects
##lex
introduced
mount
cou
##tic
Pol
workers
flo
##84
mer
pad
behind
##iful
party
enh
doll
phone
promot
align
essential
##ufact
cold
vo
##ao
##PU
created
fast
partn
determines
wel
##ij
##DP
incons
famil
son
enjoy
##hern
weight
##iency
instruct
assistance
contract
##uc
##ulate
##position
nucle
##reet
write
##rael
deg
road
liter
##ban
World
##imin
reports
Israel
vict
##ites
##iction
inside
drug
jud
##arian
concl
explains
##hib
appropri
##estern
195
rules
trust
75
operation
continued
dyn
travel
##ows
##equ
##76
Sy
earth
300
points
running
takes
Of
##aly
ton
decl
benefits
aim
advant
John
##rel
##lo
##rist
##ades
International
mist
sound
##ength
CO
memorizing
59
adjusted
coming
carry
manufact
sell
strategy
Ab
##go
##ML
produces
factors
##eter
warm
fill
##74
##ma
obt
bed
Per
resist
##anger
Am
written
someone
condition
markets
software
micro
2012
##33
Inst
domestic
disrupted
date
additional
personal
hold
farm
##irst
inconsistent
##ricul
arri
requirements
fish
##uff
organizations
##amed
plant
added
61
##ball
##where
fem
probably
innov
hands
train
##astic
##itable
prices
##aged
materials
##ought
scre
lives
generalizes
box
greater
curve
property
existing
configured
##grade
citiz
cultural
diver
estim
happy
section
curricul
extre
interpre
Most
ang
stra
site
wear
growing
##amic
ign
Aust
stress
treatment
transfer
Pal
brought
processes
University
questions
block
logic
transport
emb
solution
##uan
average
smo
gold
1998
fear
##lead
terminology
##rench
bag
National
recommendation
rates
Group
II
values
component
simply
types
quot
fight
match
enterpr
spir
led
complet
Par
scores
rich
##gen
paint
##head
walk
send
style
##haps
parents
positive
wants
bur
##hers
aftern
thous
India
himself
blog
div
debt
vill
##verty
##dom
poverty
parties
Teams
supply
applied
compl
distribution
##ying
video
mob
ten
immedi
anti
afternoon
##uster
draw
54
fraud
AP
status
bank
##hest
##ulations
beautiful
Every
environmental
##istan
climate
rule
##ork
physical
curriculum
aggress
##mp
##reg
sea
season
dog
attempt
leaders
boundaries
suffer
users
print
center
##ribed
learns
original
##ees
dead
towards
##ricult
Just
changed
##ented
hous
##aptop
programmes
##ole
message
star
coord
##airs
wife
science
hab
##abilities
applications
71
wish
perfect
dream
forget
demonst
laptop
fragment
tea
except
##ression
hyd
demo
French
export
harm
According
contact
minutes
violence
length
##rab
rock
##asons
institutions
born
##rad
goal
currently
fully
Tw
##auses
ball
Spec
56
shop
##gor
unless
commit
exact
quant
defin
continu
mainly
proced
##arily
Republic
dark
1990
##vious
activity
##ployment
Develop
heard
evidence
propos
exerc
First
apply
jour
Here
histor
##tered
##fficient
##atively
yourself
involved
middle
safety
path
Dep
##amb
##ciples
influence
ren
##ama
rat
fell
From
Your
kin
##hens
wait
mislead
exceeds
hon
##ties
padding
instructions
Serv
wide
1999
thinking
subm
##ux
##eed
etc
clauses
North
##ror
tour
Ju
importance
##enced
##ously
commer
sn
##itary
experi
Kore
##ighb
blind
hair
Act
appropriate
ones
ul
2015
##light
##itch
Her
interpreted
nuclear
69
##icles
labor
poll
##nal
member
spo
##ming
note
##ateral
evening
framework
challenges
opened
draft
imag
optimal
aff
gran
beginning
East
functions
initi
pieces
decided
Pres
pain
##pon
subwords
operations
##ocr
Are
##rown
##edom
billion
##rust
events
##uro
semantic
card
##nel
exchange
52
##itude
##inc
shown
95
negot
dim
caused
balance
credit
Se
eth
resid
manager
##ips
##agraph
promote
##abor
##val
##inated
presented
##enge
predicts
efficiency
Christ
neighb
##formation
skin
France
While
Why
standards
Sw
##ari
increases
birth
sort
aspect
install
pret
##co
former
fragmented
##hood
##unt
##ME
steps
active
hop
##umb
##umn
looks
##eless
Other
##omp
surv
responsibility
round
##sh
1997
turned
sleep
har
##ox
missing
##onna
##phas
##sych
##aur
verify
cry
##eal
##wise
opportunity
electric
Jan
traffic
counter
magn
professional
pick
rain
##undred
teaching
poly
died
relation
earl
IDs
2013
page
felt
responsible
Asia
##aches
##ologies
elements
swe
included
Ear
Li
version
sold
hur
primary
##cup
incor
fair
Noisy
den
station
characteristics
Ku
publ
entire
##ground
persons
Germany
suggest
85
##ields
describ
inj
arm
blue
Tod
studied
looked
veh
obser
schools
authorities
53
##ilateral
##ta
helped
contextual
errors
##lig
recently
wonder
agricult
minim
##16
##ID
##herent
studies
##atically
goods
changing
Security
largest
mov
##raft
books
##ental
tonight
online
mention
##overy
easily
goes
##ney
notes
planning
bott
purs
improved
attract
##hel
Mon
Sept
##enty
described
Gre
rise
closed
mag
mig
##23
West
danger
##zy
King
Ge
##orn
altern
showed
weeks
citizens
##vey
carried
anc
##semb
difference
fat
IP
##icip
forces
brain
June
##ronic
##ternal
strength
##TA
device
##rehens
unc
communication
British
cate
heat
##eness
64
Ass
sustainable
##son
##iveness
1996
Mal
guid
People
57
reasons
Oct
attend
##iber
element
hundred
runs
whose
mid
Object
Rec
benefit
tried
Secret
Today
datab
##ructure
produced
dise
Therefore
freedom
##oes
summer
gard
pan
girls
surpr
constit
plans
September
display
Gl
emphas
bab
generally
##ared
movement
degrade
falls
##mark
urban
##net
strongly
##uary
instru
internal
direction
reach
writing
##ha
phr
bear
command
##gorith
phase
##terday
save
consult
##hold
Nations
species
##aughter
documents
adopted
eight
clause
principles
##band
organization
paid
wood
Bo
ep
##97
##used
stock
seven
##oul
critical
located
driver
failed
##98
files
July
##itc
despite
prepared
##bit
lose
##enda
Im
sales
##95
reading
tools
favor
sor
tend
##IS
fundament
corp
##96
plat
obvious
sport
spread
##ims
overall
Will
core
##kay
Bar
forms
numbers
skills
thresh
satis
Russia
##rim
agre
German
isn
island
doub
Conference
York
gender
damage
Such
##AS
##arding
optimizing
worth
banks
killed
##ancy
Iran
Min
sett
highly
##sing
marks
gonna
African
Internet
spirit
##AN
algorith
effort
##iers
limit
tree
allowed
acqu
participation
Reg
moved
psych
paragraph
choice
confusing
##15
maxim
economies
Japanese
President
Austral
##aign
default
120
discover
58
API
drive
contrast
announ
liqu
2014
Special
Cont
##arant
##more
opportunities
ordinary
##omet
##aught
ple
##ober
song
construct
jobs
cities
rout
##ervation
concerned
##amer
Zh
noted
cru
ideas
rural
pref
double
virt
store
library
Off
univers
agreement
connection
threshold
TV
December
October
##ccup
##men
tit
officials
digital
##the
resume
mill
400
##bon
completely
El
lines
request
unique
moving
destro
##ON
competition
190
dry
splits
##18
independent
##gressive
female
module
heavy
##ijing
affected
joint
hit
chann
glass
trip
stru
translations
Bra
pul
identify
toward
##wh
##ata
##ula
receives
played
prefer
saying
Beijing
##ube
rob
##rative
##ada
Arab
Soc
domain
##IC
##ops
Development
bran
der
refers
kinds
##vert
perm
cand
factor
letter
cells
March
##adem
fly
##iang
deliver
challenge
esc
worked
doctor
failure
burn
##itarian
throughout
purch
campaign
widely
fuel
##AR
leading
##ait
forg
efficient
knew
hus
##ze
##ellig
##17
names
argu
nar
##rew
anyone
choose
finally
commercial
##oles
January
##inate
##lor
soil
autore
earlier
cool
powerful
Har
##rete
##ster
##ER
concent
reb
autoregressive
##leg
degree
huge
talking
Som
Sun
66
Mary
##mber
##fit
trou
negative
110
picture
##ruit
option
Ira
aggressively
park
##urance
transm
weather
##oring
yesterday
comprehens
##ses
playing
animals
families
unl
cluster
##gent
1995
##gar
occup
##back
##ded
Web
objects
military
customers
extrem
##onds
actions
constant
release
nearly
cel
initial
encoding
Moreover
published
north
spect
technique
associated
Iraq
Apr
Aug
##ocol
coherent
employment
safe
##reci
learned
funds
Russian
dress
##42
##asc
##vember
Fed
quar
happened
sources
south
##ixes
infrast
agreed
##aily
November
restrict
secret
chem
Service
Sim
##gments
##rote
categ
April
tim
processed
lif
reached
Pre
##rief
equal
brid
allows
euro
##82
##agn
Objective
67
goals
smooth
arrange
famous
database
##force
waste
Palest
##AT
images
wealth
floor
figure
exercise
##ondon
cast
suppl
advanced
##LE
##inear
##ering
producing
myself
mut
##riage
guarant
Each
resear
subs
ice
selected
effectively
Hong
shape
##iles
worse
objective
negoti
grand
numer
quiet
Comp
substant
fresh
##cer
resol
perhaps
##road
receive
Cal
##rial
slower
nice
turns
ec
##OS
corpor
Tr
Tur
##83
external
statement
London
##omb
remained
ori
technologies
consumption
##ford
regions
nation
August
corpus
Cons
City
wrote
interests
feet
advantage
##utive
places
defined
##ancing
platform
##uz
circum
##isl
replay
00
flex
Char
programs
##iff
fluent
purpose
##IN
web
solid
oblig
##odies
expert
150
increasingly
wat
130
properties
mand
Op
vac
novel
Where
##ellow
gets
##iques
larger
controls
feeling
mode
monitoring
components
opin
piece
Two
webs
Office
respond
graph
leadership
##000
##sion
##apter
converts
GPU
items
cook
river
college
72
Its
governments
infrastructure
excl
##ipping
Qu
interesting
husband
origin
annual
Sm
released
gone
ox
maybe
phen
testing
##book
spent
emot
minor
followed
ult
scientific
voice
solutions
High
##ny
##ittee
discussion
##ounding
##ague
happen
punct
street
chance
pow
Ed
Department
fields
couple
board
supported
confir
Rom
Any
actual
##plicit
Art
##ilit
faster
105
practices
destroy
##ales
intellig
Another
mission
eye
63
finish
##14
solve
accurately
teachers
gun
2016
##ram
celeb
react
Inde
mechanisms
immediately
surr
divid
##aging
dut
pretty
garden
##iant
##vent
Add
kept
covered
blindly
lets
##key
##aven
plants
satisf
tast
memorize
parameter
62
##ero
agenda
115
##uations
finding
interview
bottom
God
EU
score
reality
providing
kitc
Med
creating
fundamental
##63
Count
master
individuals
##othes
Finally
rot
##iance
acid
charge
games
serve
communities
##ino
distin
achieved
##sembly
Despite
vul
provision
Yeah
##ocratic
ir
majority
uh
institution
##porary
enhance
##evision
reference
prop
symb
king
Ac
du
spring
reduction
firm
##ky
##oss
decades
maintain
Dis
GDP
##NA
aid
1994
Over
##asion
location
##cel
##aul
knows
coal
index
shared
und
Dr
##elling
strict
baby
##gramm
determine
##73
comprehensive
kids
##oo
named
Earth
Red
Feb
hum
distance
meetings
expressed
adopt
experts
##cipl
##ensity
dynamic
ce
giving
##43
shares
variety
99
kitchen
consequ
relatively
Ser
##rant
uns
concerns
habits
assum
error
diverges
partnership
##chers
Since
##62
appears
ancient
##72
Yet
village
tur
forest
##oe
##itness
lived
Who
chair
Those
sexual
nut
spending
##issions
##iny
returned
##igen
Cor
causes
critic
brand
##mal
symbol
##orage
Shan
fails
##iar
##hy
Thus
expand
##ont
depends
##ugh
##etary
decisions
##board
appreci
##ography
priority
68
techniques
crime
liquid
##right
Febru
bul
completed
calls
February
bought
##iding
defic
pal
participants
Western
Only
career
underfit
##ription
risks
##useum
##utor
125
married
Like
brief
##gency
Phil
##que
##bernet
Mc
snow
medium
creation
ded
Kong
##PA
prefixes
assessment
certainly
Human
Net
##ashing
##bernetes
touch
daughter
##12
facilit
screen
Aut
arr
hydro
steel
Look
punctuation
##fully
trees
daily
1980
sand
IC
util
sud
continues
matters
translate
legisl
radio
Good
##erate
reliably
Em
remo
Att
aspects
shap
##eping
XML
susp
##ae
##hol
corres
personnel
border
##ibly
fed
##ico
terror
##ulating
interface
starting
guy
facilities
devices
collection
die
spend
noise
##pective
prison
couldn
Ang
becoming
representative
manual
sorry
instability
dollars
trend
##ker
mathem
fif
generates
settle
thousands
diss
##allel
Second
highest
recovery
positional
strategic
Ke
confidence
segmented
##erson
mail
assign
sudden
signal
vulner
wave
determined
deleg
Dav
##elet
Their
Prov
circumst
accord
classes
calling
algorithm
##cean
conven
languages
opening
engineering
Kubernetes
##set
##oms
university
consistently
appar
customer
employees
journal
ahead
##nic
hotel
ignore
Mex
player
placed
mine
yeah
cloud
##ira
belong
phenomen
##ords
##itute
movie
Committee
resistance
mobile
exactly
coast
innovation
Further
##ana
cash
Stage
##craft
##OR
concrete
Palestin
Did
operating
##gypt
volume
##ris
##amm
youth
Geor
Korea
stuff
straight
Hu
department
expression
column
1993
excell
obtained
gather
implemented
scientists
Indeed
Egypt
##ES
repair
Have
##outhern
135
laun
mentioned
mur
amb
egg
##onom
crow
Under
animal
strugg
##vention
bright
maximum
Secretary
complic
estimated
##94
##ipp
characters
square
##unately
waiting
##uk
mostly
bodies
##eur
##iled
agencies
funding
administration
recommendations
Po
slight
hom
structures
wine
club
instance
transform
##ica
##pir
rein
sky
PC
iron
stim
root
analyzed
##iscal
hall
architectures
stated
lunch
gradu
television
ast
##atever
##icate
appoint
Che
##ingu
##com
willing
seemed
nor
##iger
interested
integration
emerging
##urr
players
Australia
welcome
##ixt
compens
resolution
reporting
breat
##EC
##iced
interact
elimin
lad
##order
##verse
justice
flat
##wide
sufficient
biggest
strategies
##imb
views
dimens
passed
##DA
storage
camer
raise
male
sched
candid
ut
##ears
##rick
minute
claims
rapidly
extremely
bill
tick
offers
victims
smaller
Organ
##anks
commitment
Both
##ensus
encourage
comfort
Bel
historical
##zil
##wing
leaves
integrated
shot
believed
Also
significantly
parallel
600
mixed
impo
assets
marriage
##spect
carbon
lock
medic
##gramme
differences
##ensor
band
wild
generating
scen
seek
restaur
objectives
revolution
conducted
Ma
explicit
partners
mouth
##unk
perman
background
##orthern
Su
##enance
corrupt
politics
Afgh
segments
fiscal
attrib
Port
transpar
humanitarian
announced
##iot
##rip
manner
cars
Mor
infect
focused
buildings
Canada
Put
Women
plane
Econom
##aling
##ashion
replace
##ivery
enem
##osis
flowers
Brazil
##anc
forced
formed
usual
advance
##icy
worry
rising
participate
accident
electronic
collabor
Inter
##icial
##osphere
winter
stream
survey
##ius
disease
fing
veget
rac
##ghai
client
##ints
scr
committed
##hou
chemical
2017
Sup
##PS
##raid
##posite
consideration
alternative
forgot
73
##hone
##oration
##anish
Law
spot
Central
shift
wasn
Air
pet
suggested
kid
adequ
catch
##rif
prem
begins
sen
##ibilities
diction
##het
fa
theor
advert
slowly
debate
##gely
##lin
##rants
Great
Sing
manage
realize
explain
relationships
enterprise
##bert
website
medical
bridge
san
##ounded
guest
housing
sch
empt
extent
offered
mountain
blow
formal
summarize
vision
enterprises
CD
alloc
combination
wis
cycle
meanings
tf
transition
##umm
guess
eventually
recip
##uil
frequency
##rical
standing
comment
recognized
Americans
tests
dangerous
List
War
afraid
yellow
Wind
absor
patients
appeared
Pan
discipl
##akers
accel
sports
##uded
Union
expensive
metal
leader
##ennium
synt
Afghan
delivery
circumstances
unem
chain
laws
##load
Techn
ideal
##ogle
##rimination
race
##MS
structural
agricultural
gar
shoot
ther
##ocracy
relative
gain
##ners
thin
##poses
join
##icians
delay
sweet
Mod
atm
meant
holding
77
74
shock
whom
##usive
academ
constra
batches
Social
##standing
authority
mathemat
##ara
expans
Shanghai
sides
Bank
Pak
##itors
phil
Val
##rep
fit
##AC
Jack
suitable
##lands
haven
##ager
thank
district
dollar
dictionary
##areness
Dem
mort
notice
indeed
approxim
aircraft
Fl
##ya
depos
##igenous
rail
currency
older
Lib
##iture
doubt
##ulf
fourth
stone
evalu
il
##aken
format
hun
excess
speaking
flight
insurance
Google
Rem
##elect
refuge
mal
armed
Italy
##while
closely
Stud
leads
Take
##nia
##AP
##abled
1991
healthy
##elines
##entions
sets
opinion
River
##erves
reaction
##apers
options
Maybe
wouldn
schedul
sites
remark
pool
IS
isol
##elled
establishment
luck
##ria
adult
##uses
quarter
likes
absol
incorrect
ring
crim
ax
selection
educational
##ritory
##gers
##lar
##DE
newsp
miles
immig
channel
##tes
##asure
##ompl
exhib
excellent
deeper
thick
pra
##lymp
alle
91
##iest
issued
node
happens
fashion
Mus
relig
posts
arrived
Hol
consumers
##urse
stops
combine
##iam
##ps
clothes
##tery
cloth
Ne
Olymp
reducing
occurred
rub
meat
succeed
discovered
accompl
largely
trouble
Rap
##hu
reject
##rier
##illed
involve
Lin
consumer
connected
driving
##ils
procedures
fle
hang
##ship
Dire
##asty
imposs
arms
identified
Commission
##umes
translating
improvement
800
stick
milk
HT
title
##rates
flood
driven
summarizes
zone
beauty
linear
via
Park
##rating
copy
filled
awareness
motor
variable
Day
beat
81
School
regarding
180
ethnic
football
supposed
distant
foundation
Pakistan
##cious
shut
mole
maintenance
##zone
vote
edge
vehicle
interpret
abroad
criter
bath
Based
lic
stories
conference
belie
##appear
Rev
Sub
enable
firms
string
initiatives
roll
container
tro
greatly
east
kil
otherwise
##vest
multim
broken
Indian
definition
depart
explan
Member
Minist
##water
##heng
industrial
latest
divided
stre
guide
articles
Use
president
visual
zero
##ours
governance
decade
secondary
faith
contained
##roph
crop
tail
unf
##ressed
horse
##rian
perspective
sharing
Commun
rul
##house
illeg
administrative
criminal
productivity
loads
bac
indicated
##AM
automatically
researchers
western
managed
fruit
west
regime
flag
combined
manufacturing
agent
planned
Obama
OK
##going
cer
fault
reven
pollution
Jew
rice
aren
rough
##idents
Sat
lies
Mark
##iate
##92
partner
keeping
discrimination
thousand
IT
expos
tasks
converge
duty
Would
##irty
##reek
phrase
pig
##los
disaster
soul
##bal
scope
Const
procedure
Ministry
vent
##anda
investors
swim
empty
imper
##udd
listen
identity
reforms
impossible
96
##tical
##itution
accepted
##zer
positions
##atin
proceed
##pling
Ber
situations
EC
witness
addressed
cutting
sensitive
accordance
##inder
simpl
typically
switch
contributions
expansion
murder
##iary
whatever
remote
ratio
Mad
explo
existence
disput
##BC
##tering
1992
House
clock
served
owned
typical
David
##MET
clipping
moral
masks
##icken
plastic
upper
presence
negotiations
Mo
##oples
98
busy
##rain
Prot
launched
##stream
retri
businesses
illust
houses
##ham
##ype
Last
Nor
vital
##pet
##att
provisions
crucial
Fund
San
##andom
encode
England
depth
Come
sad
containing
prepares
Cong
See
caught
##mes
unp
Ital
earn
appeal
dram
coordination
operational
organized
proposal
experienced
Ben
##li
##uable
Conf
SO
greatest
prospect
mistakes
##cket
proport
recognize
resulting
settings
observed
##icious
subsid
agency
minimum
stake
indigenous
Attention
##plom
Br
emergency
Global
Middle
mix
##urg
entry
##greg
##char
fort
Mich
dance
furn
##off
Through
##word
programming
records
factory
crack
Palestinian
700
tight
sample
grass
treated
requests
COMET
##uries
White
figures
literature
instrument
DNA
##rations
##uting
##illing
shel
System
##sis
translated
plate
entered
Sam
plays
convention
visited
permanent
ended
##gin
##nex
advantages
acts
Prof
tradition
##olid
##iring
boost
forec
twenty
concer
prevention
Instead
taste
pregn
##ogen
secure
obst
seeing
Programme
offices
labour
investigation
##erved
##alty
##ipped
disappear
extended
##ey
stead
Mexico
onto
stopped
fro
renew
##ographic
89
UK
hosp
performed
vot
smart
possibility
vast
chief
##ifying
Get
##ache
Britain
Washing
##ication
democracy
aimed
philos
250
nations
pil
emp
Street
remove
Asian
equality
aware
tired
dropped
returns
bias
##keeping
prosper
##quar
intended
Paris
subsequ
proved
scheme
##fortunately
sectors
indu
guys
circu
1970
Working
Sch
storm
Chair
##fast
height
probabilities
schol
inequ
expend
##ael
evolution
award
facing
Open
fert
sounds
##iety
##ohol
##ios
##vis
cards
prompt
agreements
satell
##down
##lying
Adm
pictures
uncert
determination
princip
vib
##udes
Ms
era
##eting
##ails
planet
referred
correspon
##time
destroyed
Washington
Windows
gap
##cast
hurt
AC
eating
distributed
alc
consists
unable
advice
##han
1960
pursu
millions
##rane
drugs
outl
recover
fulf
Roman
##odal
experiences
AI
watching
##mas
monetary
diplom
rose
specified
teaches
previously
##ellect
worldwide
farmers
##EF
weap
massive
vehicles
sir
##wr
borrow
promotion
bow
##ishment
peoples
signed
liberal
independence
familiar
Lu
nav
##aud
##ushed
showing
Party
promoting
removed
79
lie
##aser
##roc
chapter
gradually
senior
pull
##ED
##onic
informed
courses
##icing
launch
attacks
printed
Cle
Could
afford
specialized
severe
accounts
submitted
Whe
random
statements
camera
AS
tall
1989
convers
oriented
76
##ias
representatives
##aj
##pers
##zen
Int
corporate
hole
Parties
obtain
narrow
Mac
##osc
Note
mac
explos
1000
Us
rid
equival
Plan
wed
##rank
instruments
suddenly
86
mental
##rum
##nes
statistics
##raw
finance
characteristic
approximately
##13
##urch
stars
##plication
territory
cryst
scene
register
boss
##rix
keeps
worksh
recorded
Convention
##ita
##ette
beam
##umin
boys
friendly
advoc
fuck
reasonable
cart
Israeli
intelligence
hide
southern
##etry
throw
apart
conscious
remaining
##unction
##anged
Okay
##porteur
linked
extract
unemployment
Mil
##iform
##esides
vulnerable
##IT
prol
painting
##ete
Assembly
happiness
airport
93
okay
##ato
approaches
universal
atmosphere
cab
trading
selects
Trump
seat
lots
argument
Ter
none
##izon
moon
87
sac
##uous
##ym
explained
describe
corruption
78
Concl
faces
Institute
incorpor
dust
homes
##wood
passeng
topic
motion
honest
Kingdom
##cknow
grew
detailed
eld
##DC
##alt
contribute
financing
Mart
##do
formation
category
phenomenon
kub
institutional
##imately
click
twice
marketing
Jer
Paul
160
82
fab
##NS
Sov
realized
push
sharp
adequate
scratch
##itely
relief
communications
BLE
valuable
97
##ET
##inding
technological
##olf
salt
BLEU
comments
strictly
concerning
##ek
centre
##vereign
##entially
guarantee
museum
exposure
scar
approved
measurement
##theless
multimodal
emissions
hardware
gent
slightly
fix
##ishing
Three
frequently
Out
mel
ocean
Inc
messages
fighting
electricity
attends
developments
##cience
fal
##ifically
##ridge
Rapporteur
deployment
shad
follows
intellect
forecast
defe
photo
##tain
sees
peak
package
competitive
Face
hers
ju
hyper
streets
sitting
magaz
84
trib
##ritor
##dy
##alk
##andon
officers
replaced
##otic
brings
acknow
certific
rational
##ureau
payment
telep
Never
##cles
##OM
purposes
behavi
define
explore
Afghanistan
belief
Organization
favorite
Mill
decodes
Greek
evol
virtual
##fall
##wan
thanks
automatic
Bur
##umber
Spanish
transportation
Furthermore
nurse
prove
decide
deter
everyday
limits
Economic
Name
Tai
##arity
highlight
occurs
Educ
describes
tutor
sight
solar
successfully
Four
140
##uilding
Italian
pump
exists
##ander
185
measured
alcohol
Micro
##nam
button
represented
##onal
champ
CPU
Sever
##BA
carrying
shoes
sugar
Child
appearance
##holders
federal
88
impl
##oking
humans
adjusts
globalization
losses
incent
truly
inh
withd
sovereign
supports
flows
angle
explanation
rig
##ello
plug
Mean
suffering
vary
##irely
##igation
##rance
enforce
uncle
##ille
commod
province
cultiv
Est
targets
percentage
controlled
entirely
suggests
imagine
##uration
encodes
##asket
formula
agriculture
##bles
##friend
##unicip
accomp
fer
##urb
shif
Miss
reserv
deeply
od
contribution
Soviet
##enses
trig
continuous
arrangements
illegal
##rees
stood
corner
motiv
earthqu
helping
landsc
Black
##can
yield
neither
boat
guidelines
reduces
respectively
complicated
toler
stem
##hips
director
variables
Assoc
Wang
##istry
abst
walls
##ien
##ctive
understood
phrases
numerous
suspect
##istical
Uk
##EM
Information
relax
abandon
regulations
ships
facilitate
3D
##TP
normalizes
selling
Board
##repren
ends
requested
Indones
falling
pod
pure
##II
democratic
##usions
teach
immediate
proposals
nom
effectiveness
ownership
##itative
Sometimes
##isters
##place
##ipe
readable
83
##asters
worst
letters
conflicts
faced
managers
strengthening
wet
Report
precision
hundreds
politicians
##ingly
##enth
##encing
seriously
inner
opposition
marked
legal
Fol
ourselves
enemy
##ieving
grown
industries
holid
Rights
bigger
abuse
92
Method
Sl
##93
simulation
desire
Div
encoun
bilateral
loved
invent
introduce
purchase
Sud
demands
residents
##ums
putting
pointed
claimed
compensation
cheap
##estival
raising
feelings
corresponding
Right
##ura
##IP
transformation
##elfare
combat
closer
creative
colon
listed
drinking
collective
conclusion
CS
possess
breakfast
##CC
##ago
interaction
difficulties
photos
shaped
domin
joined
synthes
Py
accum
Water
##ifor
##under
##acing
exports
Ant
Cub
contents
Article
Oper
vess
##ching
##ador
thoughts
talks
Dan
Set
sick
wheel
lesson
proof
##IV
everybody
extreme
frust
prote
implementing
functional
audience
La
##ecutive
##plete
flav
shell
founded
Governments
CN
academic
asking
commonly
94
profession
transmission
Califor
Pac
tens
##omy
##ourage
subjects
Centre
dimensional
tutorial
hate
overl
smile
accounting
Cour
Jes
inher
supporting
sale
overcome
colour
walking
restaurant
northern
##my
##wers
deploy
flower
fiber
##ystem
##inent
wearing
habit
Cap
therap
##esh
alarm
adding
James
asset
introduces
drawing
confirmed
Latin
Non
##edy
##rows
##orders
responsibilities
neighbor
intellectual
Hen
uniform
##anges
relating
requirement
amounts
##iao
stronger
anticip
##sts
170
multilateral
Mrs
temporary
Sea
Swed
ble
Several
density
##nect
tor
initiative
eurozone
##cks
reprodu
trends
broke
description
migration
consequences
promise
Minister
##isher
turning
profile
rol
consolid
entrepren
battle
Whether
##kers
##EN
##orter
tot
##apore
Perhaps
escape
criteria
##quarters
Thank
entit
theoret
hat
manip
capable
Spain
Dyn
##za
Data
Singapore
forth
primarily
Rich
encouraged
injury
California
doct
Ste
engaged
Def
##cher
resulted
operate
Gen
gate
hung
peaceful
obviously
herself
##cript
Je
sect
##riers
taxes
seeking
reflected
parent
mandate
Tim
row
##icated
##sem
alb
windows
calculation
Michael
##ilt
sym
##aked
consensus
latter
tiss
email
111
fluid
tells
neck
ES
##olic
##aker
drag
missions
Training
equivalent
##mon
extension
silver
circuit
gentle
Action
101
amaz
molec
theme
##roll
suffered
ensuring
km
##lets
writer
legit
computers
legislation
Using
defense
investigated
##ece
##kend
Korean
Bus
tort
##icking
##taken
believes
Meanwhile
##chron
categories
principal
Mer
##oir
composition
##oster
household
convenient
inequality
causing
Had
laugh
##astern
##idential
contem
drawn
films
Dist
Gold
bread
##coming
##atures
electro
investigate
undert
significance
false
Education
repeat
studying
obligations
pages
##rity
telling
introduction
links
##ushing
Mount
sin
##unte
##ifies
achievement
Colle
Third
Health
comparison
occasion
powder
County
##arr
##ouds
signs
Bro
dynam
Yang
##gu
experimental
urgent
strip
##zhou
##BM
##ste
ordered
guidance
substantial
fabric
KDE
Sal
Tensor
bird
##mar
alive
machines
Research
fool
##TS
coverage
societ
shopping
George
Pat
ongoing
mechanical
Exper
philosoph
##oke
##BS
Hey
lessons
concentration
##makers
mistake
##orous
##ommod
considerable
waiter
settlement
##ashed
##plications
III
continuing
army
##utely
##apse
UNDP
protected
revealed
examination
102
grade
Christmas
##oly
##ella
##agues
Hel
##ailed
Turkey
flexible
Hot
Public
bench
Green
##lers
incom
##berg
Stat
electron
SS
employed
waves
##vo
surve
indicators
##rible
union
estimates
##hors
stret
##ola
suit
recon
allowing
filter
talked
arrested
Pacific
preference
trial
manufactur
mic
Thanks
Mem
attitude
##inations
enorm
tested
waters
Profess
##field
crimes
reviewed
Bas
opposite
evaluate
drift
Peace
birds
soldiers
Leb
welfare
##ulus
undertaken
128
Kar
recall
Ken
dism
branch
mutual
05
que
##bre
109
2018
profit
smoke
hopes
Sunday
attached
reconst
UNC
wedding
bot
provin
tube
clients
desert
surrounding
prohib
powers
accommod
stands
joy
##ception
walked
colors
owner
buying
Year
##ifications
protocol
Guang
neut
chicken
court
Angel
Administ
Dar
brown
municip
##heast
sequentially
##iously
##armament
Isl
Center
wonderful
bub
god
##oad
savings
##holds
Mat
taught
absence
Facebook
journey
TH
tab
##AL
proud
overse
rooms
##aza
declar
fishing
dogs
spoke
hem
wrap
##aled
indicates
rom
##che
##IF
invited
delivered
criticism
Ko
Sen
guard
extraction
##well
##raction
##eted
proportion
satellite
Conclusion
sum
Ham
teeth
eastern
concepts
Malays
hospital
Frid
Long
incident
##ava
correl
Does
breath
basket
thread
reaching
alt
distingu
revenue
Select
pill
##ishes
seconds
Should
membership
fifth
##cuse
Management
affairs
anx
everywhere
inflation
derived
##eurs
Greece
ing
inject
evil
supplies
eggs
PR
mir
rank
forever
feas
disap
artific
maintained
uncon
basically
degrees
discipline
refugees
fract
##ariat
adoption
Division
sed
alleged
weapons
cable
##haust
##uh
##aming
pipe
newly
facts
puts
frag
ham
##eding
dealing
holds
Director
conventional
defect
coat
possibly
religious
bacter
Mond
heads
elder
##bour
stations
##igure
##asant
presents
judge
ultimately
##arts
104
matrix
skill
division
mathematical
hyp
Peter
necessarily
Similar
Association
inev
younger
pub
##inton
concise
visible
discussions
bearing
Sur
tiny
arbit
internet
prosec
tourism
comfortable
ath
##pled
##ultane
documentation
##ainty
Leban
##pread
##ini
dependent
Island
involves
horizon
Company
Philipp
##hetic
newspaper
Given
composed
diseases
Gra
cas
dear
compr
nose
175
volunte
Up
clouds
struggle
##fl
magnetic
fib
rar
##HC
apartment
experiments
territor
troops
landscape
Jo
organic
angry
earthquake
##EL
##QL
annex
##rag
##amin
losing
Ann
populations
Sir
tears
##otton
poem
friendship
collected
merely
enhanced
burden
haz
##rot
insp
addressing
trafficking
Met
hero
acting
optical
editor
universities
delegation
Model
telephone
Bill
extensive
##press
flying
##hi
##ario
strange
outcome
actors
differently
##bean
executive
mountains
printing
ped
stored
155
refused
lit
lect
stran
macro
Alex
Summ
##essions
tough
roof
centres
electrical
shr
climb
installed
Follow
Del
wire
Bang
Wall
ca
165
artist
laid
scholars
incomplete
##comes
##isation
##icide
transaction
reput
depending
circle
concluded
emphasis
oxy
Av
volt
visitors
bomb
grav
bone
##xic
##umped
specifically
receiving
households
legs
##idespread
checking
underm
regul
moves
advis
Friday
Post
irr
outstanding
1950
119
##faces
measuring
retire
cooper
radiation
expanded
##arsh
vit
vel
authors
achieving
ticket
obstac
Time
tum
quantity
ru
##ka
##RL
compat
abund
priorities
strike
Elect
jump
laser
pron
normally
Project
granted
trigger
##yc
##oted
##plex
complement
defend
optimization
demonstrated
giant
nit
pace
engage
elev
Exam
covers
surprise
native
innovative
Aff
kick
##ns
##amber
##antly
intention
convin
Offic
##AD
##US
plus
collaboration
Tel
dad
##ena
array
classical
reflects
execution
##istration
1988
elected
cataly
commitments
fan
##top
fewer
hardly
consistency
##EP
##ali
##urt
##iders
extend
foods
Panel
##like
bringing
offering
superv
kiss
pin
sought
loop
choices
Que
117
candidates
350
gift
vector
exhaust
simultane
peacekeeping
observ
CC
ride
##ras
##ecess
insist
equation
damaged
orders
definitely
##rovers
colleagues
Jesus
bon
unre
calculated
pursue
van
##yal
involving
Check
eliminate
magazine
Monday
SC
##orough
Enter
au
gained
trap
crew
separated
Show
calm
inspection
Bay
Sk
widespread
plenty
reorder
##oked
favour
penalty
##organ
glad
passing
somebody
thinks
capability
##anna
Det
pup
##night
##TO
##rog
begun
Frank
Next
##rus
##zing
enth
informal
identification
##bi
##alities
manif
investments
Argent
diagn
genetic
lake
BP
constantly
wing
##raine
leaf
Trade
psychological
crowd
gains
stages
Agency
deficit
lady
retriev
gall
mit
##hentic
##box
Province
utility
Han
##etime
harmon
societies
lux
enabled
106
developers
Atl
survival
clothing
Taiwan
CE
##umping
decor
actively
cream
145
mainstream
considering
profound
latency
enormous
surprising
flexibility
107
expectations
Robert
songs
Old
volunt
transparency
College
Bush
Fe
till
##och
Declar
resolve
smell
##irect
responses
League
cerem
##soft
Make
divers
##inter
dischar
paying
biological
birthday
##bing
unw
worker
assume
##grad
mining
##yan
meal
outer
passion
killing
threats
analyze
Wal
##IL
##osystem
revised
diag
deaths
craft
rarely
##ighter
equipped
artificial
Mult
##PC
##lection
unch
discusses
naturally
Indonesia
Pri
diversity
fo
regulation
capabilities
election
Chen
Vol
throughput
charges
dreams
channels
Mission
charged
happening
modified
nearby
Hy
feels
lawy
marg
officer
terrorism
availability
finger
##ailing
prosperity
Fort
##ua
1979
disk
probability
heavily
emotional
constraints
perce
##icted
agents
behave
declared
da
exposed
121
112
##erted
Represent
pilot
kubelet
tower
##aring
##ican
beach
spons
grain
estate
payments
exception
HTML
cotton
##cers
magic
900
Roy
##illa
##usal
discon
weekend
marine
knock
tables
##rition
##outs
approval
##ikely
constitution
originally
regarded
thermal
Musl
DC
##gl
##uls
chrom
##oses
diet
Without
superior
installation
distinction
acceler
conversation
Declaration
Sil
recept
serving
Env
sustained
scheduled
108
periods
survive
holiday
##AO
unus
##osph
Apple
Among
aer
nodes
movements
Eth
Hist
Jim
Sol
##Flow
##utch
spin
enforcement
Code
fans
##view
static
glob
behalf
feedback
stressed
sympt
Learn
Life
bid
##asy
perpet
characterized
Executive
audit
Road
William
iP
##inity
##roat
controvers
hearing
oxygen
Ev
owing
intr
directed
victim
victory
entitled
tag
moist
filtered
panel
Satur
##erving
sty
2020
##active
maps
cycl
Cup
mad
##lock
valve
factual
signals
productive
elections
unlikely
##itan
##oto
comprom
banking
##rogen
103
118
cuts
elsewhere
TensorFlow
render
tip
participated
winning
civilian
establishing
Microsoft
nobody
##apped
dedicated
##onia
##anging
##actions
##ester
finds
parad
Which
broadcast
disappoint
Den
Grand
##liament
tissue
cos
tech
##gic
##ares
##abit
statistical
mobil
assigned
consultations
distinct
mood
anymore
vertical
catast
##TAD
##ught
advertising
Fil
NG
##cell
reward
applicable
complexity
Technology
theoretical
Eastern
Lee
pleasure
confirm
medicine
Court
Fre
Pers
Qing
Viet
mouse
roles
##itis
plain
dimension
interpretation
dual
tack
##cue
##uct
focuses
Smith
UNCTAD
CR
MS
lights
##FC
unex
preced
repet
designs
epis
acquis
Federal
Olympic
AR
##eli
##reement
structured
destruction
lon
teen
spaces
classic
remind
separation
Love
##pe
improvements
talent
photograph
Liu
minority
dish
authentic
Network
cogn
papers
clim
1985
Head
economics
equity
honor
movies
appreciate
enthus
pray
vir
helpful
##ologists
##ixture
implications
keys
collapse
certificate
totally
Camb
thesis
##aks
kilomet
##vant
anywhere
fallen
crazy
watched
cooking
360
##inating
gene
intensity
##inking
Brown
marry
##reland
picked
wisdom
reputation
Budd
Equ
rent
sending
worried
meters
update
intervention
route
##iverse
controller
Nob
Power
Unfortunately
particles
voters
Ireland
116
114
specify
summary
difficulty
##emic
unt
outs
forming
controlling
equally
entities
argue
Bu
##edia
##omin
129
maintaining
AN
cow
inqu
##asures
aggreg
underlying
continent
integrity
Zhang
pulled
##LC
compound
autonom
artists
slip
violations
injured
##rosion
##thon
partnerships
turb
sections
liv
plot
retail
aims
voltage
Sor
##ysis
lasting
impress
professor
Ukraine
##oral
unrel
governmental
missed
antib
observe
genu
Consider
IBM
Lake
sheet
listening
om
transparent
Ah
fet
##MA
thr
##ocation
Stand
designing
updated
divor
Fore
##uated
##iner
Init
reserve
##even
innoc
Support
Hall
Pet
##iler
##uzz
retrieval
sinc
recession
Super
reservoir
Back
Science
131
attempts
surprised
findings
contemporary
1986
127
predicate
fellow
absolutely
Wil
wake
##brid
weakness
constructed
generic
registration
initially
decreased
ecosystem
nan
spr
promised
embra
adults
shadow
Du
revers
1987
propag
registered
Gal
drank
##ki
##jiang
##ether
thorough
Arch
Jewish
Spr
##iations
shouldn
##310
Result
Christian
hell
disag
Class
influenced
Room
diverse
spectrum
Children
Niger
##MP
violent
About
expertise
bottle
dil
##210
semi
enjoyed
ingred
AT
py
aged
Clinton
restrictions
cabin
Dynasty
##eds
attended
reserves
decent
partly
supplement
writ
##athy
entering
golden
amazing
hill
##oys
##oma
incred
butter
##ocity
136
Control
abstract
benchmark
unchanged
gear
contrary
Turk
nurs
tank
wages
##kind
##ye
ending
aside
poison
polar
terrible
appointed
Figure
##chest
proc
atom
##ograp
surpl
##ennis
association
##urrent
Congress
SP
sessions
##asts
UNIC
passengers
Tal
anyway
salary
Author
entrepreneurs
Bol
##rich
##rimin
##lation
##FS
##inct
beings
##forced
113
reviews
policymakers
##bor
##omas
##ulates
assembly
diam
substance
attractive
orient
Portug
accompan
Saturday
##mat
contributed
fairly
oh
##igned
encry
122
captured
##apping
personality
Mag
Rad
dict
jur
##aph
124
boundary
Dad
##rison
1930
139
entertain
achievements
compliance
intelligent
crops
Cre
OS
Tex
math
Force
##awn
communicate
ty
##itical
synchron
audio
roughly
CT
Rob
fold
##igar
complaint
bond
##obile
tub
##xy
theories
fee
deliber
applying
##what
DV
gal
soph
##how
##oust
insect
entity
managing
buried
Kh
Tell
reply
shoulder
avoiding
Compar
##ographical
withdraw
Methods
Tok
wav
##efficient
##kin
##omer
conce
noticed
##ifier
overw
conserv
repeats
privile
Linux
expenditure
Cuba
lists
inhib
##ipher
barriers
deposit
er
beer
##390
judicial
induced
uncertainty
Malaysia
##rators
##ethe
arran
##110
##490
evaluated
Affairs
Lou
##bar
##lines
stup
transactions
##290
computing
astron
swimming
philosophy
##rator
##burg
weaken
resumes
220
Cop
SA
bonds
scan
targeted
answers
humanity
##410
presentation
strengthened
subsequent
tact
##790
radical
neighbour
rubber
album
UNICEF
Tru
tension
stro
prime
breaking
completion
ecological
Sudan
##eras
##uts
stamp
##irm
chocol
##anned
regardless
stakeholders
Business
generations
flour
##810
450
CP
centuries
physics
Services
Henry
Flor
URL
##ffect
somewhere
Star
conservation
##iano
regret
owners
mineral
affecting
punishment
residual
Lab
##ros
loans
accused
##610
sensit
Nat
Table
sod
rescue
loading
Play
applies
contracts
IN
Pen
Pop
tone
##advant
portion
##ING
Cult
aest
trop
remov
elabor
campus
essentially
Georg
steady
Environment
##elihood
somewhat
blame
preparing
Besides
Ca
Hi
Tues
Wel
vig
wage
##oded
reverse
##vely
viewed
biennium
protein
##rest
##uing
thy
Still
versions
Syria
##DF
Step
grid
##azz
publish
Saud
mos
Start
fired
123
visits
accountability
connections
resort
auto
childhood
Bal
borders
##ih
##inery
deals
##peror
##710
emerged
##onym
isolated
Read
fant
rect
##DS
trav
Str
##pected
bless
137
Academ
rejected
fertil
acknowled
TC
##pass
persist
discovery
analyses
1990s
Millennium
Er
##sen
##Os
##itudes
loan
minds
brothers
blocks
demonstrate
briefly
240
Jon
copper
frequent
##west
##itter
##isely
compact
heating
broader
Police
arguments
Chairman
pour
##zz
shirt
intens
depression
economists
Space
civilians
warming
citizen
meth
##ett
chip
spat
disadvant
belt
##690
truck
empower
consciousness
Bob
Jose
Kim
NE
courage
##van
toxic
##ician
universe
instruction
ultra
neutral
Big
erad
lamp
##IA
ash
chat
chlor
roots
donors
topics
protecting
infection
Cert
Ext
Zeal
whenever
immun
declined
Jud
Mel
icon
##yo
##osing
mirror
Ta
Tre
##iop
recording
disarmament
bug
facility
functioning
##posing
sacrif
##xi
serves
Carib
harder
emphasized
Hung
##owed
alumin
blank
performing
expanding
hoped
velocity
dies
honey
##ION
##ilation
prost
asc
recruit
opposed
lowest
Again
Martin
Lar
ties
##OC
##LS
##agger
funny
Franc
speakers
excessive
Hill
Tor
jack
popul
potentially
essence
Sant
##adays
voluntary
01
Museum
##itzer
1984
arts
20th
126
amend
reasoning
Remember
Bre
##ument
##quis
geomet
spiritual
absolute
overwhel
Tuesday
Zealand
ho
##iox
algorithms
Federation
involvement
Rome
guests
AM
Lad
gross
##fol
##ida
reh
##ologist
News
employee
heaven
commodity
Vietnam
Jul
soup
clar
##890
emotion
arrest
furniture
Philippines
Section
sulf
##LA
cha
covering
observation
exciting
Foreign
fu
wise
134
locations
destination
Everyone
accomplish
coc
loud
lift
##oom
##pond
##DI
##icon
cultures
participating
battery
departments
crystal
Nav
stuck
smoking
query
silk
seeds
suggestions
##EA
terminal
headquarters
deterior
##rection
thirty
stom
##ami
contrad
ceremony
Caribbean
Cr
Di
anger
##quer
persu
advent
Enc
acceptable
##stein
IR
singing
literary
commerce
##rophic
Nevertheless
nerv
tong
Poland
McC
doctors
sophistic
fate
por
##egu
directory
screw
migrants
apparently
##comed
unpre
Lord
cigar
foss
##cription
##ials
pled
intensive
##weight
centers
sampling
320
1945
gray
genes
cyl
hal
leather
whereas
volat
arrive
historic
prospects
Python
elderly
athlet
TF
##isp
##rove
##endar
##adequ
##pace
##opol
##gging
inspir
solving
operator
arrangement
evaluating
##py
##RI
##idity
info
stayed
Agreement
Ir
ray
semin
welcomed
transferred
spoken
1967
grounds
aligned
unlike
journalists
simultaneously
Job
##aine
solved
integral
diplomatic
unusual
Wu
bes
##alysis
1978
existed
branches
candidate
railway
incentives
Koso
SQL
mixture
tap
##rence
oppon
Charles
Incre
hence
##oman
##iffer
producers
displaced
forgotten
mortality
behaviour
reconstruction
Mother
fasc
stack
##ortion
Chapter
phones
Coop
ultimate
Argentina
Dat
NO
nam
tons
unn
doors
vegetables
chest
grate
##teen
focusing
Vict
##abling
##ireless
perplex
grab
occupation
shooting
hungry
Norm
##wait
##itage
##stone
##otyp
conj
wash
contam
chose
artistic
jew
suicide
scat
dissem
argued
villages
Dou
##verted
##ailand
pronoun
Free
Wi
ease
ment
##asm
##aded
Thailand
adaptation
writes
folk
receip
islands
OF
cav
dign
##GB
##ogether
19th
138
tunnel
settled
dimensions
Texas
Squ
##yr
handed
robust
obligation
satisfaction
fucking
Hotel
acquisition
Youn
bell
rum
tape
coach
desired
Unit
Australian
prisoners
apparent
Democratic
Civil
Fu
Mong
Champ
1969
1981
Thurs
surely
hybrid
scenario
Leg
Men
lying
##econom
##agers
underground
epid
halluc
dramatic
juris
GM
Lt
desp
phosph
closing
critics
acquired
marginal
Saudi
Land
Los
merc
##ald
##agon
knowing
excited
precisely
Kuwait
workshop
Richard
overseas
Results
hors
##mates
##ambo
##ourse
dispos
classified
disclos
profits
admitted
PS
Vo
lip
sized
##adian
worship
Hait
Jane
Loc
bio
tips
Forum
examined
partial
disturb
conversion
milit
liked
encouraging
remarkable
BC
IM
##ulative
examine
confident
crises
folder
respective
threatened
Putin
chocolate
Aud
Mass
orange
##icit
Invest
seats
##angle
ages
visitor
observers
lucky
Similarly
CA
Jiang
ought
##ui
133
tourists
##IDS
occupied
Ba
trick
##rets
132
occas
assistant
matching
struck
utilization
230
pit
rod
##met
##idation
apple
##gged
resistant
denied
Examples
330
##orters
Chile
disp
county
instant
carrier
juice
genuine
Fam
Were
ven
##ville
##BI
inadequ
attach
1983
Design
fur
improves
timely
Sweden
Lebanon
Cat
Cyp
Ver
Vir
binding
##iences
church
spark
myth
autumn
capita
merch
pleased
fingers
mathematics
yuan
##MI
##verning
##ulpt
1982
para
##ameter
extraord
pregnant
vibration
Later
Mic
Wed
##arn
##rium
1968
readers
downt
exploration
routine
rolling
bol
adds
resem
suppor
containers
Gaza
Mosc
hook
##urities
subord
eleg
Scott
roads
robot
prolif
260
##born
##800
precise
Bureau
DB
Found
Hello
thir
sheep
returning
neglect
muscle
Emp
##war
fees
condem
telec
constitute
numerical
exploitation
convinced
##usalem
Book
Wr
##rous
forum
confront
wheat
precious
conclusions
bags
Jerusalem
IV
##bl
##abet
##ainable
Thomas
brill
knife
therapy
Professor
Lo
Times
ric
##oric
opens
adapted
admin
customs
neighbors
hydrogen
allocation
Thursday
ha
je
tied
##host
displayed
belongs
ISO
Sum
thou
imposed
1940
interrupt
videos
burning
Constitution
dispute
Administration
##aug
pocket
poetry
drinks
accompanied
##asp
##ota
variation
calculate
therm
Amb
Bat
Custom
##lass
##EE
##eck
modest
Strate
promoted
Joe
Shen
##play
imports
ears
accessible
safegu
pregnancy
Fer
sixt
confer
loves
hasn
immigration
unexpected
nervous
Java
##ione
##enders
tempor
##iat
##emon
##rome
prel
acute
detention
methodology
entrance
mothers
spokes
ancest
Northern
Ven
##lu
##raul
##urd
##stan
forests
##igate
Chic
##osity
sanctions
immigrants
bathroom
rehabil
Games
Master
whis
##nergy
civilization
announce
axis
Moscow
Tang
##OU
##add
Chang
sole
shipping
shops
preferred
restaurants
awarded
dominant
Kosovo
280
Prom
upl
##zo
infer
invention
courts
precip
Syrian
perfectly
stocks
Society
casual
##bac
##min
commission
ampl
donor
attracted
escap
abandoned
symptoms
##rac
##imal
1975
##mmet
insu
drivers
headed
girlfriend
rocks
Os
compos
grace
analog
providers
drain
towns
Iranian
virtually
romantic
Following
MD
gang
##scop
3000
retirement
grateful
tooth
##iser
##otype
corn
devoted
license
Tokyo
Ltd
Bul
Main
NAS
##SA
stere
desper
intermedi
compete
challenging
substantive
fifty
Trib
alleg
##assador
operated
USA
funded
grant
exhibition
stomach
Building
Lim
MP
##001
engines
logical
Work
silence
molecular
Royal
Mongol
Call
Move
ST
##IG
##esc
anch
Though
suppose
##appy
acceptance
penet
wooden
manifest
Tem
Vi
Wik
dancing
##iy
##inger
restore
badly
restricted
dismiss
Ocean
Test
Vis
tang
wings
wider
##ommun
convert
arrival
Keep
horizontal
namely
Ming
Tib
##izations
sculpt
volcan
sustainability
##loat
duties
entertainment
Sure
nick
##eller
imped
210
Switzer
arranged
Food
Wood
1920
arc
qualified
##ironments
Scot
preventing
geographical
neighborhood
PV
bold
mice
um
enables
suff
##cedented
Until
memb
particle
officially
appreciation
##written
unprecedented
Give
Song
gro
forcing
1974
interior
minister
guns
SD
iter
sau
##oning
flash
##isms
references
literally
manufacture
opinions
odd
deployed
District
Sorry
Due
Dutch
Ok
tends
##OP
##itz
##roid
##ptions
realistic
replied
sixth
coastal
lips
##nd
##itiveness
rear
notion
preserving
expenses
vocational
painted
bloggers
wishes
inspired
orientation
removal
Switzerland
Nep
Ret
pension
tie
##fe
##ometer
chart
sentiment
instances
determining
trem
smoothing
appointment
bubble
perplexity
270
rhy
##MB
disabled
engagement
signature
reflection
Meeting
gathered
torture
##etheless
Jin
nic
##utors
##emen
intense
cleaner
amp
designer
avoided
extens
Between
##iece
Academy
bicy
##alia
trace
replic
##tract
lands
executed
vacu
professionals
Chicago
##anes
shout
1973
yours
environments
warned
illness
tendency
highlighted
unclear
Sar
landing
pushed
##aria
seal
##aved
1977
equations
Indust
influences
steam
##hemical
stupid
Young
Na
fisher
jet
##eries
conform
overs
boom
impression
enhancing
tourist
cooling
THE
rab
##rie
cock
analyzing
Small
workshops
sevent
transf
##osed
quantitative
##raulic
ion
wanna
##la
##rey
##illy
actor
sleeping
hunger
Da
PH
Win
convey
composite
##itionally
monthly
beneficial
dedu
correspond
Angeles
rains
##een
##jud
incidents
##othing
platforms
theat
newspapers
Olympics
CH
cake
tou
##ashes
spray
lean
##ordan
discount
silent
Prince
sovereignty
Xi
dimin
##ani
##using
imbal
moreover
grows
visiting
Nether
SOA
##SP
##iry
aspir
chronic
advances
Islands
addresses
Harry
cement
stimulus
feasible
Try
##eren
##ala
stip
##sey
##ulsion
1966
subsc
crash
defence
directions
speaker
copies
##uzzy
##irable
anticipated
fru
grip
##ji
dates
chap
Cho
disorder
invasion
##graph
##601
locked
basketball
bacteria
perceived
Id
Max
bom
dirty
##igue
##izz
lovely
ads
anybody
cooperate
subsequently
obstacles
bureau
drew
jun
ye
exit
disasters
indirect
proven
oldest
##ducing
##291
prominent
Prime
coordinate
hoping
Spring
sophisticated
fossil
##ls
enabling
imprison
memories
immune
polymer
frozen
explosion
Representative
Bos
Town
tear
##matic
##erb
##poly
searching
complain
jurisd
Five
Father
Xin
duration
eager
pile
##itate
1976
mature
restored
temperatures
displace
reinforce
disappeared
gravity
##amboo
Hard
##RA
##adium
##akh
moments
dramatically
vessels
relates
internationally
operators
tracking
residential
satisfied
380
bars
na
Chief
##709
Pods
champions
550
Bab
nin
##linear
tobac
ink
finite
musical
Real
reportedly
paragraphs
inhabit
cache
erupt
sons
##gage
grave
##499
calendar
isolation
discharge
unrelated
##bra
blast
Army
detected
solidarity
columns
pursuit
catastrophic
Best
Haw
Wait
cub
tennis
grat
realization
##391
momentum
width
emotions
cin
rib
toile
useless
unity
liability
annually
schemes
attempted
harvest
responded
Berlin
tolerance
##economic
Nic
Tun
##outheast
myst
machinery
##lessly
AIDS
Festival
Light
##leep
offset
expense
feeding
vacation
defeat
Jordan
Ren
festival
##osa
revol
competitiveness
Colomb
resolved
assumed
legislative
Netherlands
211
AD
Hun
Having
dying
stir
##ulous
##mental
patient
answered
##aze
Scient
Queen
ingredients
tobacco
Saint
Tan
##itory
##891
##899
##801
##399
##301
tempt
displays
Review
anxiety
horses
Lead
Southern
bull
##laim
##ili
##701
##401
breast
devast
hotels
fears
reactions
True
Sus
##win
##umed
1971
Station
##erman
##299
Canadian
Serb
DVD
mere
ware
##pool
##ado
##irts
degrad
pride
Form
radar
Valley
subsidies
##bur
##ora
depri
141
##699
##aneous
magnet
Secretariat
Tibet
Bah
Tour
##ba
thereby
provider
preserved
periodic
farming
strain
Fire
Little
Nan
hip
##bled
compression
202
flaw
insec
caps
##iversary
Policy
coordin
advertise
evolved
inventory
legitimate
writers
brilliant
Press
kern
asks
spare
butt
epochs
##691
##409
nationality
severely
discrimin
privacy
initiated
staying
divide
attribute
Wednes
Run
traged
makers
leak
inclusive
##309
meaningful
deriv
satisfy
Jews
luxury
Tian
gest
dispers
##791
##enny
libr
holes
420
Mot
Mike
Ol
lingu
##bage
##RS
##ogene
ups
infant
collaps
dynamics
Atlantic
Ethiop
Var
##ieth
##cr
span
recru
disabilities
##ports
##enez
ignored
Cost
loose
assemb
nevertheless
quantum
permission
attributes
styles
Yu
pink
##cut
##iminary
##plate
contest
perception
guil
psychology
observations
spatial
tongue
NC
mud
##tt
cancel
##acent
##501
painful
vessel
manufacturers
provinces
surplus
proliferation
Foundation
##ema
coating
royal
Blue
tickets
365
Sand
piano
alk
liver
expressions
Trust
foster
##asma
##opes
unh
chances
embedded
##gram
pharm
##eva
earned
##509
235
lighting
analysts
honour
abundant
extraordinary
insufficient
Bern
Mom
pale
rats
tu
washing
##ictions
205
inval
hearts
##491
matches
replacement
Wednesday
Much
cheaper
seism
unfortunately
outcomes
Revolution
tropical
puzz
sword
##RC
nonlinear
logs
Goals
protective
edition
##sequently
filling
hydraulic
submit
disputes
innocent
Ul
##va
##icular
##igg
Ins
##ckets
lob
interference
predicted
slide
diameter
Within
delayed
praise
##itures
##ications
thri
159
norms
designated
meter
##809
politically
##799
UNF
warmup
boxes
Venez
WTO
ow
##elve
brush
##319
Common
continuously
celebrate
suspended
declaration
Summit
Obs
Sa
bin
besides
zones
relatives
dishes
inclusion
passage
gotta
winds
capitalism
synd
execut
floating
enemies
Pot
Rock
tric
##iac
##float
alph
##orship
representing
##209
publication
Adv
bedroom
inevitable
Cath
None
Person
lung
sear
weren
spell
spite
169
metab
refr
Regional
nutrition
ICT
Mur
View
bother
rip
shit
peripher
imported
meets
elastic
posted
sensor
assessments
laboratory
palace
terrorist
subordinate
vacuum
##float16
HIV
Jour
outdo
1964
recyc
tariff
##deav
captain
urged
counterp
sensitivity
Joseph
Venezuel
Cast
Think
2019
1980s
inadequate
Self
Very
mol
##ounder
##anted
adoles
resin
Being
temple
capacities
attacked
Cambod
Cross
Camer
Know
Turn
##AA
##St
##urred
##201
interactive
hanging
Turkish
Welcome
dignity
administer
Six
##mother
##unal
##teries
##integ
circulation
graduate
##lades
weigh
192
poet
quit
Unlike
##219
harmful
##agnetic
##urrently
racial
cere
##PP
##ilib
##inth
ate
compounds
##ouses
summit
255
substances
##factory
limitations
340
fier
mines
pounds
##jo
##itals
##ustainable
abol
dressed
Banglades
Ur
##norm
##power
##rams
##emed
chamber
##aka
quad
organs
##609
violation
paintings
rehabilitation
##EG
Actually
nutri
Hence
Jones
Wen
bfloat16
##icop
apolog
twist
151
##719
prevented
gathering
regulatory
480
Far
Gard
rivers
inputs
layout
mapping
215
Comput
organizational
Victor
##tles
cher
##opl
##arrass
Fred
##ca
##ima
alter
orth
##osl
##298
##819
educated
freely
##ifferent
Virgin
ii
pushing
##TC
##rable
heritage
personally
##419
290
310
Club
Countries
earnings
supporters
guilty
Jac
##gly
##vation
##ered
##abeth
##oline
enrol
meals
protests
anniversary
pleasant
allocated
episode
gif
mile
wars
##NC
##era
##ona
##isons
##keep
prize
clip
carries
161
retain
indicator
camps
harmony
Islamic
drove
nerve
ster
scared
surge
popularity
Champions
Moder
wireless
##lie
##rame
##urement
delight
390
investigations
surrounded
Protection
reconcil
Louis
CU
DNS
fuzzy
##rine
cheese
compass
##297
##619
analyzes
Johnson
burned
lifetime
Ray
Yan
pressing
necessity
forgetting
Clear
compromise
Authority
Bud
Sah
Saf
Top
##pan
##elly
##cho
moderate
unb
149
mini
drama
225
normalization
integrate
Polish
Eliz
permit
Protocol
voting
divorce
drought
##car
1949
decay
##sole
considers
flights
##897
contributing
bitter
Prin
coordinated
kernel
##inea
orbit
presidential
Product
Mont
venture
votes
GN
Ha
HP
##otal
##heric
##umer
recre
colored
exped
refuse
brands
guaranteed
ceiling
Community
brows
sail
concess
##ighth
##alling
dozen
reservation
##agen
systematic
evident
performances
##icks
progressive
winner
warning
##grat
efficiently
deficits
Ast
Dam
Lux
Naz
hards
stones
##esty
transit
myster
##407
keyboard
computation
##ieties
Assist
thickness
pep
##rin
chains
aging
persistent
##697
pulse
Jackson
deposits
hazard
Energy
Node
bunch
vend
enzy
##uality
upset
##isco
embarrass
reproductive
ore
vice
reaches
##lywood
##duction
##398
boyfriend
proceedings
sediment
receipt
bamboo
hub
rust
##lights
excuse
cann
1972
##797
delicious
275
authorized
welding
Nigeria
degradation
##cence
##ito
modes
endeav
##artial
symp
arise
coefficient
##ommy
promises
##enna
Kenya
499
Rest
gay
gau
##aft
##enary
##oli
scream
##osh
consent
##798
##617
Myan
combust
choosing
libert
greenhouse
shifted
synthesis
impressive
ske
147
##677
##277
employers
410
judgment
rigid
volunteers
Rail
password
##698
##217
drunk
impacts
exchanges
trusted
cooperative
Myanmar
cul
##orph
neur
oral
upgrade
producer
judges
alternatives
##nected
Timor
##IM
valley
interd
handwritten
##tending
##397
##707
Armen
singer
creativity
collecting
Justice
interactions
Belg
Georgia
aqu
huh
##eing
##HO
tow
spots
paras
##111
promising
legend
edit
defeated
acknowledge
encountered
occasionally
repetition
Tar
codes
##just
##erts
1948
##ocy
invite
##317
##318
grey
##888
repeatedly
barrier
suggestion
tremend
Camp
bron
enlar
verification
download
multip
##898
passenger
440
arom
modules
orb
1963
dece
intro
boats
patri
##497
##498
510
assessed
deny
wealthy
transformed
tensions
540
Bost
Xia
cam
##Set
unto
1939
skilled
##377
##278
265
imperial
lonely
preliminary
Gh
Pass
trains
##imacy
soy
clin
evac
##acks
descript
acquire
kingdom
Norway
CEO
tragedy
Bor
##bow
##illance
elig
concentrated
absorption
hunting
bowl
diamond
displacement
Elizabeth
Dev
gaps
beef
subreg
##378
striking
overlook
undertake
lawyer
##ders
##erals
##angers
indo
studio
concert
5090
barely
foreigners
counsel
exercises
minimal
consequence
bulk
incorporated
territories
Ve
pitch
##rent
##jan
reluct
somehow
171
restruct
##678
ambig
scenes
tumor
fitting
horm
##eath
threw
reson
partition
passes
##708
##417
375
emphasize
substantially
##hua
correlation
Empire
430
ghost
Inf
ambit
1500
144
##507
##618
failures
Spe
285
injuries
corporations
assumption
revolutionary
flavor
supervision
moisture
Bangladesh
##mo
##inite
##arc
bears
##olen
alike
helicop
##218
##717
rises
heading
analytical
Coord
Others
Impro
Arabia
complaints
disposal
Ji
##nings
##vin
##esters
stagn
##icked
basin
##718
##817
##418
crossing
burst
conservative
Scotland
membrane
Ele
fran
heter
mm
sizes
wounded
##atus
##terior
congrat
##ctic
##post
reader
beneath
##607
##608
Marx
spectac
municipal
Muslim
325
490
Bi
Rw
cave
cats
##SS
inex
protest
possibilities
##478
combining
illicit
revenues
expenditures
fuels
Opt
sphere
UNHC
identical
##riction
steep
photograp
desktop
unders
shelter
renewable
implies
411
Bru
fiction
nod
inverted
scal
##cium
shortly
publicly
##airo
reveals
packed
packaging
App
assumptions
manufacturer
recruitment
elegant
##ilibrium
UNHCR
mild
ramp
##PG
neuro
fever
coinc
boot
##307
dealt
minded
digit
penal
Iraqi
accomplished
cosm
unnecess
Cheng
Hor
Liver
##father
##through
pert
subt
##818
taxi
End
Requ
contacts
frameworks
sorts
ruling
Geneva
diagram
Standard
dys
rush
tourn
##itively
fled
locally
consultation
retrie
nitrogen
239
311
485
Home
IA
Mand
Yun
hes
lag
##rd
##ko
##vard
##ench
##ems
##apor
156
separately
gotten
admit
##uccess
shapes
incentive
injection
acknowledged
Journal
425
Bridge
##gi
##worth
shame
abnorm
incomp
assert
designers
retired
restart
##477
breaks
Resource
vegetable
Boston
Cy
gym
jumped
lending
##reen
##change
attitudes
intu
peer
accidents
nowadays
##808
harass
suppliers
minorities
cognitive
kilometers
aluminum
370
Has
Mars
##oned
##esis
##sters
chop
interfer
##887
measurements
Agricult
imagination
exclusive
suspension
Egyptian
accelerate
surveillance
Compared
transfers
fright
yard
##acity
enclos
factories
##207
##208
Conc
##308
Pros
dominated
citizenship
guarantees
Palestinians
sodium
Ni
Ram
rival
##reme
compress
pose
##issance
305
functionality
Everything
imaging
permitted
Somalia
websites
ambitious
##itably
##imination
##ropol
##iances
deserve
flame
networking
economically
margin
pressures
couples
cease
##hyd
clubs
Moroc
ruled
prolong
commodities
territorial
controversial
460
Effect
Gulf
##200
##anol
alien
203
backed
defines
##408
analysed
555
scientist
mounted
Political
fatigue
inherit
fragile
iPhone
##quisite
Capt
Dig
Nothing
pist
##itime
stolen
##ads
##uma
##okes
sheets
converted
credibility
Columb
narrative
Corpor
##bourg
stroke
aesthetic
inhabitants
Jun
Number
##OL
##ading
##acter
remed
##awa
parliament
morph
competing
portfol
Peru
minimize
##backs
269
229
345
Rather
Was
##BR
##iciary
##amine
translator
resident
dispar
develops
twelve
defining
##oids
##807
slope
electrom
dialect
libraries
Disc
Ill
gel
les
##making
##itar
##stand
abilities
##enery
manually
fraction
hypo
distribute
ports
Particip
bankrupt
oneself
survived
magnitude
Daniel
Capital
provincial
pix
reiter
wore
clever
differential
mete
metres
organize
considerably
liberalization
279
470
ranging
##eto
1965
Stan
157
cargo
166
projected
Comb
Color
bridges
NASA
249
Fi
Lis
##vas
##oub
##herence
##obe
shower
traditions
embry
encounter
hypothes
constitutional
Square
329
Bon
Sem
Sign
Van
##kins
##thm
mankind
##berry
serial
activists
eleph
legacy
identifying
pursuing
recovered
Florida
overwhelming
fruits
Dal
##atri
propose
incomes
servers
requiring
154
brut
##119
Implement
transmitted
vulnerability
absorb
molecules
560
##nut
##uis
stiff
##ulator
deformation
##iana
qualities
interfaces
appra
179
homework
straw
darkness
observer
glasses
bust
viable
##zens
anth
245
shallow
irre
succeeded
cultivation
thirds
seismic
520
cous
kne
nest
##da
##lic
inch
modify
##olly
dating
reserved
relate
gramm
strings
drives
poster
swing
respected
execute
rotation
fortune
champion
Islam
385
JS
wool
alert
emission
developer
discussing
muscles
declining
earliest
campaigns
##visory
lecture
catalyst
discont
Cooperation
Nepal
Langu
hired
patch
pione
##pression
forb
suck
transc
##alls
##ivals
adhes
advers
##agu
confron
specification
competent
portra
dynasty
Austria
Ak
Kaz
mira
rings
reorgan
##avia
ensures
weekly
confusion
circular
catal
symbols
convenience
1970s
behaviors
compatible
Haiti
Ky
Say
pie
##endum
adverse
##877
bike
alongside
Finland
remembered
conditioning
aggressive
quietly
Students
defects
Denmark
conferences
hi
##FP
##WA
##asury
##sea
Church
residence
themes
surfaces
visc
traveling
cameras
rolled
221
NBA
germ
ly
thee
##omfort
shaft
chips
drops
trillion
##ployed
treasure
chemicals
ECB
antibiot
Colombia
Cz
Low
SR
##lings
##UC
unac
Change
incidence
1944
allies
insert
objection
failing
blogger
bullet
removing
##ranean
plugin
Family
bicycle
530
650
Mah
fake
##ayer
spac
seeks
preval
315
Contin
purchased
delegations
religion
imperative
distinguish
Natural
DB2
Modern
Field
Log
Liber
lun
tender
##bling
##ja
loving
seas
shoulders
##cule
regards
cord
waits
socio
conclude
vacc
journalist
phenomena
struggling
fracture
toilet
Bh
Cit
DP
Doc
Pu
bones
hob
sisters
##case
publications
delicate
355
Excuse
biology
Click
colleges
shipment
##ylum
475
substitute
eaten
constructive
graduated
colonial
brick
##zed
signing
swall
reflecting
packages
Trad
Additionally
Buddh
Summer
289
445
MC
bare
damp
sink
ugly
tokenization
Inte
reck
inters
167
elite
Independ
budgets
interventions
babies
recipient
Ambassador
sauce
GPS
Yug
##list
##pons
##istically
##acerb
secured
subjected
breakthrough
constitu
fleet
Fourth
Liverpool
Dong
NP
exacerb
regression
172
505
##gery
395
volumes
treating
submission
finishing
firmly
339
Croat
Currently
banned
cod
dip
rating
##IR
##LO
##ortheast
conting
##propri
scrap
Univers
assault
correction
distort
metap
delete
##878
breeding
inflamm
##regular
escal
Huang
Listen
Direct
349
335
Gall
##rons
##fire
##usters
##words
backup
guided
177
deleted
logistics
UNID
connecting
accordingly
spreading
Mexican
Members
Labour
DT
##hand
##yang
sake
crude
planets
148
restra
farmer
barg
cattle
literal
demonstrates
aggregate
procurement
Navy
429
491
Hon
Mid
duck
hiding
##MC
##isive
##usively
governing
295
##aughters
demonstration
reinforced
surveys
cylinder
BBC
Treat
ol
stun
##estion
asleep
dose
resil
twe
176
##508
costly
summarized
415
conducting
associations
Palestine
##holder
fulfill
Steve
arbitrary
enthusi
hallucination
379
bills
##eland
##izers
##eps
158
168
appet
mechanics
Germans
masses
eliminated
witnesses
489
511
GC
##iro
workload
##ologically
phases
##rolog
162
equilibrium
circles
troubles
timing
fulfil
accumulation
sincer
##onymous
545
535
565
Ell
Oft
diox
gases
##gies
##zi
##ele
##olved
checkpoints
1938
1962
fires
obsc
153
commune
Guinea
creatures
Account
calculating
pursued
migrant
purchasing
dragon
allegations
combustion
369
529
kube
1946
varied
USB
Charter
racism
History
Certain
231
525
TO
cum
dawn
fought
##ela
lover
##009
overt
plates
intra
subpro
verb
formulation
##plicity
endless
retro
ideology
lateral
editing
argues
exceptions
HTTP
steadily
Local
upload
rope
riding
##fish
forty
##pole
architectural
Princ
accompany
stretch
publishing
touched
389
439
465
539
Fif
golf
##otion
2030
mono
##enger
urge
ignor
Early
categor
cruel
novels
Media
Airport
Ethiopia
Near
Ts
##fly
##estyle
##eman
worn
prejud
pricing
securities
142
##118
considerations
455
employer
mobility
##ocrats
castle
beliefs
atomic
restructuring
261
479
Ban
##isk
##ettes
thrown
generous
blade
raises
talents
5000
uncertain
varying
GP
cure
##SL
##rage
##othe
prest
Commer
adopting
emergence
parking
Brazilian
outlook
seventh
Luxem
tremendous
Award
Boy
LC
Son
##stairs
1936
confidential
sharply
##ospheric
graduates
suspected
livelihood
Hub
Mess
##unate
transpl
partially
configure
twent
##ricane
featured
Soft
143
##117
poorest
##386
syntax
Milan
incredible
Imm
gast
##CO
##RP
##isible
##ribe
163
shortage
fragments
ideological
sunlight
Otherwise
traditionally
motivation
Jean
Mountain
Nobody
Dataset
Luc
cens
rape
##ni
##person
1947
league
##arded
stopping
calcium
edges
affair
Swiss
sweat
concentrate
poems
withdrawal
Irish
occasions
insecurity
Bir
Gar
Ho
hack
tent
##pa
##itated
reass
fore
comply
keen
##ructive
174
speeds
operates
adjustments
allev
Create
beside
469
435
Ever
Sri
rhet
##nan
##dle
inherent
##aran
##ques
handled
164
146
triple
casting
Edward
microw
jewel
321
AL
Hope
Yuan
Ze
lens
pel
ts
##care
##eling
##anth
plasma
Anton
actress
detained
awards
posed
biom
satisfactory
Access
Catholic
Yugosl
Friend
Ox
##RO
tomb
probe
##illation
compuls
perme
threatening
irregular
refugee
NGOs
UNFPA
449
lion
melt
##cular
##rea
##ila
##oting
upgra
safely
buyer
emerge
##shine
databases
breathing
prag
cabinet
reconciliation
Sn
##atis
shorter
##opher
attain
hadn
commands
subtle
invitation
slave
dried
speaks
prohibited
allegedly
331
Down
Moh
Term
binary
hed
lub
##with
##arse
stain
##otive
shark
impose
Annex
##retion
515
Application
routes
mixing
##urable
Swedish
executives
CF
KM
founder
wished
##rose
seasons
##andal
1912
alloy
##venant
Consequently
entries
joining
creature
flew
athletes
Drag
Line
cad
daughters
##orate
##omatic
##idal
seam
prototype
powered
maternal
CO2
Barb
##ascular
celebrated
stimulate
photographs
##otypes
Venezuela
dioxide
Cur
Gran
caf
ov
##jing
thrust
##007
internally
178
solub
405
quantities
##arios
surviv
explicitly
accommodate
Guangzhou
galax
Czech
Luxembourg
Azer
UV
Way
census
fried
pear
##qing
##GE
##ouch
anten
reaff
##ulent
enact
weird
smiled
##iterranean
lacking
squee
1958
balls
Secondly
UNIDO
Es
Emer
Kal
Keras
LDC
dent
dare
hire
##pin
##HR
##ano
##imet
##adata
##quet
1941
##iev
Stop
consume
grap
demanding
airpl
flowing
boring
statue
##version
brains
alignment
Amaz
blogs
grandmother
irres
Likewise
kidn
##ogenic
reception
Tribunal
gifts
cust
males
umb
##ked
##ga
ine
cheer
shore
189
metall
opera
similarly
physi
knee
Blog
squad
crypt
Hollywood
tackle
jurisdiction
refriger
Often
288
Watch
yields
validity
smallest
flesh
##space
skip
voices
graphics
##electric
##iasm
harmonious
globally
Moon
tanks
wip
wound
##DB
##atar
##seud
dozens
overview
redund
equitable
retained
256
Short
limiting
calib
Mediterranean
comprises
thoroughly
Dun
Ra
auster
bits
glow
##VM
toy
arrow
209
buffer
assured
drilling
competitors
495
versus
consisting
09
##OT
##igan
##oler
alliance
texture
funeral
152
mainland
optional
purple
waited
##ealous
supplied
Technical
criterion
queue
meteor
Foot
##rared
theater
##oln
unified
leap
textbook
countryside
affection
expects
##iodiversity
Expl
sensing
Carol
farms
aggression
negotiation
chairman
consolidation
inevitably
surprisingly
embrace
Portugal
telecommun
Tunis
syndrome
Cambodia
750
Deb
Kn
Pract
Vice
cried
##mate
##DR
cler
shed
debts
certification
automation
float
explosive
undermine
decentral
unnecessary
lubric
A800
LED
bite
##ST
##asi
##storm
modification
envelop
##ifer
crust
wherever
173
##ocks
medal
joke
trials
batteries
independently
reactor
settlements
sanitation
Listing
Virginia
Prosec
Language
271
SU
##kel
##TV
tom
clay
1900
##astics
##275
##264
pulling
Prem
##celand
departure
Fair
nights
##onder
toll
##opard
##acher
socialist
manufactured
blocked
mutually
provisional
criticized
Major
climbing
chaos
471
harsh
mold
##oa
##bai
##mans
##wear
shoe
clusters
2050
surf
documented
debris
varieties
##296
recommends
descend
Express
annoy
##ylene
Agenda
creditors
##thetic
liquidity
scenarios
districts
Officer
opponents
Vienna
341
Hur
Pay
brow
##oves
asylum
##ipse
visa
##686
drum
utter
NA
friction
gly
##yd
throat
##essed
191
noble
##acts
Alger
##conf
##ologic
demographic
##insula
maintains
crying
lifted
grandfather
surrender
Poly
sufficiently
outlined
Jeff
encryption
PHP
outdoor
431
421
Event
TR
Vill
cited
dwell
faint
pays
rays
##life
##uns
##008
generator
##iban
intercon
Soon
servants
slaves
situated
##276
optimum
UNEP
Marc
colorful
coupled
Everybody
exclusively
crowded
nursing
NEW
549
Iceland
PM
repos
##estone
Chris
1943
Almost
twin
grasp
processor
181
adaptive
guards
specially
Europeans
ranks
drill
Adam
Team
Resources
ethical
interviews
1960s
feasibility
austerity
Hand
fusion
gently
##iaries
##atization
united
scenery
desirable
bases
##616
baseball
Headquarters
temporarily
241
267
531
osc
sends
##vy
##inds
##ivities
acted
18th
appe
comparative
##neum
Phys
Maria
Republican
meantime
accommodation
gods
macroeconomic
inspiration
Fac
Linc
mentions
shy
seized
acids
##ichuan
nowhere
focal
advised
quarters
frustration
seminars
ninete
Ka
Rh
Ten
jail
mamm
##iracy
##building
##avery
decides
regimes
##tedly
seemingly
optimistic
##385
swit
attempting
assignment
crystall
ferment
lawyers
AND
diesel
541
HK
Kenn
Sier
coup
##iative
##fs
##str
##oper
##alled
resign
##ressing
financed
gloss
301
Sha
##376
accounted
assisted
punish
experiencing
panels
drying
Libya
fertility
legitimacy
encrypt
collapsed
381
521
Labor
dirt
hills
deck
coins
stepped
delays
1956
Zhu
infected
recipe
Muslims
intermediate
Bad
Tony
WS
cm
caut
dot
erosion
##fu
##yalty
##ols
##oping
notable
wording
1961
1933
1942
Analysis
backward
competence
512
animation
coupling
##viously
##ERT
billions
reservations
autonomy
Bible
File
Lank
Penn
RC
sour
##forest
deemed
contra
emperor
interven
patrol
##485
##265
Repe
specifications
excav
virtue
Library
Music
Priv
enthusiasm
Population
metabol
portfolio
Cir
Ref
##itual
thunder
afterwards
Ford
Forest
amid
insight
indicating
walks
1955
Accordingly
describing
diagnosis
cigarette
eligible
microwave
##proof
leis
strat
invented
##ucky
buyers
fastest
premium
281
Holy
Mu
Typ
pending
##ancial
Inn
shake
spher
overhead
texts
##itement
projection
##365
Prize
Parliament
Area
##ancies
augment
trapped
anchor
mystery
Girl
Hear
lam
pine
sits
##aya
unrest
idi
##486
automobile
Recently
scheduler
Brother
Prior
Creat
Yi
ero
##igration
##fulness
1200
predecess
corrosion
##896
impair
##266
causal
portray
occurring
negotiating
mandatory
scattered
467
Kon
Taking
##nity
##dong
##uese
thumb
##unct
enrich
##rup
instinct
##286
divisions
proposes
Taliban
Chel
Kat
##bec
dated
1910
leverage
pole
scaling
YouT
adjacent
consuming
conceptual
panic
secretariat
mandates
beaten
certificates
shrink
epidemic
compassion
introducing
227
Dri
mes
##mers
##uity
regener
startup
passive
comparable
relevance
##464
Arabic
willingness
garbage
461
487
Brad
Mao
ain
rows
##hot
##pered
1929
##mma
dependence
Too
Euro
##ova
breed
participant
benefited
monitored
packing
COP
elementary
constitutes
prosperous
scholar
Portuguese
TCP
Hungary
junior
##oubtedly
237
361
Dom
Neg
Text
pants
torn
##DM
##ighters
##ortex
decom
rede
selecting
##496
directors
furthermore
##ylon
apparatus
##integration
mysterious
371
Nick
PDF
dining
pec
veter
##oved
##fur
##orious
##idth
##idency
reun
Inspect
##ipedia
socc
workforce
##216
##ourable
absent
rocket
parks
smoothly
adequately
witnessed
Moz
##chester
Francisco
spokesman
invalid
soccer
GU
Yellow
bail
crown
mould
naked
pier
##rat
##she
##ois
##IOS
toys
##adi
##iration
unions
##696
admission
influential
definitions
favorable
Madrid
globe
fertilizer
eradication
Rwanda
Lincoln
377
481
GR
Iron
eighth
vine
wre
##zhen
lovers
##points
##udge
##away
Whatever
sket
509
condens
activated
##ennial
physically
responding
declare
namespace
attributed
Commissioner
##break
irrigation
Strategy
Sierra
Maur
##imp
prone
inches
##angular
arising
smugg
presc
##gradu
insur
servant
metadata
##684
##285
cycles
Financial
consisted
females
ladies
remarks
furnace
gentleman
Fortunately
Santa
recycling
Azerbai
367
Youth
dull
fits
laz
pir
##try
##len
##SC
shield
retreat
401
limitation
waist
treatments
silly
centered
titles
supplier
##abetes
Cab
biodiversity
cope
dy
jam
penc
##uty
bean
##olar
shear
simulated
187
pointing
expecting
##344
crossed
steal
Guard
borrowing
inherited
Boliv
contamination
Age
Lith
Tommy
##reeze
buff
Andrew
##706
slipped
##274
##384
264
sooner
occurrence
Key
counterparts
tournament
287
337
Rio
pound
##rh
##iating
##olds
sew
##ulty
tune
solely
investing
ski
Program
filtering
21st
elimination
approaching
##ompass
bottles
distinguished
##ogeneous
08
Broad
aver
##isal
intend
##rub
##icts
offence
meanwhile
metals
computational
broadly
strikes
Abd
palm
Emperor
Golden
caution
YouTube
Az
Coll
Different
drow
##jin
##arin
##pless
##ogram
secrets
curious
crimin
currencies
facial
template
##284
1957
gardens
Harvard
constraint
flooding
auction
autonomous
fantastic
699
##CE
##TR
##inely
##forcing
los
implicit
plun
##lows
coin
highlights
insol
guitar
##396
##475
descent
UNO
decreases
Orig
releases
irrit
racing
manipulation
sincere
jacket
volatile
LDCs
561
IF
Rog
Rub
##drop
##uo
##igm
exagger
regulate
##aws
curs
recognizes
metric
efficacy
Coast
freedoms
appreciated
unfair
frustrated
Professional
insects
Environmental
Daily
Jama
PE
Type
pseud
##isers
stub
proxy
suited
betray
encompass
Wei
revision
##erto
lasted
exploring
##416
##print
##366
integer
##bye
1953
screening
snake
belonging
switching
Operations
authentication
cavity
oversight
Jing
Oil
##piece
needle
counting
consp
varies
##816
extr
##465
literacy
innovations
renewed
electronics
Lady
announcement
interdepend
DO
Less
Sab
Sichuan
fog
tiger
beans
maker
enlight
##oped
notably
translates
healing
abortion
Staff
grinding
preservation
artif
infrared
##476
##474
##ugged
wax
misunder
killer
Photo
Generally
geography
chemistry
rotary
pigs
illustrated
Cultural
imbalances
1st
AG
TB
tide
##fa
##heart
##unci
206
##aki
Ali
wheels
curt
##685
##eadm
reliance
##ringe
traveled
worthy
lifestyle
utilized
mortgage
molecule
satellites
affordable
Estab
Implementation
488
CB
Grad
coding
zinc
##iates
##hr
##enh
##una
##istence
1919
predomin
Ash
frames
invested
Shi
##675
##atories
Reserve
credible
enjoying
conditionals
hurry
excluded
advancement
ridic
synthesized
Large
Wikipedia
Save
##inh
##rem
conve
1918
##705
possession
Someone
supermark
photography
1952
planted
Studies
##onald
hammer
Susan
##width
##ulse
logging
neat
##keys
spont
relies
noon
##phone
glory
##374
terrif
##910
Sche
ethics
Imag
Congo
twentieth
SE
dorm
gor
##TE
##pert
##aste
longest
highway
##upp
comparing
##466
Internal
blowing
motivated
obstacle
reminded
tactics
##ispens
VI
jealous
##eu
##uit
##EAN
stew
##796
251
restoration
closure
essay
substit
automated
1951
demonstrations
Republicans
cooked
coalition
reciproc
shocked
scheduling
licens
kubeadm
altogether
Alexander
exhausted
geometry
imprisonment
linguistic
rhetoric
388
599
Card
Ep
Hit
Snow
erect
tin
##dam
##Hz
##idel
Incl
exem
cancer
Chamber
incon
1932
acoust
Stra
##iolet
##375
maritime
freeze
combating
hosts
Developing
insisted
Treasury
sacrifice
despair
rhythm
441
CM
Gender
OC
Rac
hep
vivid
##iencies
##itives
traits
compute
resumed
intent
indispens
Heb
passport
importantly
charity
governor
##704
exceptional
Redu
weapon
volunteer
unreal
inquiry
Crim
Dra
lately
rack
vi
##icism
##olph
##anting
##ogs
##obil
Along
trash
cleared
documentary
builds
##405
letting
##316
purely
succession
sunshine
Manager
femin
purchases
unemployed
pepper
liberty
indoor
Captain
metaphor
BR
Lind
##oons
shots
soap
perf
upcoming
sentenced
smiling
formulated
##805
slavery
filed
risen
replacing
##iki
assessing
merits
duct
exploit
shifts
pods
complementary
amendment
mercury
Bosnia
umbr
387
327
Ara
Mun
Syn
laug
##col
##atics
##child
##ige
washed
chin
assurance
carp
planes
endanger
downward
##804
foundations
Process
listened
optimized
closest
variations
Manchester
cyber
merit
woods
premises
murdered
HC
Lan
PP
rh
##gle
##fig
forums
##inted
##ropic
percept
classmates
glac
explored
##304
envis
indication
gasoline
Image
jointly
recalled
wrapped
dilig
escaped
browser
compulsory
Cold
Mater
Ru
Tong
Uh
dangers
fence
ritual
tire
tensor
anom
stadium
##izard
reporters
apples
offences
patent
pipes
212
expectation
printer
shipped
brave
demanded
Plat
renov
undoubtedly
##ORD
Market
shelf
Ukrain
ecosystems
reversed
Chelsea
02
MA
cute
gamb
forese
##forward
##adel
sus
plural
presum
readily
distract
##athan
##295
disagree
incredibly
undersc
Fut
Ros
cage
dar
lin
pneum
##name
##Gs
trail
##unity
##igraph
##bery
##pectives
buck
grades
##ribution
awa
##716
Arts
##484
winners
strive
encourages
screens
deadly
Something
vitamin
Hay
ft
lith
##LP
##NN
##odel
##odied
##ceans
##emia
##umph
rescu
carb
##395
##364
collision
forgive
corporation
Digital
Integ
##manship
Full
Perman
aunt
bands
eg
fond
fitness
##cient
##FA
##atal
##real
##amil
##imony
upward
204
Stone
targeting
wanting
assass
aviation
rainfall
Recent
shifting
subregional
tsun
690
Him
Lat
Mi
##yard
##wich
##uten
##essim
outline
Chi
198
intake
workplace
reductions
##airy
captures
curves
trim
Howard
approached
##inson
fluor
devil
potato
breakdown
silicon
##umbled
dissip
eliminating
Choose
hardship
610
Xiao
##zan
beating
##ulas
unequ
bye
infinite
filters
##604
landed
budgetary
calculations
doubled
celebration
Usually
relaxed
weaknesses
Corporation
Kent
Kate
NAT
RA
Tay
bund
fart
lend
##300
maj
unilateral
##ropy
1914
plenary
systematically
##205
politician
##695
##676
fathers
destructive
##rusted
trips
durable
advocate
magazines
Darfur
ranked
abundance
Michel
##mmetric
gauge
Belgium
spectacular
Amazon
indispensable
laughed
Sel
ecl
fr
##nie
##urated
orchest
intentions
underest
qualitative
##iments
invisible
formally
##895
##795
##674
accountable
menu
diabetes
decreasing
positioning
interval
1959
graphic
acceleration
triggered
Morocco
electromagnetic
HS
UC
gaining
hug
lugg
##ride
##oven
##etics
##omers
##urches
##ston
subur
handic
clearing
impressed
Proper
##886
optimize
Exp
Engineering
##244
sensors
referendum
spirits
wondered
Learning
Radio
Cyprus
477
Flow
Ye
cro
yog
##DL
reign
valued
Stock
Alban
offensive
184
realizing
##305
Death
paste
brake
primitive
Leone
slee
shocks
Sudden
Anti
entrepreneur
subprogramme
Ach
Mechan
Merc
Pier
Ug
mang
##function
tract
atoms
##opy
aller
##ieves
Alice
Albert
questioned
bride
ministers
##204
##894
##404
##294
organisms
219
amongst
Russians
hosted
advisory
downturn
desperate
Kazakh
Nature
echo
pond
##har
##aire
##HA
##NT
deput
##gets
207
simplicity
ministry
##694
##315
291
combines
Phot
Perform
ASEAN
Experts
protocols
anxious
sixty
Mongolia
monopoly
590
819
Ger
Word
Yemen
hitting
kg
##roup
##gart
##inational
decisive
##osex
##engthen
##806
##394
##495
maturity
allowance
217
talented
Leon
synthetic
Appro
Ross
handsome
paths
voted
Brook
##burgh
Garden
criminals
suscept
Fact
Nam
cran
tenth
##iams
##bes
##dition
##esity
##cked
prere
1937
##asting
sciences
interc
501
##815
##606
nearest
urg
miser
linking
##afi
##group
threaten
associate
emphasizes
secretary
Charlie
distinctive
humor
streams
recipients
disappointed
CUDA
Football
07
238
Fun
Osc
Pa
Sin
wins
##eous
toss
extending
unav
reset
scored
disability
##ensions
depressed
perspectives
17th
##504
##306
##794
##494
##605
risky
lacks
collections
variance
convince
Zhou
rebu
consequently
Point
Guangdong
Histor
deliberately
cereb
Permanent
437
547
Game
Rod
Sci
cuis
picking
wil
##vial
##orp
tragic
loyalty
##thur
##aux
##oca
flies
remedy
debates
##715
216
##885
fluores
Indians
portal
weaker
hostile
Contain
lifting
oxide
Study
flags
ceramic
fibers
Lie
SME
fest
##nership
##TF
##heim
##atoes
##orus
intoler
patience
186
realities
247
##875
##mann
freezing
Donald
oxidation
doctrine
##semble
neurons
ambiguous
Die
Eric
Fox
HR
Ly
##NG
procl
cant
goss
197
amino
presidency
folks
scripts
259
organizing
##314
ell
226
accepting
Covenant
preferences
illustrate
laughing
Joint
Film
dismissed
Ult
Lithuan
999
Draft
G20
pand
reuse
prince
overconf
1928
confined
firing
verte
dont
##206
##116
matched
##714
##874
detecting
steering
Partnership
##uclear
##shan
Additional
complications
##comings
bandwidth
##hetics
warehouse
antibiotics
447
EM
Map
cents
##mun
##ancer
##asis
attending
boots
monument
Ask
##506
refined
##876
hollow
geographic
affirm
grants
vegetation
Buddha
Movement
Computer
ABC
Feng
Qin
Tri
VII
keras
##onto
##elle
##ishers
##works
183
engaging
endors
owns
protesters
##615
profiles
UNI
399
##annel
consumed
promotes
1954
seller
Consult
Config
naval
Lebanese
compatibility
travelling
dissemination
abnormal
harassment
inheritance
347
Hang
Sit
Wars
eternal
fron
##via
##iri
##irmed
##agle
queries
invari
speculative
wrink
expon
shortcomings
poses
##215
214
extends
299
##scious
Really
excitement
lacked
administrator
estimation
counterme
attendance
negotiate
Medic
hospitals
controversy
neighbouring
inferior
precipitation
Serbia
luggage
Gates
OEC
Ron
dub
pessim
##tion
##ithm
hey
placing
##assium
scra
Analy
monarch
Android
##415
Climate
microscop
exclusion
permanently
advocacy
pupils
accelerated
scanning
downtown
urgently
Hans
Rain
Rules
UI
ah
mesh
pestic
##MW
##ilton
##owing
##iral
alge
loyal
dropping
disl
gradual
adjusting
optimizer
missile
##scope
swift
benefic
taxp
likelihood
##after
arriving
pollut
Williams
Barack
##ummy
floods
nutrients
Lanka
268
427
527
725
Dave
Rose
Si
Tao
bis
fitted
lod
##hell
succ
thematic
##grav
carpet
practically
##214
218
##884
USD
strongest
princess
##ovak
pressed
tele
suggesting
Region
maximize
malaria
tightly
extracted
##racies
skept
helicopter
cousin
Yugoslavia
336
710
GIS
Total
Viol
cater
hinder
holy
lakes
##320
##ref
##unes
##riages
worries
overnight
decoration
##ishop
intim
seldom
peas
Always
Progress
Shu
march
Adop
reasonably
mush
dialog
subjective
packet
spiral
uncomfort
consultants
##uilt
foolish
stranger
Crime
Voices
fierce
airplane
Suddenly
Dream
rally
##wen
##HS
##atical
##enter
##lete
##ected
deple
##appropri
##auc
Things
208
##obia
commem
carved
188
monkey
glance
inserted
demol
charming
evaluations
##614
discourse
Excell
figured
obtaining
commander
sorrow
radioactive
accumulated
gratitude
06
Fle
ber
##aque
##ati
##ori
altered
chess
sham
##ounce
resur
##hedral
justified
obl
generalized
problematic
##115
Beyond
224
Cloud
adopts
collar
multipl
submar
fundamentally
rooted
atmospheric
Construction
throwing
proteins
Increased
umbrella
Southeast
Uz
cush
yen
shine
orph
scandal
##agan
blend
assure
surpass
309
prevailing
##406
##814
archae
viewing
enjoyment
fairy
rebell
roller
subsidiary
holidays
CNN
volatility
Scottish
Jacob
unaccept
repository
appeals
Frame
Need
rif
ranges
ward
conquer
##aments
sho
chairs
grains
buses
artic
##redict
nonetheless
391
renown
compensate
sacred
Nonetheless
paradox
elaborate
Encoder
conjunction
Saharan
Azerbaijan
Aven
Especially
Reb
Tu
Tax
breeze
knot
##days
anat
##asa
##ranium
##olation
##irth
valves
seaf
spur
spill
cleaned
scales
##ags
deserves
regulated
surgery
clearance
realm
prevents
refres
radius
equipments
investigating
planting
duplic
suspicious
breathe
absorbed
##writing
evolve
kilometres
dictators
Culture
Columbia
338
Base
JP
Ott
bay
bark
tale
##hole
##itud
##role
##pop
##ushes
196
obesity
##atherine
deflation
minerals
nationalism
Advisory
##umps
historically
imagined
affil
transmit
Hamas
pedest
virus
Hawai
Liberia
Criminal
AB
Bran
Cape
DM
FC
Round
fancy
mant
##sm
##mond
##odox
rever
suits
attraction
clarity
subway
laying
##mmetry
formats
discrete
284
expressing
655
deadline
guiding
4000
sincerely
OECD
03
Fal
MB
Maced
jumping
lighter
##cul
##imens
enforced
shade
##due
quo
boiler
182
charging
preview
451
individually
schema
origins
taxation
##ylvan
tastes
rejection
Introdu
scarce
elevator
seminar
extensively
625
720
Crit
Marsh
nested
##utter
stays
##ifiable
Thai
systemic
##actic
blo
##505
electoral
discretion
topology
preventive
Palace
Monitor
liquor
researches
prompted
incorporate
Multi
Nobel
championship
##ropolitan
knees
Cant
Grow
Guate
Lew
MR
lined
sul
##national
##oard
##orse
##unting
runtime
##uscript
hex
smok
##414
Place
Pho
delivering
medicines
manipulate
climbed
Guatemal
EP
Task
mi
northeast
##chi
##estock
##ourge
reporter
disorders
interim
retention
traders
vocal
trucks
slowdown
##anny
terrain
Order
standardized
professors
continuity
dressing
worrying
empire
cartoon
scarc
Burund
wavel
ancestors
volcanic
puzzle
lobby
reluctant
Current
Dark
SW
Together
bent
pap
punch
##VA
##oured
repay
Unable
##ielding
228
359
freight
##fficiency
borne
damaging
##naire
Carl
restriction
researched
respondents
bleeding
preceding
mosqu
Toronto
Clearly
appetite
Imagine
tsunami
overconfident
366
537
Bell
FA
Fine
Gib
HA
Ted
Taj
bore
font
##lad
##OW
##UL
##isations
##urate
canc
defer
##iph
dos
1935
##plements
##ocide
underwater
punished
ratings
midnight
resolutions
##ORK
chromos
fascinating
neglected
tangible
theatre
Costa
stainless
570
660
Find
Sher
Sustainable
Xu
dye
oceans
##gus
##UR
foreg
##imeter
orn
churches
1916
dispro
handful
bloss
simulate
activation
409
316
##bek
colleague
circulated
attacking
challenged
715
wondering
IPv
strengths
doubts
catching
bubbles
Initiative
prostitution
opponent
Cypri
casualties
rabbit
hypothesis
Algeria
FAO
Hig
fox
gates
halt
##inge
reimb
exempt
enters
incurred
Strip
Anna
##fty
speculation
corrid
openness
##114
##444
battles
modernization
telesc
craw
geopol
angel
bankers
Herz
acquaint
suspic
simpler
lectures
Cook
Rot
Zimb
nurt
sne
##381
##gon
theft
##otes
##ateur
##irs
Transport
##rypt
lever
manuscript
machining
boards
continental
insult
governed
splend
351
potatoes
Yesterday
Recommend
Roma
ambition
praised
launching
knocked
turbine
##senal
Scientists
prolonged
soluble
survivors
custody
Eventually
mushroom
Ale
BE
PA
VC
Wa
races
tet
##his
##ycle
##woman
##ón
##izens
##emet
##dering
counted
flip
##ixon
insights
##arms
awaken
Works
contributes
Reform
##ophy
Syd
fatal
agrees
robots
queen
Jimmy
repetitive
privilege
Bulgar
IAEA
Der
Les
OP
Ping
##lined
##zh
moder
##achers
1915
boiling
colours
##redit
Shar
respects
Level
sunny
##govern
beds
Deputy
enhancement
homeless
mitigate
episodes
cuisine
567
Happy
cows
dile
ozone
uranium
wipe
##371
beams
##otechn
##ulin
##opic
asy
194
##itty
##portion
quart
accus
reminder
##lessness
imply
Around
##undry
triumph
Governor
illum
bloody
sells
Zhong
shaping
evolutionary
reproduction
consolidated
prayer
entrepreneurship
adsor
Cru
MO
Qi
Wales
founding
lane
##kh
ank
##omed
notification
compiled
ours
amended
preserves
phon
##hesis
Connect
hurricane
deficiency
Looking
illustrates
Romania
Sarah
Safety
Armenia
dysfunction
##ylvania
Bac
Cut
Dor
Ein
Making
Success
Vide
Wan
dairy
ninth
pork
##nom
##389
##331
##361
##ecraft
sealed
##ousing
feud
2025
ammon
prescription
openly
listing
319
lightning
deviation
connects
massage
epit
permits
Country
Disarmament
frost
Front
Tro
fount
owe
##bound
##arians
##earing
exert
prey
recurrent
nood
cohes
handles
originated
judiciary
Earl
oxid
Philip
Territory
consolidate
altitude
inspire
intrins
condemned
bombs
bankruptcy
leisure
GUI
Zimbab
324
585
jade
lining
##iots
##339
##369
inert
##arus
rewards
proposition
##anta
disb
coated
carriage
Contract
marble
459
complained
draws
##shore
McD
User
melting
reconstruct
unwilling
sulfur
Motor
administered
Ghana
beneficiaries
Bring
Ide
Link
RS
Wat
dens
gig
mate
mart
zoo
##eches
whist
china
##ported
swept
salaries
barrel
warran
supervis
##rapy
Compan
Provision
simplified
privileges
##keeper
transplant
renowned
Zimbabwe
630
MI
ME
Pear
eats
fare
frank
hits
##asia
##owers
##amation
##izable
canal
overc
incoming
safer
trunk
awk
impartial
bending
298
postal
UNM
quoted
withdra
torque
Tibetan
tariffs
Croatia
635
Band
Mos
Nik
Prop
##nish
##sylvania
cliff
disin
##obic
easing
invo
##evant
insulation
charm
conditional
applicants
airline
environmentally
##overs
calories
claiming
Decoder
Twitter
harness
utilize
##ipei
shells
propagation
empowerment
persuade
##minbi
recruited
peripheral
censorship
uncomfortable
Iss
Must
Money
Pap
apo
rer
yarn
##hire
##cents
##isan
tray
chim
reloc
counts
boil
verified
guilt
socially
297
Arctic
potassium
destiny
conception
floors
Twenty
joints
infections
kidney
garage
Democrats
Planning
SSL
favourite
livestock
populist
accomplishments
unhappy
tricks
Budget
antenna
Danish
Pos
Psych
Sav
ram
##fare
##inator
##initely
bees
rew
##thy
1911
deciding
depreci
proves
performs
##egas
Beh
flux
diffusion
salad
hierarchy
conviction
595
formerly
epic
prefix
troubled
graduation
Lastly
Sami
Statistics
Basic
sponsored
##graduate
2D
680
Quality
Search
Tower
Upon
Virt
##ean
##379
##bury
##vency
##wed
##ayers
##ivable
1924
##ocracies
Anne
Alf
Week
secular
1300
solvent
slog
266
enjoys
rotating
prisoner
parallelism
Communist
faults
frog
foam
poured
Taipei
Return
chapters
bronze
discontin
428
466
575
620
Ball
Cam
XX
eco
##Pol
##uri
##utical
comedy
adhere
2021
consecutive
Whenever
predictable
economical
gluc
defensive
supportive
impunity
278
232
successor
damn
Colon
arrives
feared
magnific
contrastive
straightforward
Intel
rendered
##borne
enzyme
brutal
adhesive
algebra
Sydney
911
Gord
Hal
Ling
dwar
vapor
wires
##itic
stairs
##imited
shirts
sperm
mayor
repro
clamp
intest
##aska
colony
grounding
crashed
carc
este
apps
skelet
header
419
Ent
wallet
genome
painter
urbanization
Series
advocates
Antar
confirmation
tubes
wavelet
Universal
Kennedy
Pennsylvania
##roleum
328
Core
Gab
GAO
fax
gam
hiring
lamb
rushed
sab
##front
##GA
##anim
beverage
reef
##riev
wors
spends
##asted
##astically
disciples
desires
wells
corners
##evin
recognizing
positively
happily
Arthur
605
Closed
551
analyse
influencing
##boards
senses
drafting
accidentally
motorcy
Throughout
induction
Clean
teenagers
Wilson
Shenzhen
safeguard
remedies
jewelry
lazy
unacceptable
Bulgaria
580
GS
cables
kings
rated
riot
tier
##orer
##orney
towers
##reach
##entine
##urely
##iliary
stance
stole
connot
wasted
maneu
arises
##ochemical
balances
breach
treaty
physic
damages
Prim
blocking
routing
terrorists
exhibit
simplest
nominal
contaminated
drainage
pragmatic
Prosecutor
##Policy
536
591
665
Fel
wond
──
##des
##rade
##ighed
shaking
repatri
offs
righteous
carn
slice
placement
discoura
519
massac
timber
wastewater
Disney
nuts
Hua
commentary
promptly
municipality
propaganda
Ukrainian
Sciences
wavelength
446
Cra
ON
Sad
WHO
Yin
hect
jazz
lav
southeast
wolf
##FT
##asive
max
pockets
##ieval
Steven
Altern
indul
justify
specifies
formulas
304
Alliance
terra
violated
triangle
radi
priorit
referring
drawings
constructing
symbolic
facilitating
constrained
juven
strangers
amendments
Temple
apologize
hobby
sewage
##emetery
348
566
735
FBI
Wild
purity
##rels
propri
alia
prud
verbal
minus
257
profitable
dominate
Amy
##rability
injust
Zhao
Index
Neither
navigation
undertaking
threads
##bourne
tags
rendering
Stephen
disadvantage
adventure
ignorance
Jamaica
Uganda
awkward
670
645
Night
fame
masc
zip
##rite
##iors
##Class
##din
##wa
##rays
##amas
##pler
indef
serum
vert
##aires
selective
specialist
Prob
priest
tablets
Newton
##777
cellular
386
geological
Measures
Carter
holders
burd
neighboring
Auto
##ECT
collaborative
spotted
Cuban
1950s
Hyd
spinning
neighbourhood
disadvantages
deterioration
Certainly
gossip
FDI
HD
Raj
Ut
aux
cite
hated
lap
tran
trauma
beaches
##amics
##izza
1922
2022
nets
monster
306
solo
receiver
246
248
Arm
Spir
accessories
##990
559
digest
nationwide
nutr
##ippi
petition
##hui
diamonds
Ident
buttons
elephant
pencil
Companies
368
Gil
Page
Tool
TED
bun
hint
junk
rental
##rint
##aver
##ambers
maid
meg
##acc
manages
graft
suppress
technically
wrest
16th
idiot
populated
##neys
antiox
Ens
illusion
Notice
angles
renminbi
destroying
Indonesian
possesses
Help
crafts
perpetrators
mobilization
Cameron
enlarge
retrieved
reorganized
Dragon
Establish
Taylor
Uzbek
675
747
RB
Sep
SAR
Tupp
jer
masters
oven
tat
void
##TH
toug
cheek
incumb
detaine
blamed
##awi
Beaut
277
286
welcomes
rebels
interviewed
habitat
attachment
devastating
advertisement
Nazi
vendors
metabolism
546
CI
Care
Hem
Jos
Lor
Las
Wow
##table
##burn
##onies
##orrh
##urbed
##sever
compelling
1917
peers
undergo
##ickr
questionnaire
307
advise
medi
nationals
##ugs
Obviously
threatens
nucleus
assuming
scrut
disciplinary
stems
overlap
Electric
jeopard
Industry
alpha
olive
##unciation
326
438
640
Effor
Final
Gor
Graph
Len
nons
pp
wounds
##bul
##eday
##oda
strap
##pograph
imposing
Forces
##ograms
aggrav
thereof
quote
courty
preparations
meditation
drip
296
Comment
shareholders
basement
microscope
wears
museums
decorated
blessing
Kazakhstan
Tuppence
426
548
Abs
Drop
Live
Mobile
TM
es
mour
##mail
##uters
##lyn
##ifiers
##enched
conscience
optimism
##beit
remainder
portable
##afe
Period
615
embar
denial
Single
diplomacy
forecasting
theoretically
pronounced
sculpture
nickel
PVC
fisheries
cinema
catalog
Tunisia
rebuild
Avenue
Burundi
cancelled
4th
436
CL
bass
civ
##eda
##itious
thief
##owl
##illary
seiz
unhe
heated
selfish
##aware
concerted
308
locate
advancing
292
posture
bored
legally
favourable
villagers
pretend
dissert
disciplines
Enterpr
Duke
pyram
weakened
vigor
tomato
Half
Lay
Ori
Pack
SV
Zhe
##349
##stal
##ounced
1925
relat
relational
featuring
##weg
caring
trun
##egov
balcon
236
234
absurd
slept
695
##umbling
Recogn
indexes
evolving
suspects
mitigation
Tanzan
coordinates
searched
grammar
##itudinal
346
Airl
Liter
OIOS
Pope
Zheng
mall
##mn
##lan
##esome
expose
wholes
##orted
relay
##agged
makeup
likewise
inclined
1890
357
276
Individ
Doha
Guide
linkages
sensible
##inois
fifteen
remarkably
rulers
proportional
chaotic
cylind
aspirations
Coordination
portrait
448
534
740
Case
Ecu
Fried
Jam
jar
oct
##boy
##zes
##Ds
##HT
thirst
##cking
##abs
sealing
scroll
##aceutical
Stay
ammun
blu
obey
issu
skull
activist
314
lightly
lowered
winding
superst
##ika
embark
Firstly
Anyone
kicked
throne
bugs
jeans
shouted
Participants
upgrading
Erit
Eval
SH
dumb
hoc
ket
lively
lemon
ripe
##cal
##log
##inet
##rob
##lysis
Inv
##uliar
shining
##product
abrupt
clo
countless
Anth
continually
termination
infilt
252
mediation
extin
Deployment
244
Africans
warnings
Leave
immense
Abra
circuits
cultivated
electrode
clarify
suffers
derivatives
gesture
Railway
incompat
appraisal
CV
Farm
Nag
Tob
Xiang
bend
##380
##311
##329
##321
##341
##giving
##Name
##atched
##ioned
unim
uneven
outward
hash
subcon
grim
bucket
creep
greet
presentations
##overed
successes
appearing
integrating
collectively
Ohio
Overall
fragrance
luxur
stipulated
prevalence
artifacts
04
2nd
538
528
DE
Dur
Wolf
pave
##bid
##vity
##yer
##enoph
##atural
##olas
##resses
commence
interrog
302
Beach
317
eleven
domains
admire
417
705
amounted
Plant
fellows
psychiat
touching
medication
municipalities
paradigm
condemn
Industrial
leakage
descriptions
Lisa
Traditional
Nearly
prejudice
oscill
##governmental
Beg
Err
Ice
Jup
Pur
Sky
jury
rounds
##ede
##eliness
starch
spy
##imental
worlds
##ribes
respir
locom
followers
publicity
406
faculty
318
397
neglig
##778
editors
hopefully
486
audiences
concentrations
Morgan
induce
##iosity
##ymph
cultivate
Write
bureaucr
Victoria
Future
embargo
444
629
Bai
Fab
Lam
OR
##ei
##350
##368
albeit
##emark
empir
##ostic
evid
##conduct
developmental
multilingual
practition
slot
logo
viewers
careers
swear
ensured
Exchange
traded
divine
negotiated
Compet
succeeds
borrowed
Summary
methyl
contradiction
pledge
Double
ineffect
Oscar
countermeasures
Efforts
Ecuador
691
Ec
FOR
Kir
Vin
dw
laughter
piv
##hook
##hew
inability
##iti
##iscipl
stal
##illery
##usp
spouse
resent
persever
liabilities
textile
##iah
##ailable
interl
instantly
beloved
earning
explaining
407
404
kindness
slowed
Stateful
##664
322
Resear
stealing
frontier
administrators
initiate
cruise
Autom
Angola
ruler
shadows
Operation
romance
pillar
chromat
broadcasting
disclosure
deprived
assembled
Yunnan
Illinois
hedge
telecommunications
envelope
Village
peculiar
Framework
432
5th
685
Cond
Hom
LA
Seven
bib
cough
poul
tense
##330
##held
##utable
proxim
##assy
Allow
Andy
marking
defending
sometime
704
342
genus
genocide
sunset
warmth
polls
arguing
##gregated
navig
hypert
Peacekeeping
athlete
gallery
catastrop
Strengthen
adolescents
##forestation
proclaim
endorsed
ammunition
468
526
850
DA
EPA
Hell
Hond
Hug
Present
Qatar
RE
Toy
nail
##rors
##370
##328
##ml
##lose
##OD
##ximate
##etts
##omical
traject
loses
##emost
suite
##005
1921
carriers
whereby
distress
skirt
242
##ynes
##affe
understands
Left
exchanged
Polit
exported
##ometown
blown
simplify
passionate
daan
Silver
richest
hazardous
Puerto
acoustic
Herzegov
dissertation
334
BY
Jia
Ty
rivals
woke
##hop
##367
##uments
##In
##Net
##orial
intends
pean
coherence
herb
economist
belly
multinational
258
507
restoring
authorization
groundwater
capitalist
soldier
constituted
settlers
forestry
##ammad
pilots
Napole
##ponsible
Bolivia
Herzegovina
Buck
Cairo
Send
YORK
bind
mism
##iens
##wall
inefficient
##entric
stair
Thee
conduc
deer
##umble
##iper
##avil
intact
confisc
subd
revenge
15th
backing
broker
##ansas
Beat
healthcare
##neath
authoritarian
UNR
youngest
competitions
416
##999
497
laundry
cups
##elta
contractor
##helor
reactive
facilitated
appealing
storms
blessed
confrontation
Various
penalties
NATO
Higher
antioxid
conducive
745
Brian
Lock
Want
Yah
dread
fry
sib
##337
##fold
##atable
toe
comic
##ploys
##ante
##andy
intimate
##agua
##ardo
qualification
predicting
goodbye
coral
##arma
locals
medieval
222
358
Nowadays
##666
motive
credential
appropriately
stresses
seasonal
fairness
##ometry
northwest
Medical
humil
turmo
Poor
commented
Confuc
advocated
Defense
convincing
merchant
viscosity
Oxford
##atisf
Platform
##appropriate
turmoil
711
730
Brand
DS
OB
Source
pizza
##erated
##orable
##alo
stric
##imated
neu
chun
outbreak
##ogy
1934
plum
redist
##achus
testimony
organisations
presenting
294
274
protects
similarity
treaties
holder
conventions
balloon
neighbours
rainy
1907
Simon
Prevention
graphs
graphical
mathematic
homosex
troop
airports
hatred
regulators
divorced
astronaut
persistence
occasional
Personal
Urban
649
619
719
DR
ER
GA
Jay
Matt
PID
iv
roses
vic
##eenth
##Script
anonymous
fork
##istries
liable
254
##ameters
elites
Relations
282
474
362
assumes
##hyde
tissues
pillars
ruin
Cambridge
Agriculture
prerequisite
3rd
424
Aqu
Fisher
OHC
YOU
dive
fist
grief
pity
vain
##rason
##340
##387
##gust
##ycl
##erver
##onian
##anch
revel
##igo
##izhou
##rians
uniqu
##uds
1927
subpar
amateur
specialists
updating
sexy
panc
resolving
Supreme
Flickr
Communication
sadness
conversations
vitro
bonus
diversification
butterfly
fantasy
resilience
refrigerator
##igraphy
Aw
Awards
Fat
KP
NT
Nar
Rena
SM
Ton
bip
##bits
##dad
quasi
distortion
issuing
262
396
392
516
semester
convicted
concludes
compliment
Depression
Assess
numeric
ecology
immigrant
dominance
mainstreaming
Freedom
contradict
cigarettes
inflammation
Private
geopolitical
dilemma
EX
Hold
Nich
gon
tiles
##tr
##bial
##uay
inverse
##urry
##igs
enqu
unm
Chong
infants
socialism
archive
457
378
Enh
companion
364
Apply
mistaken
##ambia
surviving
##marks
petroleum
sticks
##locked
mobilize
Architect
Strong
Customs
enrolment
photographer
intersection
Software
encrypted
Repeated
miserable
Container
577
661
Gate
Kevin
nas
rage
##ti
##388
##attle
##kends
modular
deaf
precon
compressed
heap
abuses
disgust
wrist
16000
356
272
##991
476
384
credits
mounting
Above
transported
Imper
##uzhou
shuttle
proceeds
unpredict
apartments
blew
hormone
gymn
lunar
Hitler
detainees
544
BERT
Dick
Ker
Ning
RO
SN
hometown
wander
##lies
##itating
##aba
##004
outrage
1931
##oused
##ressive
awful
MyS
##class
376
518
variant
genius
422
attracting
humidity
delegates
crowds
vibrant
implied
prosecution
##giene
enclosed
livelihoods
Individual
extinction
StatefulSet
##achusetts
434
522
669
CAM
Imp
Juan
Mail
Nixon
Sports
sid
##houses
##liness
##án
rejo
##see
##ando
##andong
##rices
Unity
curtain
awake
entrusted
temples
architects
devote
energet
Clar
Close
557
517
##grounds
travels
quota
Simply
Conclusions
forecasts
tribal
pumps
earthquakes
stretched
Administrative
bacterial
polarization
synchronization
penetration
discriminatory
stagnation
Typically
feudal
Jupiter
OHCHR
569
532
611
Catherine
PK
Paper
RF
Rab
RFC
fost
pumping
v1
##oqu
##bin
##master
##Map
##pear
##UT
##YP
##inence
##rost
isot
##stick
rehe
foremost
exterior
seize
##006
Chan
helpless
acet
beta
newborn
Alph
accent
persec
democracies
downs
practicing
projections
402
312
354
556
urgency
superf
musicians
council
horrible
hopeless
1908
narc
obliged
unsustainable
struggled
Belarus
Norweg
Michigan
Territor
honesty
fixing
odds
anticipate
hazards
sponsors
Jobs
graceful
Limited
Championship
Fifth
switched
supermarket
courtyard
589
579
524
Bry
Eight
Fa
Fish
Gi
Mir
Nev
apt
##327
##oft
##mare
##UN
##omic
##igma
cancell
outreach
socks
##aco
##uda
1913
artery
disgu
underpin
completing
methodologies
distances
idle
impulse
objections
##anker
corrected
singular
assisting
374
oils
Johnny
observing
titan
theorem
copyright
cracks
##brev
irrel
pledged
##GBT
Massachusetts
venue
resonance
interfere
SMEs
##otechnology
464
6000
Domin
Eat
Kam
Ying
ginger
lac
##Ch
##esium
##eld
bee
##olves
##ulators
asph
cleans
Alt
offshore
##ricks
revital
504
Except
statistic
418
412
radial
investigators
Coal
etcd
consultant
spectral
Keynes
fertile
##IVE
gentlemen
dismant
correlated
Official
Determ
Persian
vigil
Venice
Principles
Independent
stunning
##children
farther
poultry
Confucian
Renaissance
344
LO
Lao
NH
Sex
Trip
bou
nour
##nels
##kok
##338
##dd
##usc
Chap
1926
##angel
offline
##cons
bloom
endure
investor
sliding
Cannot
414
##901
merged
degener
kinder
consulting
fueled
##celain
stimulation
seekers
premise
disappearance
nurses
folders
aesthetics
vendor
contingent
Premier
##enhagen
envisaged
sulph
Video
571
739
CIA
Dub
Drug
PLC
kit
ost
##Cont
##hma
##effic
##To
##inning
##rehen
##omon
enroll
##outing
##isting
clan
##elli
##acle
arrows
quake
committee
headlines
458
372
Margar
blockch
clustering
repaired
premature
pools
ventilation
boosting
disconnected
geometric
cubic
biomass
deputy
Guatemala
Airlines
respiratory
UNRWA
##efficients
631
810
CAD
Mind
MIT
Vers
Vegas
leth
sap
vamp
wives
##sky
##dess
##western
##walk
##style
modifications
##imum
transnational
republic
Channel
exams
heroes
regulating
organisation
median
408
stabilization
balancing
lightweight
combinations
452
warn
appliances
establishes
embro
journalism
encouragement
Below
vitality
##gregation
Systems
##ENT
##addafi
indirectly
alkal
physiological
Einstein
esteem
wonders
Tanzania
Abraham
737
Cart
Delta
Et
GT
GB
LORD
Maint
Rick
upt
vicious
##iology
##arter
bypass
plague
plastics
coex
stepping
debut
##ockey
refract
##althy
typing
506
502
398
##akespear
replies
warrant
fatty
1905
burnt
utilizing
aston
allocate
supposedly
landscap
Slovak
##flu
Copenhagen
Venus
##airobi
Commerce
Hebrew
Hawaii
679
721
Abe
Lev
Nairobi
Zone
casc
dess
gaz
haul
null
ok
##100
reintegration
exh
overweight
coefficients
underneath
oppose
curiosity
Online
backs
envy
discourage
determin
lowering
accepts
Travel
frequencies
mercy
mistrans
afflict
##rimp
euros
ceased
infectious
##attan
tribes
CSS
bombing
surpluses
Baltic
Document
disproportion
Nice
PL
Ryan
esp
hunt
muc
vow
##hill
##347
##348
##vet
##lot
##uci
##eded
##urring
##emb
unfort
orch
chron
peasant
Alan
qualifications
differentiation
##phones
dependency
##athon
##spring
poorer
Arsenal
456
##ynchron
exceeded
centralized
aiming
tenure
alternate
1906
southwest
shelters
##ogenesis
Senate
Hamilton
Survey
blanket
disclosed
richer
pharmaceutical
Agricultural
wiped
mammals
cautious
Roger
gambling
Performance
ankle
Napoleon
mistranslation
564
Cause
Dear
Ti
olig
sailing
##uv
##Ps
##oro
tomat
inaug
reap
##occup
firstly
endorse
append
questioning
Nov
preparatory
##ritis
hygiene
urine
warri
bitch
332
executing
tonnes
Activities
hurts
publishers
turtle
transforming
reinforcing
imperfect
Benj
##falls
relaxation
irrational
Melbourne
Normal
Investment
Bahrain
pharmac
pixel
inconven
intrinsic
magnificent
injustice
729
LT
Lau
Mine
Mans
Tit
voy
##336
##gencies
##leness
##etically
##abited
##adow
degra
noting
unve
##iva
outlet
abd
plag
longitudinal
lia
buys
donations
equals
schooling
Conn
ideals
Athens
marriages
394
trademark
eyeb
558
##909
472
preca
squares
Apart
snap
bottlen
absorbing
Remove
axial
Chairperson
Darwin
arbitration
defenders
##ouston
Starting
thrive
transcend
unfortunate
621
Bit
Sev
Yao
hello
sack
vag
##nals
##di
##qi
##olding
exotic
chill
heal
manners
syll
upstairs
controllers
guides
shorts
postp
expresses
destabil
ballot
ratios
ladder
Maj
Intellig
nominated
entitle
coatings
Peters
disturbing
##nutrition
Kyoto
restraint
gorge
peasants
Gordon
Researchers
689
731
Billy
Emb
Kan
SF
Winter
dash
jung
jokes
martial
oak
sang
##namic
##GS
##WS
##atter
exquisite
shook
unle
##umption
worm
hast
##ellers
relied
contexts
##phia
orderly
approve
2500
##iov
Governing
##919
494
staffing
Guid
##786
coordinating
permissions
##EST
exhibits
fashioned
navy
declarations
pillow
judgement
accelerating
aluminium
safeguards
Bhut
prescribed
spontaneous
Zhejiang
Norwegian
639
Dh
HE
Houston
Kun
Lot
Load
MV
Mas
ROM
crane
tended
wines
##rise
##eut
##bell
##jian
##rec
##state
repairs
##veland
armor
##osaur
##ethyl
qualify
flames
reviewing
clearer
Shakespear
educate
customary
connectivity
positioned
creditor
illiter
exceeding
horn
weighted
historians
magical
hydrocar
##ancers
garlic
Helen
Status
Avoid
undermined
Franklin
Against
marginalized
Nicar
spacecraft
forehead
redundant
nineteenth
677
Gao
Il
bil
dolph
##Con
##pm
##ju
inappropriate
##roit
##icides
##igious
##olo
asp
unsc
emails
abused
lev
##iaz
10th
12th
depicted
##oths
careless
monaster
surg
multid
lesser
508
mighty
programmers
lawn
454
##997
trivial
498
precurs
latt
Manh
intervals
pollen
occupational
Prepar
randomly
Reports
1930s
merchants
foresee
submarine
fountain
681
Bear
FIF
Lia
MIN
Pict
Rule
Swe
Titan
Urug
Vlad
Yong
lan
oste
tan
tid
wand
##bone
##aic
traces
stap
##iries
learners
##rys
abbrev
##agne
##agging
intercept
##elson
patron
1800
monkeys
visibility
morality
609
admits
substrate
automotive
hosting
Austrian
starters
misleading
celebrity
Server
eradicate
Strategic
periphery
cherry
intervene
##garten
Diego
withdrawn
subparagraph
671
FM
Flight
Lyn
XP
bast
dough
pic
plead
ros
##bus
##hea
tours
induct
##etus
stagger
deform
unjust
adher
redes
Item
1100
##wei
##ribly
shortages
slim
Shall
archives
appearances
Doctor
institute
analyst
Enable
Tomor
ageing
484
sexually
contractual
midst
##ometric
##OND
1909
researcher
circumstance
excellence
##ogenous
Used
Salv
Bangkok
ingredient
lungs
Products
disparities
forbidden
galaxy
Carolina
suspicion
Uruguay
Cel
Fem
LGBT
Magn
Pent
pause
sided
##ozy
##die
trait
Theory
onset
##cker
une
##aval
arrog
finals
reminds
##wealth
deepen
monitors
##ommon
realizes
refund
situ
hardest
certified
postc
nightmare
negatively
releasing
##101
merge
journals
sweep
fundamentals
titled
soils
McG
ambitions
comprise
scholarship
ruins
elevated
Hungarian
Cooper
Assistance
franch
confronted
stubborn
rebellion
533
Cos
Few
Hin
Slo
puff
uter
##LD
inad
##icable
##ista
commend
speeches
opium
vein
someday
headache
tablet
deval
##917
496
disruption
judged
sounded
blogging
definite
rounded
Greater
Barcel
requesting
derive
rebel
McK
explanations
crystals
torch
bidding
intensified
immunity
Hunan
Scientific
miracle
textbooks
Practice
##utenant
Monitoring
Phoen
Cypriot
incompatible
tomatoes
Tomorrow
Box
gut
tect
wicked
yards
##tail
##eks
##Model
##itations
##asse
modalities
prisons
outlets
employs
##ellar
lease
scoring
apology
##portant
counties
remitt
parental
coron
backwards
explores
inflows
Shel
typed
nationalist
viewer
##beat
478
Teachers
Johann
candle
unlimited
freshwater
watches
humble
struggles
##urrence
fulfilling
rigorous
Merkel
simultaneous
imbalance
Nanjing
nutrient
GNU
alleviate
Territories
727
Eve
LP
RP
Row
TS
WP
riots
##ić
##uber
##heastern
##inally
##atra
##aro
storing
whites
abdom
aboard
Alb
##dehyde
securing
##gger
##engu
##ega
reflex
practiced
applicant
352
slowing
514
Traffic
transferring
staring
stared
Seoul
Seattle
Mississ
Electronic
embraced
volcano
abolished
##keepers
swallow
misunderstanding
##adelphia
Canton
687
CAR
FDA
GE
JA
Jian
WAS
ecc
gum
hull
mudd
noun
til
wan
##hai
##offic
##xia
##FL
##store
stab
##amount
##rang
org
##thal
compile
Chad
##ocal
whoever
underway
Heaven
intergovernmental
finest
handy
feather
facto
prevail
refine
hearted
happier
futures
##ustomed
##998
Workers
financially
liberation
Blood
immers
procedural
1901
1903
excluding
##ursement
ferry
iPad
Persons
Francis
mentally
MDGs
Tianjin
dispersion
alphabet
soybean
clinic
retrieve
decomposition
rescued
Manhattan
Got
Jason
Lower
Made
Nuclear
Occ
cyn
cakes
mim
nap
vague
##uli
attained
##ignant
incremental
depict
Uncle
insists
comparisons
slides
implementations
electrons
lotus
missiles
understandable
emergencies
Marine
guideline
Quick
Philadelphia
Pakistani
disputed
fulfilled
incorporates
Jersey
Miller
alarming
##criptions
Mountains
ruined
unreason
icons
Princess
Assistant
perceptions
Integrated
seafood
Benjamin
Burn
Jess
Ship
Saved
UML
diving
pm
##rush
##bie
##uating
##DT
##IB
##edi
valuation
transient
undergoing
additive
##issible
tunnels
Anderson
swap
finances
492
462
contractors
Sym
exporting
managerial
##thew
Question
ultrason
belonged
Communications
souls
exploited
earnest
travelled
temptation
searches
##worthy
posterior
Innov
smuggling
ridiculous
cerebral
ellip
Ultimately
581
741
Ay
Crow
Lang
Laur
Years
aster
croc
lig
##no
##ez
##326
##mel
##enment
##oria
##utory
upside
##ardon
##ubar
underf
deton
opposing
Ont
ordering
approximate
operative
airlines
airspace
responsive
behavioral
travelers
##ooter
utmost
flee
believing
intellectuals
elevation
Filip
cognition
mosque
rectangular
amplitude
derivative
glucose
catastrophe
588
636
8th
Aer
Ess
EOS
FR
HB
Kash
Kelly
griev
kde
rud
##su
##wart
##uras
deeds
cheat
##illes
enric
compilation
heels
recurs
smiles
boiled
13th
distrust
delet
purse
Allen
periodically
accession
eyed
382
651
prospective
couch
Abu
542
exercised
IPO
1904
Autumn
Employment
Davis
pursuant
hyperpar
tolerate
undermining
Television
deliberate
resembles
flaws
enrolled
recreational
orbital
frightened
pixels
##ievable
splendid
nutritional
Body
Cas
Dj
FG
Herm
Kl
RMB
cott
fict
fighters
hood
lid
sank
sinking
##arious
##reated
styl
##ammed
unfor
charts
sofa
clicking
##ocard
improper
##ricular
justification
donated
specialization
organism
Isn
552
destinations
##784
relying
sync
sectoral
horror
ethanol
candy
Conserv
Anything
wildlife
scenic
Holland
arena
illustration
litter
Walter
paradise
disappointment
outsour
Peninsula
Certific
porcelain
Bagh
analogy
ornament
juvenile
Barcelona
Mississippi
749
Dall
Dash
Either
Pil
SBS
WW
vs
##test
##335
##oing
##As
##fin
##will
runway
seaw
##ivism
overly
reclaim
newer
crushed
goodness
##odynamic
medals
expectancy
hardness
limbs
privately
709
Plus
feeds
conditioned
shoots
Libyan
tailored
Matthew
perceive
Solar
disturbance
desperately
imprisoned
advertisements
anthrop
squeeze
sketch
sleeve
##ithmetic
reranker
Probably
Spirit
trajectory
647
7th
Bou
Beth
Balk
IQ
MM
Ric
Sales
arose
crip
hij
nu
nails
wizard
##hman
##cile
##atient
foref
##igers
##uming
##usk
##ogonal
examining
examinations
curved
readiness
backgrounds
marker
comparatively
awesome
Shandong
memorial
eyel
##776
kills
Phill
broadband
widow
couns
sweeping
##olester
duplication
dedication
Flash
##write
Burma
Estim
frustrating
Mathem
poisoning
synchronous
stamps
soda
vigorous
McCain
##mmetrical
Advanced
Emergency
auxiliary
Margaret
Born
Ga
LS
LAN
dental
ions
lymph
naming
sins
##oop
##yu
toast
##alin
##itational
##urer
runner
canvas
validated
unoffic
spinal
Chu
incap
##ogging
##udget
##ocus
detr
##atching
invoked
enduring
##cussion
Problem
Production
Shut
weekends
554
urges
banana
snaps
installations
assignments
Getting
Cleveland
colonies
tortured
Expert
Statute
prosecutors
superiority
supplementary
typh
iii
Buddhist
utterly
fermentation
cursor
Pearl
maneuver
balcony
irrelevant
surgical
Fan
ODA
hind
iod
kar
##wick
##joy
##Vol
##ington
inland
anterior
stating
##iza
whit
Chall
##acchar
scent
upright
boarding
monks
communist
specialty
maternity
##918
sustaining
482
versat
Desc
baggage
displaying
unlock
occupy
brightness
fashionable
rolls
Steel
unconscious
temporal
extensions
Knowledge
predecessor
insolvency
Lithuania
cushion
587
641
667
CG
Late
Num
RNA
TLS
fade
pent
rude
sung
vest
##cling
##math
##UP
##TER
##xing
reop
spelling
confuse
1024
offense
offspring
amph
patches
##ublin
exporters
Indigenous
antagon
Cluster
Reuters
animated
##system
##iji
snack
spoon
Christians
hurried
##rehensive
routinely
subsistence
Whereas
sandwich
homeland
flooded
dynamically
fibre
Annual
tumors
catalytic
weakening
##stanbul
sympathy
Stanley
bargain
cumulative
interconnected
susceptible
orphan
Tajik
civic
##isciplinary
Imperial
845
BS
Deng
Gas
Greg
Kurd
NM
Sid
TI
bog
##rik
nep
whales
unanim
chase
plight
arsen
secre
1880
continuation
signatures
artillery
severity
viewpoint
strains
demonstrating
pulp
Edin
reactors
satisfying
##comput
premier
sanct
pige
Globalization
renewal
microp
springs
Hardly
coordinator
delighted
Antonio
ineffective
910
Aren
Fast
Fern
J2
MW
Moses
Om
Rico
Rica
caching
jaw
mast
nerves
rav
xenoph
##chem
##bish
##long
##pu
##wal
##was
##ilitation
stern
proactive
unload
Heav
sheer
anytime
rightly
pars
Dean
repeating
potent
##907
Teh
442
microc
perfection
polynom
burns
Anyway
briefing
Looks
schedules
malnutrition
depths
therapeut
sprink
conformity
twisted
hormones
exempl
hepat
taxpayers
noodles
Uzbekistan
unpredictable
950
MT
PB
Wis
apert
cath
gle
hav
hints
ling
pant
rode
sigh
tread
##345
##346
##334
##yuan
##enza
toes
tram
traff
##term
##ader
##adic
withstand
unpro
##ellation
##auer
relieve
##reeks
undergraduate
glut
servicing
downstream
retaining
employing
distributions
revealing
genre
declines
quantized
laboratories
imagery
Liang
settling
rebuilding
##ATION
vacancy
dissolved
surveyed
peaks
teleph
decorative
Multiple
nano
##zzle
grabbed
erupted
Commonwealth
calibration
Arabs
666
BA
Ding
FS
Honey
Sony
dow
##lord
##pp
cone
seep
transitional
clashes
##acious
Thous
arithmetic
numref
gloves
distillation
separating
Dead
discern
##overty
splitting
##bei
civilizations
embodied
wishing
562
Depending
##TAR
Simple
rotor
Interest
hunter
Constant
corresponds
Lucy
tribe
stretching
shrinking
advisers
chloride
Vietnamese
##isphere
landsl
Improve
Independence
losers
convex
suburbs
incumbent
Nicaragua
Cro
CAN
Harm
Poll
Poverty
bang
wit
##athetic
##roscop
##iller
unite
bytes
decept
plaus
##indle
##obi
polite
verbs
##ysc
differentiated
depended
Armed
lottery
freed
violate
supern
temperament
motors
concluding
Abb
dreaming
##ocrat
sporting
racist
##monary
coward
fetch
rumors
##luent
Observ
parliamentary
spherical
Marshall
Shakespeare
Istanbul
Pi
PAR
nasty
##cs
##rah
onion
Inform
##aman
##olt
whip
Transform
##andem
resigned
abduct
##ignment
coarse
##ificant
Ancient
easiest
gras
##eves
refrain
##712
landm
researching
##icultural
Marie
terminated
CONC
polluted
drafted
##marked
spectrom
subsidy
forthcoming
philosophical
comprising
Increasing
diminished
tuber
unbel
HPLC
reiterated
Friends
grapes
massacre
cancellation
Edinburgh
637
775
Bing
ILO
NET
Rou
Sound
dumping
hike
pend
##Sp
##DD
##onge
##enos
##arial
##rov
sticking
Inside
engra
unse
abort
##ropical
accessing
interm
crush
addiction
1860
1891
gland
ministries
##prints
accessibility
motives
##ikh
versa
digits
Christopher
uncommon
Corps
Student
accomplishment
Confuci
##rocery
accumulate
stripped
Karl
surroundings
Representatives
receptor
tackling
poisonous
disadvantaged
phosphate
towel
overlooked
endangered
Lewis
connotation
empirical
Salvador
##olesterol
Cass
FI
Path
Tree
marsh
##bn
##FF
##NF
##inous
##chlor
wastes
contraction
overd
overth
##ulture
symmetry
arth
blunt
1600
##egal
raining
rests
benz
participatory
UNAM
UNIF
peacebuilding
##775
violin
Finance
ignoring
rockets
affinity
rebuilt
Lawrence
Subst
inequalities
Yangt
Senior
pronunciation
bonding
symptom
ashamed
athletic
resemble
interrupted
unexpectedly
capsule
Astron
evacuation
Bruss
intuitive
morphology
embryo
enthusiastic
MySQL
975
Cu
Hus
Habit
Nancy
PT
bury
##hard
##325
##inn
tox
thigh
exting
alg
maize
##ighted
##derness
##aga
disreg
glue
4096
##ainties
hyster
Guo
Blu
musician
Rober
##hibition
farmland
Records
APIs
forgiveness
##ascar
Character
railroad
cracking
fabrics
Opera
##rasound
retailers
toxicity
Dougl
merchand
quadr
steril
clinics
elephants
irrevers
wreck
interdependence
dwarf
motorcycle
practitioners
3G
BB
Bart
Jak
Lack
MON
Municip
MRI
Ped
Sark
Talk
dump
porous
rou
sou
wither
##324
##inos
##eterm
thorn
##idated
##imen
##adder
wholly
contag
chol
##arta
adapter
socket
relieved
scor
1010
##ensis
accustomed
classify
converter
solitary
lasts
Shang
##272
entert
dietary
diarr
trades
##908
Refer
Parad
attracts
humid
Humanitarian
licence
##umbered
desertification
Upd
margins
intrig
Standards
privileged
inspiring
bolster
deprivation
tuition
Castle
inexp
exacerbated
Commercial
metallic
credentials
Confucius
622
885
915
Cer
Roll
cass
fighter
groom
haw
tires
##rar
##maker
##violet
##pher
##omorph
##ilst
strand
modulation
dehyd
whale
adul
##asties
pointer
##soever
Alaska
obsole
aven
corrections
accessed
privatization
biased
Clark
fluctuations
sensory
grands
spectra
faithful
instrumental
navigate
relaxing
Detroit
reservoirs
Tourism
Potter
adolescent
prevalent
obscure
descendants
annoying
Heart
##hearted
licensing
Property
burdens
tranqu
lattice
Brussels
Buff
Cher
Drew
Host
Kang
ML
Pun
RT
SL
caves
cortex
lact
rang
##bons
##mit
##mic
##uce
##page
##pressed
##VI
##KE
##anas
cheating
shrimp
unaware
##anto
cholesterol
Changes
coerc
dragged
costume
businessmen
fluids
sway
##ucker
holistic
Tea
portions
footage
dreamed
granite
Mali
secretly
bullets
stimulating
supervised
complainant
multiply
lyrics
permeability
darling
Pierre
Error
##ONDON
Aim
Bed
Cry
EJ
F1
Gent
Living
bricks
reth
tors
##rill
##rically
##mad
##lon
##pol
ingen
console
##imir
##immer
ally
sums
##umi
spear
outright
aftermath
goat
##auss
acry
peach
##activity
detector
presently
curb
currents
exploded
turnover
greed
swamp
701
##774
misery
semant
Particular
township
copied
horiz
Seine
Regulations
celebrations
cloudy
ambul
recipes
pigment
philosopher
ESC
Goldman
conceived
Hillary
Catal
canceled
intuition
Colorado
Treaty
portrayed
drowned
Yahoo
Dubai
blockchain
embroider
Ontario
Baghdad
688
EL
Jenn
LONDON
grocery
hid
obed
penny
piracy
pensions
##pack
beard
##otism
congress
##amins
doomed
##ells
scare
suburb
increment
blades
supper
deepening
mock
glimp
charter
##ullah
tracked
businessman
swelling
identities
warmer
standardization
digging
Block
conductor
contracted
Israelis
exercising
ratification
armies
bearings
1902
ICC
##holm
##ventional
appointments
collaborate
approximation
Moore
Brun
inherently
Thirdly
prohibition
editorial
diagnostic
overwhelmed
conjug
Visual
rabbits
clipboard
expedition
galaxies
pollutants
dictatorship
Virtual
Dallas
Douglas
628
770
738
Aid
Bron
BMW
Fuk
Gun
GEF
Joy
Kyr
PG
SI
Sara
bru
bump
pets
von
##bian
##eled
##isen
##uto
stove
##amide
##olan
dew
shiny
##umper
priced
cling
##ellor
##ptic
1923
##okia
interrel
assim
defender
multif
601
peacefully
##996
messaging
hopeful
installing
virtues
unsuccess
dissatisf
mountainous
honestly
coloured
Memory
Upper
deliberations
##restrial
ultraviolet
pledges
##metics
iteration
concessions
screaming
Effective
piston
##vasive
regeneration
unequal
yoga
Excellency
Macedonia
hyperparameters
obsolete
624
865
925
Aj
Bin
Cand
Chemical
Dublin
Fang
Hamb
Lic
Pitt
RAM
Sax
crick
veto
##chen
##cus
##yg
##The
##itous
##olith
##irms
##este
unple
##ouring
compartment
dock
##agascar
underg
Stew
1110
feathers
1870
monopol
disturbed
refuses
healthier
USS
dealer
claimant
civilized
peninsula
trainer
angels
births
directional
##haul
discoveries
quarrel
mandated
celebrating
Employ
removes
ambassador
impover
Saturn
recovering
Users
tribute
inhuman
Defence
prosecutor
cyclical
NGO
omn
methane
lamps
Break
Xinjiang
culm
aromatic
Bruce
Munich
eclipse
unavoid
intolerance
Violence
Growth
Colonel
OBJ
Dim
Qian
Soph
eject
witch
zo
##round
traced
beast
wasting
suitc
seated
##qual
Ans
supplements
cares
14th
debated
courtes
##asha
##672
Allah
802
edible
treasures
immort
Mei
Apoll
microst
Monte
filesystem
arguably
Emily
##ersonal
exhibited
illegally
##writer
Basically
precedent
teenage
virgin
inhibit
pouring
cocaine
Normally
Woods
correspondence
Mandarin
pioneer
Kentucky
quartz
ammonia
##trl
aperture
578
576
6th
626
736
Dog
Diam
EV
Rout
SEM
junction
##km
##static
traum
##iga
##sex
##olk
##tha
plots
scary
redef
indices
actu
evenly
##ups
demon
benign
##682
policymaking
computed
##versely
Scar
Blair
Desert
##rades
honored
harbor
magnesium
Somali
deficiencies
deduct
intensify
TF2
NOT
Formula
Cameroon
confronting
LCD
sharks
reaffirm
rifle
lantern
Hindu
abdominal
674
Greeks
Hundred
Khan
Lakers
Qa
WH
gy
hath
mul
sailed
vom
##ii
##cm
##mount
##lace
##xit
##LUS
##ename
##odge
##ilin
##uther
modem
exile
deposition
neo
unres
teens
Forget
goose
##iege
generators
confess
2048
invoke
additives
formulate
childb
humankind
##ielder
##792
##312
entropy
secondly
progressively
identifier
statues
chooses
communicating
appliance
Meet
strips
judging
Calc
departed
tailor
ceramics
Construct
Madagascar
cracked
borrowers
highlighting
Persistent
Buy
Galile
Julia
Promotion
reinforcement
embarrassing
Armenian
Maurit
IPv6
corridor
repatriation
##avilion
fostering
Phoenix
therapeutic
644
Dial
IG
Mig
Pic
QE
Rice
Sino
bout
ego
fights
ub
zoom
##gate
##Ar
##ulence
##izar
##estions
spine
##ipation
uphold
apiser
##berries
yearly
underwear
registry
flop
1885
centrif
##rene
##rones
##armed
entails
postpon
calor
competitor
closes
communicated
instructor
renamed
rainbow
dresses
timet
grandpar
exclude
Smart
convened
asthma
##iami
multimedia
##offs
shelves
##flies
heroin
daddy
diversified
commissioned
enacted
entrepreneurial
accusations
##ECTIVE
scrutiny
Eritrea
Evaluation
luxurious
energetic
jungle
FIFA
##Volume
627
646
664
787
815
919
Corn
Fall
Jake
NS
Xing
baking
caffe
foul
pills
##inis
##igade
##irates
alley
sewing
spar
needing
underw
deepest
##ructures
trous
olds
Americas
delivers
##612
activate
slugg
##ashi
posting
payroll
##995
Command
cutter
treats
warfare
auditing
Carlos
contracting
Assad
Regarding
millennium
Maryland
Indiana
Outside
implant
foil
sponsor
Initially
TF1
counterpart
Freder
patriotic
Girls
Domestic
adsorption
McDonald
Bhutan
SavedModel
584
648
990
Function
Mut
MAC
Nokia
Raf
Tiger
UP
VIP
Zhen
luc
pore
ruth
##rising
##iants
##ski
##ozo
##yi
##inqu
notation
validate
overhe
overcoming
recons
syner
feast
deserved
proving
##teenth
brass
metre
##382
payable
milestone
killings
##axy
terminate
##uffle
##oxide
Boeing
Regular
##ICS
subset
homogeneous
Panama
tightening
pulls
ASC
##organic
teenager
writings
Daddy
recycled
aquatic
##ocytes
aroma
Requests
##withstanding
Gradient
8192
superficial
monastery
tectonic
enriched
Certificate
unpleasant
668
790
840
Hum
Hart
Pin
Walk
Yam
cerv
cemetery
loun
rented
ted
##run
##lus
##esar
stall
##otropic
##esthes
spike
Chand
clues
overload
arrays
lied
##develop
Whit
downstairs
resting
finalized
discrep
disclose
##bey
terribly
##342
camping
credited
659
favored
merger
Paragraph
spreads
occupying
dividing
transformations
##ixtures
philanth
mortg
proceeding
pilgr
tolerant
unconventional
disaggregated
ascert
solemn
stereotypes
adversely
resilient
conspiracy
Mercury
hectares
Vladimir
Yangtze
825
Kle
Miami
Numer
Perm
Solid
Sadd
baked
##lash
##pg
##TON
##isa
stark
##forces
aliens
##sson
byte
Alber
herbs
parity
requis
##othermal
revival
##oidal
retard
Programm
Isa
ballet
##282
antit
identifies
Export
##994
707
##ductor
institutes
##erald
substitution
Finnish
hostage
innovate
ratified
##untary
counterfe
denying
publisher
laundering
Valentine
stringent
sinus
Larry
IMF
Mongolian
##iggs
helicopters
stiffness
inflammatory
pseudo
wilderness
Branch
Alpha
asphalt
extingu
Kyrgy
096
935
Kur
Ot
Occup
PF
Pret
Site
afore
cuc
dum
fridge
lions
tann
vascular
woven
##isi
##racle
sting
##chair
asynchron
attorney
clue
encaps
##uba
submer
11th
obese
curse
glam
debug
adjustable
Shin
facilitation
##472
marvel
landlocked
cellul
##boat
steak
executions
Price
copying
hostilities
Install
boxing
717
renal
572
Ministers
##books
locking
industrialized
Estonia
triggers
electroly
Statistical
hypot
Officials
Considering
Jonathan
##queror
escaping
orthogonal
congratulate
resignation
predecessors
predominantly
perfume
Alfred
Strengthening
titanium
Sloven
eccentric
inexpensive
048
985
Housing
derm
dazz
pest
##aler
##ouri
##uter
##stall
##idable
beet
prod
lofty
acres
##oko
scaled
redirect
thereafter
underlined
Already
remn
##fecture
##ielect
framed
##odynam
Proced
indications
programmed
##iko
variability
imminent
widget
horrif
eighty
Barry
irrad
medicinal
deposited
malicious
exhibitions
possessed
diagrams
Julius
mentality
composer
elasticity
embarrassed
ceasefire
bargaining
ZeRO
decentralized
Linda
disinfect
discouraged
trunc
lethal
##udgetary
Sarkozy
OBJECTIVE
apiserver
Kyrgyz
684
890
Bull
Cao
Ctrl
GW
Laz
Muh
Sams
Wats
gaze
lent
mun
tant
yo
##bands
##dao
inward
##ouver
##unted
conced
##olve
##intend
loosen
learnt
preoccup
adherence
##acon
##enches
encoded
twins
subl
flush
phy
donation
##appiness
meta
##392
usefulness
slaughter
certainty
successive
##ruption
##362
Claim
805
##916
broaden
footprint
striker
curricula
housed
955
672
utilities
halls
Suppose
hunters
murderer
extracting
rationality
Aviation
Telec
Atlanta
diversion
diminish
##osaurs
dispersed
decentralization
Rachel
ConfigMap
scarcity
telescope
Primary
Enterprise
vigorously
issuance
proximity
kindergarten
hijack
plausible
CONCLUS
724
7000
995
AK
Bret
Hop
az
bapt
##gia
##mir
##fo
##UM
##enz
##ilia
##idi
tracing
Ther
outd
outwe
overhaul
##velt
evapor
##ocl
therein
##cont
##othy
Andre
glorious
expulsion
folding
impetus
slices
purification
differs
##sche
energies
##mbuds
##ohyd
salmon
bracket
dealers
circus
##lett
Applications
##heads
Koreans
cooled
Comprehensive
divides
rotate
Corp
Interior
Senator
innocence
epidem
militia
Writing
Ferr
##tracted
flawed
owed
##rological
##otherapy
UNOPS
bundle
Brooklyn
commemor
chromosome
chromatography
ultrasonic
EJB
586
732
795
895
AF
DL
Ful
Ign
Mes
MBA
Sent
Sport
Sue
TPU
dug
iOS
ripped
##tz
##kov
##YS
##onts
##aters
##amel
##ulu
unint
Transfer
spider
emig
relent
poetic
disable
##achi
grape
interchange
patents
cured
refusal
entail
##prising
##872
posters
toolt
warns
##gestion
filming
auditors
lengths
darker
attractions
Belgrade
##huang
ethnicity
fruitful
Military
Senegal
kissed
disappointing
alkali
enzymes
accompanying
spheres
Anthony
liaison
Tehran
reconsider
CONCLUSION
980
Bour
Gary
Hat
Hav
IB
IL
Meng
Nab
PO
RNN
ausp
fres
malf
vault
##link
##2O
##fielder
##WM
inver
replication
deforestation
loops
abide
##encer
1025
Store
Stadium
accred
amuse
##phy
##ggy
measurable
insulin
trump
realism
refusing
##112
slopes
Going
##orthy
diary
similarities
Canal
Commons
##915
superb
905
Phase
responds
Cole
755
617
estimating
blogosphere
prints
denom
Monter
commanded
preparedness
rebal
unlaw
grandma
ultrasound
##DCP
withdrew
Experience
Delhi
Argentine
Robin
cocon
hallucinated
deduced
touches
awaiting
depreciation
terrace
Assessment
Chongqing
Johannes
Heavy
##ielectric
785
BOS
Draw
EN
dun
dots
hen
hides
##him
##look
##Es
ants
##ecd
##etric
deport
comfor
##riel
shat
shale
transitions
atten
##ellite
alliances
uprising
##achment
coil
configurations
Alc
booming
1850
expelled
capitals
avoidance
Share
marathon
singles
607
##tlement
##ennes
shipments
detective
Decade
firearms
genetically
inspections
squir
COM
quotes
granting
sorting
##IST
transmitting
vulnerabilities
Provide
uncertainties
explosives
Philippine
gravitational
unwanted
aerial
##ographer
nickname
eruption
abolition
##rology
confidentiality
Mozamb
anomaly
bluep
pavement
Competition
rehears
568
746
726
Bright
EB
FT
Fig
Mort
TA
Vit
Vanc
lust
##comp
inlet
##aso
##rots
##sthis
##amorph
loos
ench
herd
oppression
##ysical
formidable
miners
optic
##302
##aha
10000
kindly
destined
classrooms
reforming
Guy
linkage
Desk
inconsist
harmonic
polys
robbery
cooler
rebound
stuffed
##ippers
blows
proportions
Build
ATM
##aphrag
Copy
Princip
KMail
nineteen
##uncture
exponential
Intelligence
gorgeous
686
LG
Past
dors
dancer
holog
piles
vanish
##bag
##late
##ilies
##kened
forged
##olis
weeds
poker
recurrence
##agus
##osevelt
handler
flock
whatsthis
revise
basics
normative
guer
##ebted
metast
explor
##292
skating
extinct
marketplace
greeted
##602
biotechnology
##author
offerings
Orle
Respon
596
kinetic
snakes
Active
universally
coastline
industrialization
incorporating
Patrick
mitig
daunting
accelerator
JavaScript
niche
evacuated
Gallery
Shortly
pneumonia
Hangzhou
invariably
pesticides
cohesion
supervisor
unhealthy
Mauritius
Watson
Vancouver
GH
Grant
Lag
Rising
Sac
Side
bod
lime
pengu
##bro
ashes
##plates
precl
chambers
resh
disast
##acht
1045
##oba
indebted
##reatment
verd
amen
ample
provoc
inviting
centimet
mapped
filt
Arist
landf
606
edited
saturation
Script
Century
cyst
Notes
597
complaining
lengthy
Malay
Malawi
discovering
celebr
dividend
Display
Serge
PCR
taller
breadth
hemorrh
mirrors
dishon
tactical
Georgian
Ern
chlorine
Legisl
phosphorus
compressor
kidnapped
augmented
Stockholm
grandparents
678
744
EA
Kabul
Prag
SK
Um
WE
Zoo
bask
cube
giants
pian
rug
##tar
##town
##ais
##map
##Res
##inid
##alment
ana
##cha
##olin
affor
##andum
overst
arid
##irection
Heat
Unic
Beck
##ertiary
raid
##892
##492
##212
##azine
topped
##atorial
extrab
protectionism
favors
616
Parents
burial
716
rocky
corpse
Baron
##PAD
facilitates
suspend
Didn
petty
academy
cosmetics
devastated
infantry
molding
rampant
Buddhism
excavation
fronts
refreshing
Earlier
whistle
Toyota
voyage
merchandise
638
634
780
965
Beng
Credit
Dow
Easter
KO
Kansas
Nelson
Zambia
dancers
eigen
porn
ya
##frame
##jun
traction
conqu
##izen
upwards
overflow
Animal
offenders
classics
invaded
parcel
monot
centred
planetary
defended
numbered
converting
refresh
matt
##482
604
608
External
##242
sensation
Scand
collector
cycling
geo
granular
displaystyle
Romans
Across
##ESCO
repairing
thanked
SOAP
##izona
rationale
sickness
gateway
Thanksgiving
Malaysian
rupt
voluntarily
##ochastic
omitted
elaborated
Brexit
deteriorated
tapes
Battle
impede
tricky
##BRID
meteorological
tougher
siblings
abdomen
unofficial
Tajikistan
Habitat
Orleans
extrabudgetary
574
765
722
AA
Cow
Census
Failed
Gong
Goth
Pand
Sund
UF
bri
lenses
##comm
##oz
##dale
##vals
##itos
##elong
##rosis
##omics
##utt
modeled
usable
comprehen
outgoing
Cha
clut
##acies
peril
agile
cob
1210
remun
1310
performers
calligraphy
glo
##engers
passports
realised
metropolitan
founders
meaningless
##ahu
##insky
1005
Ark
antip
702
##914
fluctuation
packets
##333
Institution
personalities
debtor
Specifically
historian
Juvent
commercially
cookies
durability
murders
Remote
fortunate
prompting
ridge
bleak
compromised
unreliable
receipts
jurisdictions
naive
Murray
hardships
congratulations
JSON
clerk
presumably
lithium
Critics
carcin
Utah
nasal
nephew
sluggish
mortgages
875
Fra
FCC
GV
Gill
JD
Jong
Krem
Poss
Rol
TG
TP
VP
WC
eagle
hing
hay
ker
lenders
rider
sore
waving
##CH
##paces
##Fi
##N1
##onde
##leys
##ilic
##otent
##mentioned
cheeks
##ophers
seals
weighed
chasing
repression
emanc
clad
Former
theirs
##aky
blending
addict
##tened
cared
monuments
backst
internship
endpoint
shorten
solv
policeman
##402
headline
##603
Arizona
602
##anners
obsession
saturated
collateral
blacks
##hemistry
##ospace
Appar
618
beautifully
714
718
imagin
642
midfielder
stockp
spreadshe
milling
arrests
holdings
sticky
ventures
Samuel
recalls
vitamins
reversal
clarification
sculptures
impedance
Insurance
concessive
enlarged
discontent
pirates
skiing
Mechanism
festivals
mosquito
enlargement
postpone
grandson
postponed
##esthesia
Banks
Cou
Creek
Fail
Hud
Lion
Oreg
Owen
Pra
SAP
cess
fills
ponder
tones
##nik
##don
##onium
begg
stakes
##abase
comed
emulsion
clone
oversh
disposition
evap
1095
commended
##working
1115
paralysis
recognised
belts
endot
shortfall
behold
infringe
booking
priests
nationally
##atorium
UNMI
admiration
closet
##262
additionally
physician
firef
Lei
heavier
Counter
Roosevelt
598
Paragu
defaults
vacant
visualization
ESB
turbulent
fetal
Haitian
polymerization
Running
##ogeneity
Chengdu
anomal
underestimate
JPEG
slogan
relativity
perseverance
unreasonable
unavoidable
courtesy
623
Carm
Fant
Fresh
Gand
Migration
Mubar
Nine
Sounds
UA
bounds
ditch
dielectric
filing
gn
liner
oath
tigers
##nesty
##naires
##vic
##zant
##atism
inmates
anecd
##eton
##sten
##ateg
##ateau
##irming
##ectomy
##ureth
spam
outfit
helmet
nob
##agram
newcom
coke
##obs
commenced
subsystem
processors
suppression
revive
adaptability
markers
playground
sludge
Shah
elusive
Goal
Exec
pottery
layered
radically
distributing
extrav
Manufact
calculus
resisting
trainers
##ponents
cardiac
Glass
tendencies
worthwhile
masterpiece
streaming
Dynamic
chickens
Taiwanese
empowered
persuaded
leaning
Montreal
legendary
upgraded
Physical
UNIX
reimbursement
##productive
CAMBRID
xenophobia
Thousands
ASCII
##mbudsman
Kremlin
CAMBRIDGE
676
870
920
939
970
963
BO
Fear
Gaz
Hai
Ivan
LE
Slow
WFP
lumin
mixes
tile
wary
##pend
##inum
inorganic
##reb
##asers
##icating
neon
##inee
notify
contempt
reside
overtime
##rophy
##worm
##aku
coaches
1145
boasts
flap
1868
##owners
continents
planar
famine
##692
##812
##412
benefiting
diets
salv
replen
##chedul
messenger
dinosaurs
emerges
attacker
warmly
Amar
612
Specific
Monica
Highway
tasty
sandy
##ancellor
Confed
scarf
odor
Graham
comprised
profoundly
discharged
Galaxy
sacrifices
contradictions
Baby
Oliver
sympath
Speaking
Discrimination
Lucas
Separ
dessert
seawater
souven
suitcase
ubiqu
centrifug
Paraguay
Mubarak
9th
Bow
Date
Dance
Gray
Kath
MG
Mov
Neb
Yale
cries
fonts
rhe
siege
##thesis
##oS
##oque
##lining
##uously
##VE
inversion
##iche
forging
whilst
unification
##ipper
hege
##ogens
decimal
lex
plaster
rechar
##ibo
coh
1065
##ensitive
1135
flick
remot
supers
1830
backdrop
waterproof
endurance
apprent
organised
drawer
slender
##talion
critically
knives
buddy
cardboard
migrate
Regard
comprehension
restrictive
reacted
interacting
garment
ringing
Jerry
abstraction
societal
injected
scholarships
Solomon
rewarded
loneliness
Reading
bolt
metabolic
cannon
idiomatic
Brothers
UNODC
fluorescent
Alternatively
bureaucratic
microphone
semantics
unsuccessful
Apollo
Qaeda
748
777
880
830
835
Delet
Ecl
Fr
Jr
Nord
Rud
Tog
bos
gaming
lays
oun
vested
##irot
##you
##TI
##rained
##idate
beats
##unts
##unals
##olon
##izzy
implication
##ainan
##ighting
emit
goats
allot
pervasive
##ittees
sequential
1080
regain
accru
1295
1345
carving
openings
shortcut
prototypes
bush
##azed
##overing
UNDCP
pasta
Betty
##462
fireworks
inspected
crab
Financing
calculates
supplying
pulmonary
preferably
##INC
sexuality
bulb
Rapid
nomination
microm
Alexand
vanished
Consideration
folded
Florence
Penal
emotionally
Target
DTensor
surfing
Cabinet
##obilization
orchestra
microscopic
nonsense
proclaimed
outsourcing
secrecy
caffeine
##odynamics
Oregon
728
Benn
Easy
Flex
Gang
HM
INS
Mend
Mons
P2
Siber
Tab
Woman
Yue
brom
coded
##si
##sl
##feng
##UD
##je
anonym
stray
##aby
sev
heights
Thirty
##agog
disks
confine
textiles
1050
Stalin
indict
gram
crater
parade
##phony
##evol
exporter
downside
booked
impatient
slag
tales
elbow
##eady
flown
UNESCO
Somebody
706
##ieces
##iked
investigative
658
##322
Cola
Carn
submissions
697
##shire
harbour
Minor
1105
dissolution
irony
locks
wildly
accidental
excessively
shutdown
unfold
explosions
albums
goddess
heroic
diagnosed
diagonal
rectangle
sulfate
Batman
shouting
Township
harvesting
tempted
crystalline
licensed
fluorescence
duplicate
pyramid
enrollment
outdated
disastrous
940
A1
ED
Lily
Luck
Pel
crap
fiss
pept
surn
##tings
##ho
##hal
##vi
##itutes
##uru
forge
##abad
##opsy
chunk
attaches
clash
arist
confid
1015
indisc
##parable
verse
roomm
1365
crus
crunch
ester
endured
factions
daylight
grouped
##713
##882
logistical
##372
Speed
salts
probes
contributors
silently
eventual
##323
variants
##222
Appl
Collect
Print
mistrust
694
##onnaissance
polymers
rubbish
Madame
stakeholder
obstruct
outlines
fractal
smells
aggregation
mindset
loudly
Wuhan
scattering
sixteen
spraying
cinem
thriving
recreation
Barbara
Konqueror
##idelity
Albania
demolished
wholesale
unveiled
glimpse
##izarre
Bib
Dai
Esc
Mt
POS
awe
faded
ming
##tor
##ease
##feld
##aton
##edo
##ilated
##ulatory
##imon
##poc
runners
existent
##angles
dislike
1075
1185
##oupe
avoids
minors
explode
skate
slipping
tops
##ivided
Doing
diaphrag
Adrin
Adobe
##343
Byzant
quicker
influenza
657
heavens
cops
614
contacted
696
Minnes
psycho
husbands
Medal
Emirates
##ESS
Poirot
##iotic
inhabited
encounters
overlapping
prohibit
##ochond
exceptionally
slipper
populism
Fujian
compositions
subscription
bureauc
deceased
heterogeneous
nodded
vaccine
switches
enrichment
veteran
vinegar
Warsaw
False
##ourgeois
blossom
inertia
martyr
rewarding
vampire
landscapes
Mozambique
Juventus
8000
Cauc
Git
Oracle
SG
Sheng
Salt
Wy
XI
bizarre
curing
mam
nause
tapping
##Claim
##gs
##Us
##HING
##Qu
thieves
##otine
forens
##sein
shades
spice
clam
##avi
decree
##ieg
Stri
1165
1175
bladder
buzz
questionnaires
designation
raft
bookstore
delic
skies
programmer
Arc
Advis
obsessed
Decides
Leo
precarious
hostility
welcoming
microorgan
Palm
stationary
Content
lifec
1155
prophe
undes
launches
Morning
vegetarian
##araoh
licenses
kilograms
visualize
unpaid
conveniently
fabrication
reconcile
disappro
prayers
supplemented
disseminate
owning
Sixth
Combined
prestige
Terminal
telecommunication
averaged
shovel
##culosis
mascul
astronauts
Slovakia
franchise
irreversible
Hamburg
Diamond
timetable
Saddam
760
742
AV
Biss
Bert
Fashion
IE
Jur
Pick
Paint
Sally
linger
vou
##cur
##pable
##ongh
##aron
##unning
canon
comrades
##apest
##orts
embody
plains
committing
polio
whatsoever
##elsh
specimens
studios
##ructural
endemic
limb
admired
##ollen
statute
##annon
barn
halfway
companions
motions
Reagan
Coff
##197
associates
multiplication
auditor
enhances
residue
harv
1205
Questions
1055
accorded
graduating
cabbage
melody
cyclone
mobilized
Robinson
flourish
NEPAD
deteriorating
Jiangsu
sparked
Serbian
attainment
redundancy
contracept
smokers
uniquely
deletion
fictional
683
AW
BL
Bomb
CIS
DI
Hind
Knight
MIL
Own
SBI
Tam
fals
pains
##pit
##pine
##anke
##anese
inception
##rod
##roke
ischem
##abi
##abetic
##imation
##ective
##heres
usability
##emption
##opping
unin
pretending
outset
presidents
1350
crushing
revis
tung
retal
##413
greedy
UNA
existential
708
Statements
brakes
creator
establishments
weld
##uffs
villa
starving
fragmentation
sorted
acquiring
Harris
##holding
mortar
Studio
backend
Macau
possessions
habitats
anticipation
Default
Karen
Equality
##ihad
iterative
blasting
Optim
exacerbate
Creative
##inho
erected
dubbed
deferred
##pography
contradictory
Laura
hydrocarbon
undergone
childbirth
Minnesota
723
860
Baker
DOS
Fuck
JMS
Jenny
Risk
Zen
dro
hockey
ration
##pen
##ctica
##riad
weaving
doses
intric
confessed
yourselves
newest
gravel
1325
revisions
1893
demise
shortened
Shell
delta
##613
##813
visually
nonpro
grease
analysing
swine
beneficiary
Adams
inflicted
volley
biennial
##ucks
##ussy
hottest
semicon
Russell
Franco
disruptive
remembering
voter
594
interpreting
712
Mald
##sterdam
timer
confirms
palate
Understanding
attributable
Schools
plateau
smartphone
markedly
reproduce
amazed
bonuses
Entertain
puppet
Frequ
Ahmad
cocoa
whisper
gestures
recruiting
invaluable
weighing
ghosts
uploaded
prestigious
cheerful
pesticide
swiftly
cylindrical
stricken
trousers
633
820
Dest
Jen
Lost
Lakes
Mix
NY
PLA
RPC
SEC
Tol
Wid
jelly
lanes
pater
##inarily
##icity
forc
Inner
##abel
##ulum
chef
assemble
segregation
imitate
spicy
##iping
sober
incub
##week
assay
formulating
selectivity
multicultural
bred
printers
competed
customize
terrestrial
##aneously
impacted
bounded
656
catches
collects
cyan
Description
judgments
angular
quotas
demonstrators
hydrop
picks
consultative
Boys
grandchildren
Quant
Address
rotten
petrol
Value
isolate
chiefly
tallest
manipulated
altar
Background
Magic
lipid
thirteen
Bulg
replicate
fishermen
endeavour
Marxism
photographed
pertaining
reiterate
ignorant
Originally
exaggerated
Factory
Absol
picnic
cricket
Bog
Dennis
Hills
Leste
Mason
Rat
Roc
Rural
TD
Tow
Tech
Wend
ais
fel
##rings
##oise
##OME
##ecca
trailer
##owa
##olia
##olite
notices
outflow
heir
poets
cleansing
workout
##ocular
1099
1085
Heath
poles
polished
capturing
technicians
##roller
##ickers
donkey
backlash
expatri
##893
policemen
skysc
slack
##archy
Exact
pots
##904
triangular
Enjoy
cathedral
audits
instructed
sellers
692
emphasizing
preferential
vulgar
unsafe
sanction
Socialist
bosses
eldest
flavors
Guangxi
Angela
Example
unusually
1920s
championships
outdoors
fierc
bronch
lesions
contingency
cafe
glossary
plunged
Schedule
Lieutenant
skeptical
foreground
physicist
algae
Muhammad
coconut
extravag
945
Cash
Ki
Nation
Sixt
Tak
Wonder
ot
sounding
trol
viv
Île
##bot
##pings
##wind
##ğan
##itol
##roots
##verb
##abouts
##ados
##opia
##inees
##antom
##perform
attent
soaring
overdue
plac
recurring
upstream
confession
liar
##obiles
Storage
acclaim
1265
1195
depress
supreme
1895
##oya
retains
Conduct
grouping
##693
##293
##313
##cussions
promul
visions
allowances
greeting
##673
##273
##473
##screen
memorable
##442
Orth
##642
Apache
ethn
Monten
puls
Previous
Truth
Italians
Configure
AIM
Terry
CSV
Henan
catalysts
supervise
exhaustion
##ulsive
ascend
Database
Legal
neighborhoods
sedimentary
Dalian
intersect
Wayne
irresponsible
jealousy
unrealistic
diligence
persecution
landmines
Johannesburg
Scandin
Regardless
Eclipse
Cad
Fou
Ja
KA
Kobe
Spo
Wong
XSL
lest
°C
##tling
##eer
##vol
##inished
##aten
##anxi
##eta
stif
##otics
spouses
heater
eman
scaff
smarter
conson
differentiate
brighter
solic
##793
Adding
##109
Lehman
geology
Justin
proposing
eighteen
turkey
Philos
kidding
axle
Protest
Luke
##oscope
##doğan
necklace
hospitality
Postal
madam
Initial
Erdoğan
nicely
Advance
Belgian
incompet
Junior
distorted
pearl
Original
##figuration
Bryant
precursor
cottage
polynomial
Transformers
Route
unlawful
evaporation
Monteneg
632
743
ATP
FEM
Gaddafi
KG
Kay
Northeast
SMS
VS
danced
eu
ether
etern
lt
tilt
##tics
##Cl
##whe
##HF
##LY
##Ex
##robe
stitch
##chief
##amous
transist
##endas
compounded
heel
afterward
clown
decou
1020
1235
1275
fines
1180
1385
1848
1896
artwork
##683
progression
##being
##363
privat
##263
biography
##905
barren
interpolation
crisp
silica
circulating
##198
embodies
Developed
snacks
Heritage
##helial
Contact
preferable
662
restricting
##urrency
##hetical
Subsequently
unfinished
bachelor
sadly
##rochemical
riders
clicks
champagne
Missouri
torped
contempl
deserted
fractures
Evidence
turbulence
antibody
Laden
stereo
Daemon
weighs
cherish
Marcus
cautiously
pedestrian
Antarctica
proprietary
resentment
versatile
impoverished
asynchronous
tooltip
Entertainment
733
Aunt
CAS
Ey
ET
Liqu
Meg
Male
Native
Ple
PET
Ring
SAS
TPP
gad
gour
lure
lump
pH
waking
##cott
##sa
##oint
##dles
##foot
##aning
##itches
##rack
##etting
##ilight
traps
stochastic
##abe
##irk
##illo
##ifting
poised
reconnaissance
setbacks
##aterally
##aceous
buoy
paramount
monk
effected
activism
slump
IDE
##383
drastic
antid
crosses
interpersonal
Ord
banner
disruptions
terminals
widening
striving
Amsterdam
feminist
##itchell
shocking
##rophys
appealed
triggering
intentionally
Silicon
Qingdao
astronomers
strokes
immunization
WiFi
aspiration
Babylon
hesitate
cadres
Luxembourgish
Creating
exemption
Materials
Latvia
majors
affirmative
multiplied
manuscripts
Beauty
Recognizing
Nicholas
##consin
##iovascular
foreseeable
staple
redesign
Wisconsin
ambulance
##urethane
bureaucracy
930
Ax
Dak
Emm
Focus
JVM
Mul
Mold
Nap
PPP
Qt
Rever
Sug
aided
dumped
ech
rugged
tore
##iago
##yon
##orf
##orig
##uristic
staged
reus
##abis
shru
suction
notions
##umines
sparse
adi
adject
reper
##prop
sof
clot
plating
recol
nozzle
##asses
scourge
##world
Alab
##ethylene
herbal
1245
1125
boast
1315
invasive
importing
servo
##403
##493
specializing
discomfort
##283
drastically
devotion
##463
customized
extradition
652
latent
conductivity
promotional
Amend
pathway
denies
582
Sunni
Opening
acidic
duly
Holmes
stretches
hemisphere
fragrant
prosecuted
pinch
Volume
Buenos
fascinated
Audit
penetrate
cocktail
leaned
Xinhua
Bernard
Turner
Budapest
Device
coincidence
enclosure
##ropolis
hypocr
irrespective
Drive
Broadway
betrayed
Issues
intestinal
abruptly
precaution
arrogant
underwent
seventy
B2
Celt
DJ
Din
Nile
Pow
Pad
Raw
Spl
SAN
Zi
bait
gown
riv
wired
##nas
##gio
##UB
##requ
##ods
##ilage
aloud
##ivated
chord
prizes
emph
peel
depicts
curv
expands
constellation
objectivity
discarded
##373
##ucked
##rategy
##shi
855
minimizing
psychologists
spectroscop
dissent
Secondary
delegate
Hui
##uki
Believe
furnished
philosophers
1859
synthesize
battlefield
Memorial
tabs
Annie
preceded
inquiries
Player
recordings
manifestation
replicated
refrig
orthodox
cosmic
pistol
constituent
##ocaust
Ottoman
Behind
pivotal
snapshot
Kurdish
##ozoic
gloomy
Apparently
799
Eg
FL
Fiji
Hou
Jar
Kw
Kra
Maz
PD
Same
STA
XII
citing
gee
hats
ls
ranged
yearn
##rs
##hero
##itates
##steps
##idae
stool
cane
##andan
plut
symmetric
perfor
regrets
1260
1130
1191
##issibility
backyard
insane
##arming
##702
directories
##note
##883
cultured
marrow
##ovo
breeds
devise
grounded
##ollah
Commander
##906
Compl
broadc
interpreter
##genic
advantageous
EUR
Shanxi
bacon
obstruction
vastly
principally
Milton
therapies
ARM
Voice
Fergus
Louisiana
Churchill
Treatment
GPT
Reduction
feminine
renovation
Approxim
shampo
transplantation
invoice
reefs
righteousness
indefinitely
cascade
Petersburg
remittances
SBSTA
##computer
aforementioned
celebrities
lifecycle
Aires
Ci
Eld
Mog
Nad
Prad
Verm
lou
nylon
pores
penn
sag
tam
##rig
##hang
##crit
##wic
##eri
##itism
##econds
##sticks
stained
exits
compose
notified
spared
compelled
compiler
##acency
generosity
myocard
smoked
aggl
Standing
Alright
1892
##plicated
shortest
communism
##393
ideally
skins
visas
slips
entr
objectively
##rett
complexes
localization
Expo
##aughty
statutory
thoughtful
motto
steer
raped
conflicting
sexes
sunrise
budgeting
Perfect
imaginary
Consensus
Humans
murm
medications
academics
quarterly
motivations
uniforms
fabricated
Basin
Metro
cooperating
Silk
climatic
genuinely
astronomy
tactic
discloses
riches
Wiki
bicycles
yeast
ambiguity
Optional
Hurricane
Physics
Ruby
viability
linen
tossed
densely
warranty
Antarctic
vertically
Ensure
hypertension
humiliation
submerged
Slovenia
outweigh
remuneration
ubiquitous
Bulgarian
Alabama
682
734
960
Bash
Fill
JI
KB
OL
Overs
Pull
Powers
RSA
TT
TE
cort
hut
herm
hips
mum
pardon
rides
tertiary
vortex
##card
##aS
##gie
##Acc
##Ms
##Sl
##RD
inactive
##icut
##icidal
##raged
modifying
##apolis
##ifference
mega
soared
plumm
intang
1035
Stu
intert
1250
strata
parach
paraly
generals
watermel
insign
##ronics
refining
##213
standpoint
greens
##873
descended
freel
swollen
barbec
analytic
supervisory
tremb
Teaching
reformed
telev
inspectors
sunk
seedling
quotation
##amba
##coat
polyester
sweater
consulted
##ISA
occupies
extremism
surround
criticize
concerts
extracts
watershed
profitability
cooperatives
galleries
crafted
acquisitions
mathb
conservatives
Caesar
Ready
Judge
interruption
diminishing
cereal
descriptive
Coordinator
Improving
Citizens
enlightenment
underscored
verteb
affiliated
mushrooms
sabot
worsening
Beginning
evidently
antioxidant
precondition
alkaline
staggering
Cantonese
counselling
seepage
loosely
cessation
Burg
Dop
Iv
Nash
Oz
Spect
Wright
Zero
dances
dared
fringe
wiring
##kong
##dog
##Is
##alam
##reed
##urers
begging
cong
condu
Income
##imm
cans
atroc
##opathy
notorious
unear
weed
teas
spun
##eper
##perse
leaking
leaks
aroused
scrub
agendas
coax
blended
##weed
specifying
1889
1864
persists
##cio
1700
opted
metamorph
skipped
slab
repealed
youngsters
statistically
##ooting
muscular
##243
barbar
messy
scientifically
Manual
##223
referenced
sleeves
coping
definitive
submitting
cardiovascular
##ERS
novelist
unsu
##piration
footballer
moonlight
plugins
motivate
Grace
diversify
Hyper
unexpl
abstracts
pronouns
amplifier
ribbon
##Strategy
Championships
counseling
Concern
Effects
Columbus
antibiotic
Hopefully
reaffirmed
dentist
##amiliar
underestimated
suburban
##imensional
tatto
redistrib
Filipino
##pherd
PersistentVolume
calorie
diaphragm
789
899
Diana
Eb
Gro
Hann
LR
PI
Said
Vari
gir
joking
nort
sq
tents
##nection
##Tor
##Le
##ranes
shalt
##places
unused
chi
##soon
##atern
##ococ
saus
conscient
improv
flue
bucks
asserted
fungus
democr
communal
##113
impart
electorate
viewpoints
Arn
morale
calam
radiant
builders
essays
silic
packaged
squared
counters
Abkh
paints
##umbai
stationed
comprehensively
Editor
Whoever
waveform
stimulated
commentators
remarked
religions
rubble
Subject
Seeing
inventories
uncond
gallon
Naval
IRC
##otyping
disseminated
Audio
dispatch
whispered
Bernanke
concession
endeavor
stagnant
Marxist
Lisbon
Priority
interdependent
stewards
distracted
Adoption
Oriental
vicinity
WASHING
incapable
Fernando
Hundreds
Monterrey
blueprint
Bissau
WASHINGTON
CAP
Kai
Mis
Od
Ri
bourgeois
fec
handing
lur
lush
pac
swords
##ratory
##bly
##lical
##uang
##GL
##inently
##eler
##isse
##stood
##stock
##essional
##gevity
seab
unauthor
transverse
##umen
emitted
##udding
plaque
recl
symmetrical
sequencing
coag
verge
predictive
blink
Unix
reminis
showers
captive
curl
carrots
capillary
solves
daytime
nationalities
filename
costing
stabilizing
limestone
connector
salty
joins
brackets
PhD
Finding
enjoyable
Perl
embod
##uana
robbed
##ascus
Prec
Accept
spotlight
formaldehyde
Liberal
formatting
fleeing
interpretations
exposing
Capacity
uncont
Metropolitan
Quebec
longevity
Sudanese
Ladies
supporter
Customer
subscrib
Leader
sterile
towels
catalogue
germination
escalation
workloads
glyc
##operative
pirate
enlightened
pessimistic
MIME
seizures
Honduras
wandering
inadvert
J2EE
Stewart
cervical
cellulose
dorsal
Failure
Abkhaz
767
798
Bio
Cav
Cell
Cool
Crus
Coca
Dry
Gan
Gross
HF
Hak
KS
Mode
Mumbai
Nin
Vent
Yo
faction
jets
wolves
##ril
##rals
##iK
##Cs
##vian
##lest
##lah
##zu
##és
##ão
##inition
##inates
##itus
##etta
##urances
##otomy
##ranges
##aders
usher
seating
unde
unden
unpop
chalk
##artments
##dup
scans
##ffiti
grams
1220
flor
oppress
simulations
methodological
planners
prevailed
filmm
costumes
globalized
elong
profic
##iquette
##483
payload
##rastructure
excitation
rapport
welded
592
698
constructs
lifelong
dividends
turtles
Autonom
Goods
ambient
Libert
Benin
fortress
combatants
tensile
sectarian
adviser
harmonization
cyclic
Promoting
constituents
categorized
Laboratory
impaired
shrinkage
pandemic
biscu
overcrow
seizure
Tonight
amphib
diarrhea
Kyrgyzstan
Approximately
Au
Berm
DRA
KC
Ya
dome
sights
##cover
##bath
##gam
##atre
##ouched
##itoes
travers
bew
progn
chew
orally
spa
resumption
##pton
relics
##iley
##ultural
classmate
floral
roast
grind
differing
assists
##issa
donate
multil
multitude
pipelines
slider
filmed
##ahn
lawful
splash
flowering
energ
respecting
Clay
barrels
Statement
photographic
collectors
inspector
latitude
##195
Carrie
Role
Noting
ignition
tenant
polyurethane
Month
Greens
sandwic
proceeded
undertook
##breaks
Surely
distinctly
Freud
INF
neutrality
unnatural
bells
rods
venues
Books
##lasses
toilets
Akon
allergic
Historically
wrinkles
scramb
commencement
peanut
bouquet
warrior
Kashmir
Observatory
intermitt
indiscrimin
Coffee
##Account
5G
CER
E4
Gauss
Hend
IX
KW
Kin
Kings
Kids
Mak
Nest
NBC
R2
Ral
Wo
Welsh
Xian
biting
bodied
ga
rall
sow
vin
##rina
##sk
##bird
##green
##DO
##Rs
##jia
inac
anis
##leen
ont
congestion
prose
protracted
alright
##estically
##opath
transcript
##antry
immor
##ereg
##ellows
##acles
plent
##ango
nostal
acup
gracious
Hebei
##rowing
1225
1150
1199
wellbeing
blur
1320
parl
adapting
expired
idol
##802
Token
applicability
behaved
landmark
Indo
swung
returnees
initiation
replaces
misconduct
801
##662
##ographically
Letter
Teacher
banquet
654
innate
conducts
Train
divergence
starvation
##arius
Recalling
liquids
001
humour
Emphas
manuals
youths
manageable
Window
garments
Liberation
wheelchair
PRO
hampered
kissing
Queens
fingerprint
Evans
disagreement
geared
flourishing
acknowledges
Santiago
robustness
MP3
sympathetic
patriotism
reluctance
hiking
breakthroughs
Shaanxi
plunge
tetra
disbel
astonishing
illiteracy
typhoon
tuberculosis
intriguing
microstructure
traumatic
Response
solvents
Exactly
Montenegro
888
891
864
989
Amm
Bund
Bird
Cels
Fah
Gn
Hob
Kid
Nas
Nathan
Ran
Tennes
ba
fats
lem
wo
##rally
##mission
##vae
##Group
##HP
##IO
##enade
##itant
##elastic
throm
##utary
stare
fores
Ing
##thorp
spor
repar
emblem
emulate
relocation
manpower
uphe
commens
##coni
blonde
##roughts
backpack
speeding
metic
directive
Artic
##iquity
motherland
temp
landlord
drone
labeling
memorandum
probable
contributor
Reference
Plaza
Peking
voiced
appropriation
resisted
##headed
##ambur
blindness
migrated
storey
Opportun
Eddie
hydrox
ICP
Economy
disciplined
axes
bathing
exploiting
grassroots
AIX
diplomats
reproduced
PRES
pupil
NGC
Classic
OSCE
fertilization
halted
Increase
stirring
miniature
GNP
Participation
cousins
Croatian
sincerity
gastro
glowing
##keley
assassination
dosage
Connecticut
Lenin
Literature
homosexual
Guidelines
pigeon
quadratic
filtration
Unicode
Bath
Crown
Haven
Jab
Owing
Pul
Pip
Session
UTF
fren
gru
hates
hambur
lament
nip
rash
roster
scept
##hist
##cheng
##bank
##mia
##pi
##inse
##enching
trader
prow
runoff
##illus
shred
##ivation
override
##uder
recourse
##agin
myriad
indent
polling
1120
predators
instalment
phased
goodwill
cores
fungi
carrot
whereabouts
1400
##703
213
airborne
##azole
##flower
bald
correcting
misses
accountant
Worse
##443
Marian
cram
seedlings
Trainer
trustworthy
##762
blockade
##eeding
Acting
salesman
prefers
extremes
Trinid
Holocaust
Berkeley
prospecting
heightened
prompts
Luo
advocating
elders
melted
sedu
hamper
pedal
adventures
pitched
##EEE
##iatric
groove
conveyed
theaters
insecure
spells
bothered
camel
disparity
portraits
swallowed
pragmat
oscillation
Albanian
depleted
relocated
aggravated
locomotive
chunks
Majesty
JAX
crocod
Hudson
Caucas
Ferguson
Tennessee
768
986
9000
Average
BER
Basket
Diet
Danny
Gad
Iowa
Kit
Kant
Lane
Rum
Witness
Welfare
gem
hairs
rans
tidal
violet
zomb
##bies
##mont
##Bs
##FTA
oft
##odium
##iguous
Ingress
chewing
##plings
##umbs
contour
repent
butcher
recess
##asso
scold
##ibia
qualifying
depressing
netizens
flank
1335
invites
centric
wrath
autism
testify
hears
matrices
dragging
rested
##retched
histogram
singers
domination
antique
editions
##ushima
reflective
diverted
shoppers
##mingham
residues
##valued
birthplace
dangerously
uncovered
psychologist
##ubei
1305
##ontally
sandstone
##anche
Warren
Modi
academia
throws
alcoholic
teachings
uniformity
manipulating
taboo
Feel
##grades
Equal
Christianity
scanner
chatting
disposable
dispatched
bolts
Observer
Damascus
orbits
Improved
Stanford
pioneering
adhesion
fulfilment
Ellen
dubious
monarchy
anatomy
orchid
plagued
dolphins
McKin
rebalancing
Aristot
Prague
mammal
DaemonSet
Aur
Ages
Bag
Balt
Cyn
DDR
Ether
Gore
Himal
Kor
Kas
Laughter
MQ
NU
POP
RSS
apost
dams
fixes
kicking
oy
sine
vap
vase
##CS
##cases
##kina
##yards
##°C
##ionic
inacc
##iday
beads
##vez
onions
onwards
canals
enlist
shaken
##emy
learner
##apple
spraw
Chun
resides
clips
plated
reload
disposed
##oshan
coaching
1040
1299
1285
opaque
corrug
bushes
typew
specializes
happiest
envision
listener
objected
Related
stabilized
diffuse
pastoral
biode
urinary
friendships
Respons
steamed
##196
cyt
footing
Measure
Carlo
Carbon
transporting
Switch
IPS
Rece
commanders
corps
troubling
parked
GPUs
1255
Anglo
mails
Moving
Conflict
fortunately
furnish
abandoning
CCD
vanilla
crews
moistur
Equip
embracing
resorts
scatter
militants
dispens
venom
spokeswoman
Oslo
sentiments
deduplication
bomber
eagerly
Leaders
executable
Castro
sailors
Moroccan
Traditionally
retrospect
Principle
Message
ALL
Friendship
Mohammed
impairment
bailout
glaciers
catering
skeleton
ivory
Architecture
Lotus
Liaoning
Female
cathode
horizontally
##olithic
USSR
unpopular
869
829
949
Bun
Bond
Gon
MAR
Pale
Rand
Sleep
Tah
Wing
fi
hatch
tac
wakes
##rarily
##nian
##mill
##moon
##Man
##far
##yM
##HI
##heid
##idian
stur
modulus
modelling
deed
contested
outp
recount
recycle
saint
predic
experimentation
##urned
tuna
1883
continual
realise
solder
##cycl
windy
Shia
discard
disciple
participates
localized
Adjust
softly
Decision
packs
shareholder
containment
##842
trusting
estimator
stressful
Mini
cruc
mutation
bully
Automatic
Egyptians
compensated
Satellite
fixation
tribunal
rigidity
cultivating
Settings
enormously
guardians
distinguishing
Walker
outsk
fetus
benchmarks
elaboration
screws
stacked
##blance
ancestor
##luence
intermediary
Temper
membranes
replica
deduction
discounts
ninety
revolt
Sandy
subregion
gastric
Guardian
substitutes
substituted
chinese
succumb
Ottawa
moderately
confiscated
appendix
bastard
Hussein
MONUC
##itosan
remotely
semiconductor
817
Chern
Deg
E2
Hil
Hels
Haz
Mall
Mete
Mitchell
Pep
Ruth
ip
oval
ses
sarc
tipping
##iological
##cry
##DN
##LB
##alc
anne
thicken
beasts
stam
##unken
mailing
sug
unbal
sponge
abusive
##oga
##ultan
##rescent
##aceae
hered
1230
1111
highs
simulating
1899
1898
concurrent
termed
passions
humanities
charitable
keeper
Conversely
slurry
restless
engineered
legends
##anni
Mayor
modernity
coffin
Cohen
organizers
Polic
##hester
sniff
##ponent
professionalism
Monro
magist
Glob
contrasts
##ometers
derives
candles
namespaces
extremists
##ascal
Prep
Edition
1355
homem
Economics
allocations
noticeable
Marketing
grassland
Admiral
parenting
Distribution
##married
##breaking
criticisms
defective
Joan
Qinghai
Hallow
butterflies
synchronized
waved
populists
Norman
Kuwaiti
Investig
Investigation
elegance
replicas
surgeon
cannabis
culpr
neuron
pertinent
##etooth
spacious
Fifty
Emerging
browsing
implicitly
conspic
Michelle
Rodr
dwelling
tidy
##accharide
hepatitis
cucumber
entrenched
796
878
Brow
Bishop
Ce
Hosp
Horn
Hamm
IEEE
Jav
Jung
Molly
ht
hens
jihad
mend
mills
sender
ti
##aise
##athed
##racks
##utation
##idge
stigma
Theatre
##olate
canned
looming
clutch
##aca
noises
arisen
needles
1290
1291
1129
bloc
roasted
presup
1311
1886
thinkers
watermark
waterfall
##appears
condoms
##azi
facade
Allied
Exhibition
##rooms
winters
bioc
misgu
tripled
influx
dinosaur
Plato
excuses
photoc
bananas
Maritime
digiK
referee
pads
traveler
##742
smoother
compliant
pathological
Monaco
novelty
Correct
apparel
billing
fingert
Supply
sanitary
diploma
photosyn
flavour
Patri
wrapping
Directorate
roofs
Deleg
jumps
intentional
mitochond
decorate
mobilizing
thrilled
astronomer
gangs
manifestations
Testament
alteration
overlooking
lesbian
Accounting
condensation
dissipation
frontal
microscopy
Introduction
mosquitoes
supervisors
infiltration
homosexuality
##lotte
bottleneck
recursive
unresolved
Chandler
munitions
Principal
provocative
##ategory
Amarok
fiercely
promulg
refrigeration
Trinidad
Basketball
digiKam
797
916
ANS
CAT
Hide
Tag
Vel
Voc
droughts
ferv
fug
gears
muff
oily
paus
taper
vint
##tled
##cuts
##bel
##vable
##lave
##OA
##ía
##edar
##ecks
thor
extern
##employment
valleys
leuk
acne
examines
quiz
Anal
grained
1139
1190
bliss
assurances
##phis
##rolling
questionable
raz
parametric
benevol
templates
drums
diffraction
characterization
Adapt
capitalize
instituted
Reason
Guam
seriousness
hydroph
snail
Previously
iceberg
tasted
advertisers
thinner
##represent
inventor
multilateralism
electrostatic
advisable
puppy
Denver
Bobby
jewels
marginalization
mythology
toothp
apologized
##ocyte
scalp
assertion
forbid
Princeton
Circle
Inspection
curtains
neatly
reciprocal
Material
fluoride
Fleet
scarcely
algebraic
kettle
Vincent
Tripoli
devaluation
disregard
Jennifer
##qualified
##developed
rupture
UNMIK
curvature
Oversight
mathbf
unauthorized
Celsius
outskirts
839
861
897
Ll
LDA
Location
Math
MAN
MET
OA
Oak
Tip
boun
crank
dt
eb
hose
icy
kite
upro
##iere
##tub
##taking
##best
##fits
##Py
##atum
##aned
##around
bever
##olving
##imedia
canton
logged
##riff
spices
heed
Changing
aber
##ellery
alloys
plunder
Thunder
##agnet
##ibles
quint
graffiti
1279
1261
boo
1380
1390
larvae
revived
glands
earmarked
surrog
brink
protagon
await
educators
##ovich
housew
achieves
##pora
enshr
tradable
Commod
misfort
Complete
braking
##ursed
tempered
Resist
latex
etiquette
horns
##uche
fraudulent
starter
forgets
continuum
kinem
Acts
mentioning
attendant
doubles
Registration
Serbs
##ORS
eliminates
streamline
Neil
Romanian
narrowed
##oscopic
incorporation
dusty
yielded
Course
dynamism
arbitrarily
undermines
decorations
sponsorship
Magazine
inhibition
astronomical
empowering
Mainland
chapel
Variable
Insert
administering
browsers
subtit
##acterial
cafeter
Explorer
encompasses
terrific
pneumatic
handicraft
##heimer
VIII
intimidation
asymmetric
Beautiful
sulphur
Titanic
arsenic
Jakarta
Frederick
ruthless
shattered
Maldives
intangible
Akonadi
plentiful
acupuncture
776
811
879
849
971
991
BN
Bao
DF
Days
Files
Gren
Heng
Hamp
HIP
LD
NI
TW
lace
naughty
pu
pam
piss
sar
sher
##dish
##zier
##oni
##oriously
tofu
inaction
##strip
##adish
dement
comeb
whirl
##isted
##istrar
chicks
incense
decoded
##assic
##ibern
##akable
1030
Stev
1280
1269
1170
1379
1349
1375
1832
monsters
sidewalk
expounds
veins
demons
optics
Contra
##ducer
2100
Beir
1001
indicative
marital
brewing
##ync
assistants
miscell
##663
accuse
##yler
##107
Mario
Peoples
##194
conductive
widen
exchanging
snapped
negotiable
##coal
surprises
Register
##ATE
Edit
##queous
sweetheart
tighten
boosted
consciously
Millions
Burkina
Setting
alarms
consolidating
prohibits
oversee
stylish
tyran
concealed
Ethiopian
Sahara
Request
frightening
rivalry
reckless
pearls
Inspector
Scheme
illumination
farewell
impartiality
interrogation
negligible
peanuts
acetate
Version
Title
Municipal
spectroscopy
761
791
816
918
Bri
Cars
Founded
GO
Gem
Hass
Ian
Mum
Seed
T2
VM
WM
Wear
bak
casing
dich
deline
dude
fuse
lone
lamin
ps
vagu
##rored
##mand
##max
##fields
##pret
##wu
##Fs
##KS
##arthy
##ilized
##utton
reag
Input
##iman
##illin
ensemble
Translation
chore
chick
prick
##cessor
##avian
##ishan
arouse
setback
agro
1011
Structure
##inkable
provoke
1865
1874
backbone
insured
posing
skim
skirts
natives
slum
receivable
swell
slows
bios
Complex
##108
Guarant
Marco
attackers
##ophone
victories
tenants
harmless
Herbert
gardening
panor
platinum
##ONG
fueling
timid
Turks
Medium
Corruption
branded
deficient
##rophot
Satan
steadfast
empathy
cartilage
Educational
Stein
surveying
rankings
complemented
ceremonies
aerospace
inquire
antibodies
stamped
##rosive
travellers
prostitutes
clarified
pronounce
Cathedral
resembling
Written
capsules
discriminate
eligibility
chopped
embryos
Continue
seamless
kidnapping
Negot
supermarkets
conquered
IPv4
Workshop
frankly
Returns
disguise
Dominican
Jessica
detrimental
iodine
Roberts
Pitts
Galileo
amusement
volleyball
Himalay
beverages
821
814
969
979
Ae
Ath
AAA
BJ
Bot
Batch
Daw
DOM
Gay
Kil
Kiss
Lun
Pink
Sets
Vatic
VAT
Walt
Xie
bile
bounce
fury
laps
lumber
lava
mas
ping
ure
##rase
##core
##girl
##mart
##SI
##GR
##onial
##enaries
##itched
modal
itiner
chees
enforcing
notifications
##plan
[...]
